{
  "version": "1.0",
  "truncation": null,
  "padding": null,
  "added_tokens": [
    {
      "id": 0,
      "content": "[END]",
      "single_word": false,
      "lstrip": false,
      "rstrip": false,
      "normalized": false,
      "special": true
    },
    {
      "id": 1,
      "content": "[PAD]",
      "single_word": false,
      "lstrip": false,
      "rstrip": false,
      "normalized": false,
      "special": true
    },
    {
      "id": 2,
      "content": "[UNK]",
      "single_word": false,
      "lstrip": false,
      "rstrip": false,
      "normalized": false,
      "special": true
    },
    {
      "id": 3,
      "content": "[CLS]",
      "single_word": false,
      "lstrip": false,
      "rstrip": false,
      "normalized": false,
      "special": true
    },
    {
      "id": 4,
      "content": "[SEP]",
      "single_word": false,
      "lstrip": false,
      "rstrip": false,
      "normalized": false,
      "special": true
    },
    {
      "id": 5,
      "content": "[MASK]",
      "single_word": false,
      "lstrip": false,
      "rstrip": false,
      "normalized": false,
      "special": true
    },
    {
      "id": 6,
      "content": "<space>",
      "single_word": false,
      "lstrip": false,
      "rstrip": false,
      "normalized": false,
      "special": true
    }
  ],
  "normalizer": null,
  "pre_tokenizer": {
    "type": "ByteLevel",
    "add_prefix_space": true,
    "trim_offsets": true,
    "use_regex": true
  },
  "post_processor": null,
  "decoder": {
    "type": "ByteLevel",
    "add_prefix_space": true,
    "trim_offsets": true,
    "use_regex": true
  },
  "model": {
    "type": "BPE",
    "dropout": null,
    "unk_token": null,
    "continuing_subword_prefix": null,
    "end_of_word_suffix": null,
    "fuse_unk": false,
    "byte_fallback": false,
    "ignore_merges": false,
    "vocab": {
      "[END]": 0,
      "[PAD]": 1,
      "[UNK]": 2,
      "[CLS]": 3,
      "[SEP]": 4,
      "[MASK]": 5,
      "<space>": 6,
      "!": 7,
      "\"": 8,
      "#": 9,
      "$": 10,
      "%": 11,
      "&": 12,
      "'": 13,
      "(": 14,
      ")": 15,
      "*": 16,
      "+": 17,
      ",": 18,
      "-": 19,
      ".": 20,
      "/": 21,
      "0": 22,
      "1": 23,
      "2": 24,
      "3": 25,
      "4": 26,
      "5": 27,
      "6": 28,
      "7": 29,
      "8": 30,
      "9": 31,
      ":": 32,
      ";": 33,
      "<": 34,
      "=": 35,
      ">": 36,
      "?": 37,
      "@": 38,
      "A": 39,
      "B": 40,
      "C": 41,
      "D": 42,
      "E": 43,
      "F": 44,
      "G": 45,
      "H": 46,
      "I": 47,
      "J": 48,
      "K": 49,
      "L": 50,
      "M": 51,
      "N": 52,
      "O": 53,
      "P": 54,
      "Q": 55,
      "R": 56,
      "S": 57,
      "T": 58,
      "U": 59,
      "V": 60,
      "W": 61,
      "X": 62,
      "Y": 63,
      "Z": 64,
      "[": 65,
      "\\": 66,
      "]": 67,
      "^": 68,
      "_": 69,
      "`": 70,
      "a": 71,
      "b": 72,
      "c": 73,
      "d": 74,
      "e": 75,
      "f": 76,
      "g": 77,
      "h": 78,
      "i": 79,
      "j": 80,
      "k": 81,
      "l": 82,
      "m": 83,
      "n": 84,
      "o": 85,
      "p": 86,
      "q": 87,
      "r": 88,
      "s": 89,
      "t": 90,
      "u": 91,
      "v": 92,
      "w": 93,
      "x": 94,
      "y": 95,
      "z": 96,
      "{": 97,
      "|": 98,
      "}": 99,
      "~": 100,
      "¡": 101,
      "¢": 102,
      "£": 103,
      "¤": 104,
      "¥": 105,
      "¦": 106,
      "§": 107,
      "¨": 108,
      "©": 109,
      "ª": 110,
      "«": 111,
      "¬": 112,
      "®": 113,
      "¯": 114,
      "°": 115,
      "±": 116,
      "²": 117,
      "³": 118,
      "´": 119,
      "µ": 120,
      "¶": 121,
      "·": 122,
      "¸": 123,
      "¹": 124,
      "º": 125,
      "»": 126,
      "¼": 127,
      "½": 128,
      "¾": 129,
      "¿": 130,
      "Â": 131,
      "Ã": 132,
      "Å": 133,
      "Ê": 134,
      "Ë": 135,
      "Ì": 136,
      "Î": 137,
      "Ï": 138,
      "Ð": 139,
      "Ñ": 140,
      "â": 141,
      "ã": 142,
      "ä": 143,
      "å": 144,
      "æ": 145,
      "ç": 146,
      "è": 147,
      "é": 148,
      "î": 149,
      "ï": 150,
      "ĉ": 151,
      "Ċ": 152,
      "Č": 153,
      "č": 154,
      "Ġ": 155,
      "Ģ": 156,
      "ģ": 157,
      "Ĥ": 158,
      "ĥ": 159,
      "Ħ": 160,
      "ħ": 161,
      "Ĩ": 162,
      "ĩ": 163,
      "Ī": 164,
      "ī": 165,
      "Ĭ": 166,
      "ĭ": 167,
      "Į": 168,
      "į": 169,
      "İ": 170,
      "ı": 171,
      "Ĳ": 172,
      "ĳ": 173,
      "Ĵ": 174,
      "ĵ": 175,
      "Ķ": 176,
      "ķ": 177,
      "ĸ": 178,
      "Ĺ": 179,
      "ĺ": 180,
      "Ļ": 181,
      "ļ": 182,
      "Ľ": 183,
      "ľ": 184,
      "Ŀ": 185,
      "ŀ": 186,
      "Ł": 187,
      "ł": 188,
      "Ń": 189,
      "ĠÐ": 190,
      "Ð¾": 191,
      "Ðµ": 192,
      "Ð°": 193,
      "ÑĤ": 194,
      "Ð¸": 195,
      "Ñģ": 196,
      "Ð½": 197,
      "Ð»": 198,
      "ÑĢ": 199,
      "Ð¾Ð": 200,
      "Ñĥ": 201,
      "Ð°Ð": 202,
      "Ñı": 203,
      "ÑĮ": 204,
      "ÐµÐ": 205,
      "Ñĭ": 206,
      "ĠÐ¿": 207,
      "ĠÑģ": 208,
      "ĠÐ½": 209,
      "ĠÐ²": 210,
      "Ñĩ": 211,
      "Ðº": 212,
      "Ð²": 213,
      "Ð´": 214,
      "ÑģÑĤ": 215,
      "ĠÐ¸": 216,
      "ĠÐ¾": 217,
      "Ð¼": 218,
      "ÐµÐ½": 219,
      "ÑĤÐ¾": 220,
      "Ð°Ð»": 221,
      "âĢ": 222,
      "ĠÐº": 223,
      "Ñħ": 224,
      "ĠÐ¼": 225,
      "ÑĪ": 226,
      "Ð¾Ð²": 227,
      "ĠÐ´": 228,
      "ÐµÑĢ": 229,
      "ĠÑĤ": 230,
      "Ð¾Ð»": 231,
      "Ñİ": 232,
      "ÑĤÑĮ": 233,
      "ĠÐ±": 234,
      "ÐµÐ»": 235,
      "Ð½Ð¾": 236,
      "ĠĊ": 237,
      "ĠÐ¿ÑĢ": 238,
      "Ð¾Ð¼": 239,
      "³Ð¾": 240,
      "Ð¿": 241,
      "ÐµÑĤ": 242,
      "ĠÑĩ": 243,
      "Ð½Ð¸": 244,
      "Ð°Ðº": 245,
      "ĠÑĢ": 246,
      "Ð·": 247,
      "ĠÐ½Ð°": 248,
      "Ð¸Ð»": 249,
      "ĠÐ·": 250,
      "Ð¾Ð´": 251,
      "Ð±": 252,
      "Ð¾Ð¹": 253,
      "ĠÑĥ": 254,
      "ÑģÑı": 255,
      "ÐµÐ¼": 256,
      "ĠÐ½Ðµ": 257,
      "ĠâĢ": 258,
      "ĠÐ¿Ð¾": 259,
      "Ð½Ñĭ": 260,
      "Ð½Ð°": 261,
      "ĠÑ": 262,
      "ĠÐµ": 263,
      "Ñī": 264,
      "Ð¶": 265,
      "Ð°Ð¼": 266,
      "Ð°Ð·": 267,
      "Ð¹": 268,
      "Ð³": 269,
      "ÑģÑĮ": 270,
      "Ð»Ð¸": 271,
      "Ð°Ð²": 272,
      "Ð¾ÑĢ": 273,
      "ÑĨ": 274,
      "ÐµÐ´": 275,
      "Ð¾ÑĤ": 276,
      "ÑĢÐ°": 277,
      "Ð½Ñĥ": 278,
      "Ð°ÑĤÑĮ": 279,
      "Ð¾Ð³": 280,
      "ÑģÐº": 281,
      "ĠÐ³": 282,
      "ÐµÐ½Ð¸": 283,
      "ĠÐ»": 284,
      "ĠÑį": 285,
      "âĢĵ": 286,
      "Ð¾Ð±": 287,
      "ĠÐ±Ñĭ": 288,
      "ĠâĢĶ": 289,
      "Ð¸ÑĤ": 290,
      "ĠÑı": 291,
      "ÐµÐ¹": 292,
      "ĠÑĩÑĤÐ¾": 293,
      "ÑĢÑĥ": 294,
      "Ð¸Ð²": 295,
      "Ð»Ð°": 296,
      "Ð¾Ð¶": 297,
      "ĠÐ¾ÑĤ": 298,
      "Ð¾Ð³Ð¾": 299,
      "Ð¸Ð¼": 300,
      "Ð°Ð´": 301,
      "ÑģÑĤÐ²": 302,
      "Ð´Ð°": 303,
      "Ð°ÑĤ": 304,
      "Ð°Ð½": 305,
      "Ð¾Ð½": 306,
      "Ð¾Ðº": 307,
      "Ð¾Ñģ": 308,
      "ĠÐ¶": 309,
      "ĠÐĿ": 310,
      "ÐºÐ¸": 311,
      "Ð°Ð»Ð°": 312,
      "ĠÐ²Ñģ": 313,
      "Ñĳ": 314,
      "ĠÑģÑĤ": 315,
      "ĠÐ°": 316,
      "Ð¸Ð½": 317,
      "ĠÐĴ": 318,
      "ĠÐ²Ñĭ": 319,
      "ÐºÐ°": 320,
      "ÐµÐº": 321,
      "ĠÐºÐ°Ðº": 322,
      "ĠÐ¾Ð±": 323,
      "Ð°Ñģ": 324,
      "ĠÐŁ": 325,
      "Ġ-": 326,
      "Ð¾Ð»ÑĮ": 327,
      "Ð¾Ð·": 328,
      "Ð¾ÑģÑĤ": 329,
      "Ð°ÑĢ": 330,
      "ÐµÐ²": 331,
      "Ð»Ñı": 332,
      "ĠÑĤÐ¾": 333,
      "ĠÐ¡": 334,
      "ĠÑģÐ²": 335,
      "ĠÐ¿ÑĢÐ¸": 336,
      "ĠÐŀ": 337,
      "Ð°Ð¶": 338,
      "ÐµÐ±": 339,
      "ĠâĢĵ": 340,
      "Ð°Ð»Ð¸": 341,
      "Ð½Ðµ": 342,
      "âĢĶ": 343,
      "Ð»Ð¾": 344,
      "Ð³Ð¾": 345,
      "Ð°Ñı": 346,
      "Ð¸ÑĤÑĮ": 347,
      "ÑĤÐ¾ÑĢ": 348,
      "ĠÐ¿Ð¾Ð´": 349,
      "ĠÑħ": 350,
      "ÐµÐ·": 351,
      "ĠÑĢÐ°Ð·": 352,
      "ĠÐ¸Ð·": 353,
      "Ð¸Ñħ": 354,
      "ĠÑĤÐ°Ðº": 355,
      "ÐºÐ¾": 356,
      "ÐµÐ»ÑĮ": 357,
      "ÐµÐ³Ð¾": 358,
      "Ð¾Ñĩ": 359,
      "ÐºÑĥ": 360,
      "Ð¾Ð¿": 361,
      "ĠÐ·Ð°": 362,
      "ĠÐļ": 363,
      "ÑĤÐ¸": 364,
      "Ð°Ð»ÑĮ": 365,
      "ĠÐľ": 366,
      "Ð°Ð±": 367,
      "ĠÑįÑĤÐ¾": 368,
      "ÑĥÐ´": 369,
      "ÑĢÐ¸": 370,
      "ĠÐ¢": 371,
      "ÑģÑĤÑĮ": 372,
      "Ð½Ð¾Ð¹": 373,
      "ĠÐ¯": 374,
      "ÐµÑĩ": 375,
      "Ð¸Ð´": 376,
      "ĠÐĺ": 377,
      "ÑīÐµ": 378,
      "ĠÑģÐ»": 379,
      "ÐµÑģÑĤ": 380,
      "âĢĵâ": 381,
      "ÑĭÐ²": 382,
      "ĠÐĶ": 383,
      "ĠÐĲ": 384,
      "Ð°Ð¼Ð¸": 385,
      "Ð°Ð½Ð¸": 386,
      "ĠÑģÐ¿": 387,
      "Ð¸Ðº": 388,
      "ÐµÑģ": 389,
      "Ð»ÑĮ": 390,
      "Ð¸Ð»Ð°": 391,
      "ĠÐµÐ³Ð¾": 392,
      "Ð¸Ñĩ": 393,
      "Ð°Ð¿": 394,
      "ĠÐ¿Ð¾Ð»": 395,
      "Ð¸Ðµ": 396,
      "ÑĦ": 397,
      "ĠÐ¾Ð½": 398,
      "ÐµÐ¿": 399,
      "ĠÐ¿ÐµÑĢ": 400,
      "ĠÑįÑĤ": 401,
      "ĠÐ¼ÐµÐ½": 402,
      "Ð½Ð¾Ð³Ð¾": 403,
      "Ð°Ñİ": 404,
      "ĠÐºÐ¾": 405,
      "ÑĨÐ¸": 406,
      "ĠÑģÐ²Ð¾": 407,
      "ÐµÑĪ": 408,
      "ÑĥÑĩ": 409,
      "ÑĢÐ¾Ð²": 410,
      "ĠÐ²ÑģÐµ": 411,
      "ÐµÐ¶": 412,
      "ÐµÐ½Ð¸Ñı": 413,
      "Ð¼Ð¸": 414,
      "ÑģÐ»": 415,
      "ĠÑģÐº": 416,
      "Ð½Ñı": 417,
      "Ð¸Ð·": 418,
      "Ð½ÑĭÐ¹": 419,
      "ÑĥÑĤ": 420,
      "Ð½ÑĭÐµ": 421,
      "ĠÐ½Ð¾": 422,
      "ÐµÐ½Ð½Ð¾": 423,
      "Ð°ÐµÑĤ": 424,
      "Ð¾Ð³Ð´Ð°": 425,
      "ÐµÐ½ÑĮ": 426,
      "ĠÐ¾Ð½Ð°": 427,
      "Ð¶Ðµ": 428,
      "âĢĵâĪ": 429,
      "Ð°Ð¹": 430,
      "ĠÐ¼ÐµÐ½Ñı": 431,
      "ÑĪÐµ": 432,
      "ÐµÐ½Ð¸Ðµ": 433,
      "ÐµÐ³": 434,
      "ÑĥÐ¼": 435,
      "ĠÐ¿ÑĢÐ¾": 436,
      "Ð°Ð³": 437,
      "ÑĪÐ¸": 438,
      "ĠÐ¾Ð´": 439,
      "ÑĥÑİ": 440,
      "ÑĢÑĥÐ³": 441,
      "ĠÐ¼Ñĭ": 442,
      "Ð½ÑĭÑħ": 443,
      "Ð¾Ð¼Ñĥ": 444,
      "ÑĭÐ¹": 445,
      "ÑĥÐ¶": 446,
      "ĠÐµÐµ": 447,
      "ĠÐ´Ð²": 448,
      "Ð¸Ð»Ð¸": 449,
      "ĠÐ¼Ð¾": 450,
      "ÐµÑģÐº": 451,
      "ÑģÑĤÐ¸": 452,
      "ÑħÐ¾Ð´": 453,
      "ÂŃ": 454,
      "âĢ¦": 455,
      "ĠÐ±ÑĭÐ»Ð¾": 456,
      "ĠÑĦ": 457,
      "Ð°Ð»Ð¾": 458,
      "ĠÑģÐ°Ð¼": 459,
      "ÑĭÐµ": 460,
      "ÑĢÐ¾": 461,
      "ĠÐ»Ð¸": 462,
      "ÑıÑĤ": 463,
      "ÑĢÐ°Ð²": 464,
      "ĠÑĪ": 465,
      "ĠÐ¶Ðµ": 466,
      "ĠÐ¼Ð½Ðµ": 467,
      "ĠÂ": 468,
      "ÑĢÐµÐ¼": 469,
      "Ð»ÐµÐ½": 470,
      "ĠÐºÐ¾ÑĤÐ¾ÑĢ": 471,
      "Ð¾Ðµ": 472,
      "ĠĠ": 473,
      "Â»": 474,
      "ĠÑĢÑĥ": 475,
      "ĠÑģÐ¼": 476,
      "ÑĢÑĭ": 477,
      "Ð´Ðµ": 478,
      "ÑģÐ¿": 479,
      "ĠÂ«": 480,
      "Ð¸Ð¹": 481,
      "Ð½ÑĥÐ»": 482,
      "ĠÐ±ÑĥÐ´": 483,
      "ĠÐºÐ¾Ð½": 484,
      "ĠÐ¿Ð¾ÑĤ": 485,
      "ÑĥÐ¿": 486,
      "ĠÑĤÑĭ": 487,
      "Ð½Ð¸Ð¼": 488,
      "ĠÐ³Ð¾": 489,
      "Ð½ÑĭÐ¼": 490,
      "ĠÐ³Ð»": 491,
      "ĠÐ»Ñİ": 492,
      "ÑģÐ»Ð¸": 493,
      "ĠÑģÐµÐ±": 494,
      "Ð½Ð¾Ðµ": 495,
      "ĠÐ²Ð¾Ð·": 496,
      "ÑģÑĤÐ°Ð²": 497,
      "ĠÐ¿ÑĢÐµÐ´": 498,
      "ÑĭÑħ": 499,
      "Ð½Ð°Ñı": 500,
      "ÐµÐ»Ð¸": 501,
      "ĠÑĢÐ°Ñģ": 502,
      "Ð°Ð»ÑģÑı": 503,
      "ĠÐ²Ð¾": 504,
      "Ð½Ð¾Ð²": 505,
      "Ð»ÑĮÐºÐ¾": 506,
      "ĠÑĥÐ¶Ðµ": 507,
      "Ð¸Ñģ": 508,
      "ĠÑĨ": 509,
      "Ġ\"": 510,
      "ĠÐ±Ð¾Ð»ÑĮ": 511,
      "ÐµÐ»Ð°": 512,
      "ĠÑģÑĤÐ¾": 513,
      "Ð¾Ð±Ñĭ": 514,
      "ĠÐ²Ð·": 515,
      "ĠÐ¸Ð¼": 516,
      "ĠÐ¼Ð¾Ð¶": 517,
      "Ã¦": 518,
      "ĠÑģÐ¾": 519,
      "ÑĢÑı": 520,
      "ĠÑĤÐ¾Ð»ÑĮÐºÐ¾": 521,
      "Ð»Ñİ": 522,
      "ÑĢÐµ": 523,
      "ĠÐĳ": 524,
      "ĠÐŃ": 525,
      "ĠÐ´Ð»Ñı": 526,
      "ÐµÐ½ÑĤ": 527,
      "..": 528,
      "ĠÐ¾Ð¿": 529,
      "ĠÐ¼Ð¸": 530,
      "ÑĥÐ±": 531,
      "ÑĢÐ¾Ñģ": 532,
      "ĠÐ´ÑĢÑĥÐ³": 533,
      "ĠÐ½Ð°Ñĩ": 534,
      "ĠÐ¿Ð¾Ðº": 535,
      "Ð°Ñħ": 536,
      "ÑĢÐ°Ð·": 537,
      "ĠÐķ": 538,
      "ÐµÐ»Ð¾Ð²": 539,
      "ĠÐ¸Ð½": 540,
      "ĠÐł": 541,
      "ĠÐĽ": 542,
      "ĠÐ³Ð¾Ð»": 543,
      "ĠÐ¸Ñħ": 544,
      "Ð¸Ñı": 545,
      "ÐµÐ¼Ñĥ": 546,
      "ÑĥÑĪ": 547,
      "Ð¸ÑĤÐµÐ»ÑĮ": 548,
      "Ð½Ð¾ÑģÑĤÑĮ": 549,
      "ĠÐĹ": 550,
      "ĠÐĿÐ¾": 551,
      "ĠÐ´Ð¾": 552,
      "Ġ1": 553,
      "Ð´Ñĥ": 554,
      "ĠÐ±ÑĭÐ»": 555,
      "ĠÐ§": 556,
      "Ð°ÑĤÑĮÑģÑı": 557,
      "Ð²ÐµÑĢ": 558,
      "ĠÐ¾Ð½Ð¸": 559,
      "ÑĤÑĥ": 560,
      "ĠÐ¾Ñĩ": 561,
      "Ð¾Ð²Ð¾ÑĢ": 562,
      "Ð¸Ð»ÑģÑı": 563,
      "Ð½Ð¸Ðº": 564,
      "ĠÐĵ": 565,
      "Ð½ÑĥÐ»Ð°": 566,
      "ĠÑĩÑĤ": 567,
      "ĠÐ²ÑĢÐµÐ¼": 568,
      "ĠÐ´Ð¾Ð»": 569,
      "ÐµÐµ": 570,
      "ĠÐµÑīÐµ": 571,
      "ĠÐ½Ð°Ð´": 572,
      "ĠÐ¿Ð¾Ð¿": 573,
      "Ñį": 574,
      "ÐµÑĢÑĮ": 575,
      "Âµ": 576,
      "Ð½ÑĥÑİ": 577,
      "Ð¾Ñı": 578,
      "Ð°Ð¶Ðµ": 579,
      "Ð¸Ð½Ð°": 580,
      "ĠÑĩÐ»ÐµÐ½": 581,
      "Ð¾ÑĪ": 582,
      "ĠÐ´ÐµÐ»": 583,
      "ĠÐ¼Ð¾Ð³": 584,
      "ÑĤÐ°": 585,
      "ĠÐºÐ¾Ð¼": 586,
      "ĠÑģÐºÐ°Ð·": 587,
      "ĠÐ²Ð¸Ð´": 588,
      "ÐºÐµ": 589,
      "Ð¸Ð¸": 590,
      "ĠÑĩÑĤÐ¾Ð±Ñĭ": 591,
      "ĠÐºÐ¾Ð³Ð´Ð°": 592,
      "ÐµÑĤÑģÑı": 593,
      "ÐµÑĪÑĮ": 594,
      "ÐºÐ¾Ð¹": 595,
      "ĠÑĤÐµÐ±": 596,
      "ĠÐ¿ÑĢÐ¾ÑģÑĤ": 597,
      "Ð¼Ñĥ": 598,
      "ĠÐ·Ð½Ð°": 599,
      "Ð¸Ð»ÑĮ": 600,
      "Ð¸ÑĩÐµÑģÐº": 601,
      "âĢĵâĪŀ": 602,
      "ĠÐ¿Ð¾ÑģÐ»": 603,
      "ĠÐ¾Ñģ": 604,
      "ÑĢÐ¾Ð´": 605,
      "Ð°ÑģÑĤ": 606,
      "ÑģÑĤÐ²Ð¾": 607,
      "Ð¸Ð³": 608,
      "Ð¸Ð¼Ð¸": 609,
      "Ð¸Ð»Ð¾": 610,
      "Ġ(": 611,
      "Ð´ÐµÐ»": 612,
      "ĠÐ£": 613,
      "Ð¾Ð»ÑĮÐºÐ¾": 614,
      "ÐµÑħ": 615,
      "ÑĭÐ¼": 616,
      "ÑĤÐµÑĢ": 617,
      "ĠÐ½Ð°Ð¿": 618,
      "Ð´Ð¸": 619,
      "Ð°ÑĪ": 620,
      "ÑĢÐµÐ´": 621,
      "ĠÐ¾ÑģÑĤ": 622,
      "Ð½Ð¾Ð¼": 623,
      "ĠÐµÑĳ": 624,
      "Ð°Ð»Ð°ÑģÑĮ": 625,
      "Ð¸ÑģÑĤ": 626,
      "ĠÐ¾Ðº": 627,
      "ĠÐ´Ð°Ð¶Ðµ": 628,
      "Ð°Ð±Ð¾ÑĤ": 629,
      "Ð½Ð¾ÑģÑĤÐ¸": 630,
      "Ð²ÐµÑĤ": 631,
      "ĠÑģÐ¾Ð±": 632,
      "ĠÑģÐ¾Ð²": 633,
      "ĠÐ¿Ð¾Ñĩ": 634,
      "Ð°ÑİÑĤ": 635,
      "ÑıÑĤÑĮ": 636,
      "ÑĢÐ°ÑĤ": 637,
      "ĠÐ·Ð°Ðº": 638,
      "ÑĢÐ¾Ð¼": 639,
      "Ð½ÑĥÑĤ": 640,
      "ĠÐ½Ð°Ñģ": 641,
      "ĠÐ¿Ð¾Ð²": 642,
      "ÑĥÐ²": 643,
      "ĠÑĩÐµÐ»Ð¾Ð²": 644,
      "ÑĪÑĮ": 645,
      "ĠÑģÐµÐ±Ñı": 646,
      "ÐµÑĨ": 647,
      "ĠÐ¸Ð»Ð¸": 648,
      "ĠÐ±ÑĭÐ»Ð°": 649,
      "ĠÑĥÐ´": 650,
      "ÑĭÑĤ": 651,
      "ĠÐŀÐ½": 652,
      "Ð¾Ð¶Ðµ": 653,
      "ĠÐºÐ¾ÑĢ": 654,
      "ĠÐ½Ð¸Ðº": 655,
      "ĠÐ±ÐµÐ·": 656,
      "ĠÐµÑģÐ»Ð¸": 657,
      "Ð°Ð½Ð¸Ðµ": 658,
      "Ð°Ð»Ð¸ÑģÑĮ": 659,
      "Ð°ÑĨÐ¸": 660,
      "ÑĮÑİ": 661,
      "ĠÐŀÐ½Ð°": 662,
      "Ð°Ð½Ð¸Ñı": 663,
      "Ð°Ð»Ð¾ÑģÑĮ": 664,
      "ĠÐ»ÑİÐ±": 665,
      "Î©": 666,
      "ĠÐ½Ð¸": 667,
      "ÑģÑĤÐ²Ð°": 668,
      "ÑĥÑģÑĤ": 669,
      "ĠÑĩÐµÐ¼": 670,
      "ÑĢÐ°Ð½": 671,
      "ĠÐ±Ð¾Ð»": 672,
      "ĠÐ²ÐµÑĢ": 673,
      "ĠÐ¾ÑĩÐµÐ½ÑĮ": 674,
      "ĠÐ¿Ð¾Ð¼": 675,
      "ÑĨÐ°": 676,
      "Ãĩ": 677,
      "ÑĥÑĢ": 678,
      "ĠÑħÐ¾ÑĤ": 679,
      "ÑģÑĤÐ²ÐµÐ½": 680,
      "ÐºÐ¾Ð¼": 681,
      "Ġ2": 682,
      "Ð°ÑĤÐµÐ»ÑĮ": 683,
      "ĠÐ½Ð°ÑĪ": 684,
      "><": 685,
      "ÑĭÑĪ": 686,
      "ĠÐ·Ð°Ð´": 687,
      "Ð°Ñĩ": 688,
      "ÐµÑĢÐ¶": 689,
      "ĠÐ³Ð¾Ð»Ð¾Ð²": 690,
      "Ð¸Ð»Ð°ÑģÑĮ": 691,
      "âĢĵâĪı": 692,
      "ÑģÐ¼": 693,
      "Ð°Ð¶Ð´": 694,
      "ĠÐ¿Ð¾Ð·": 695,
      "ĠÑĩÐµÑĢ": 696,
      "ĠÐ¼Ð°Ð¼": 697,
      "ÑĤÐ¾Ð²": 698,
      "ÑģÑĤÐ²Ð¾Ð²": 699,
      "Ð°ÑİÑī": 700,
      "ĠÐ·Ð°Ð¼": 701,
      "ÐµÐ»Ð¾": 702,
      "ĠÐ±ÑĭÐ»Ð¸": 703,
      "ĠÐ´ÐµÐ²": 704,
      "Ð°ÐµÑĤÑģÑı": 705,
      "ÑĩÐ¸ÑĤ": 706,
      "ĠÐ³ÑĢÑĥ": 707,
      "Ð¾ÑĤÑĢ": 708,
      "ĠÐ±ÑĥÐ´ÐµÑĤ": 709,
      "ÑģÑĤÑĢ": 710,
      "ÑĢÐ°Ñģ": 711,
      "ÑĤÐµ": 712,
      "ĠÑĤÐµÐ¼": 713,
      "Ð½ÑĭÐ¼Ð¸": 714,
      "ĠÐ¿Ð»": 715,
      "ÑĩÐ°Ñģ": 716,
      "ĠÐŃÑĤÐ¾": 717,
      "ÑĥÑī": 718,
      "ĠÐ²ÑĢÐµÐ¼Ñı": 719,
      "ĠÐºÐ¾Ð»": 720,
      "ĠÐ¿Ð¾ÑģÑĤ": 721,
      "ĠÐĿÐµ": 722,
      "ĠÐ´Ð¾ÑģÑĤ": 723,
      "ĠÑĤÑĢÑĥ": 724,
      "ÑĥÑħ": 725,
      "Ð¸ÑĤÑĮÑģÑı": 726,
      "Ãħ": 727,
      "ÑİÑĤ": 728,
      "ĠÑĤÑĢ": 729,
      "ĠÐ¶ÐµÐ½": 730,
      "ĠÐ³Ð»Ð°Ð·": 731,
      "ĠÐ¶Ð¸Ð·": 732,
      "ĠÐ¥": 733,
      "ĠÐ¾ÑĤÐº": 734,
      "ĠÐ·Ð°Ð¿": 735,
      "Ð»ÐµÐº": 736,
      "ĠÑĥÐ²": 737,
      "ÑĩÐ¸": 738,
      "ÑĢÑĥÐ¶": 739,
      "ĠÐ¼Ð¾Ð¶ÐµÑĤ": 740,
      "ĠÐµÑģÑĤÑĮ": 741,
      "ĠÐ²ÑģÑĳ": 742,
      "ĠÐ¿ÑĢÐ¾ÑģÑĤÐ¾": 743,
      "Ð°Ð½Ð¾Ð²": 744,
      "ĠÐ¸ÑģÐ¿": 745,
      "Ð¼Ð°": 746,
      "ĠÐ¿ÑĢÐ¾Ð´": 747,
      "ĠÐ´Ð¾Ð»Ð¶": 748,
      "ÐµÐ¿ÐµÑĢÑĮ": 749,
      "ĠÐ³Ð¾Ð²Ð¾ÑĢ": 750,
      "ÐµÐ¹ÑĩÐ°Ñģ": 751,
      "Ð²Ð¾": 752,
      "ĠÑģÐµÐ±Ðµ": 753,
      "ĠÐ¿ÑĢÐ°Ð²": 754,
      "Ð¿ÐµÑĢ": 755,
      "Ð³Ð»Ñı": 756,
      "ĠÑįÑĤÐ¾Ð³Ð¾": 757,
      "ÑĬ": 758,
      "Ð¸ÑĤÑģÑı": 759,
      "ÑģÐµ": 760,
      "ÑĥÐ´Ð°": 761,
      "ĠÐ½Ð¾Ð³": 762,
      "ĠÐ±ÑĭÑĤÑĮ": 763,
      "ĠÑĩÐµÐ»Ð¾Ð²ÐµÐº": 764,
      "ĠÐ½ÐµÐ¼": 765,
      "Ð½ÐµÐµ": 766,
      "ĠÑĢÐ°Ð±Ð¾ÑĤ": 767,
      "ĠÑĢÐµÑĪ": 768,
      "Ð¾ÑĤÐ¸Ð²": 769,
      "ÃĦ": 770,
      "Ð¸ÑĢ": 771,
      "ĠÐµÐ¹": 772,
      "...": 773,
      "Ð½ÐµÐ¹": 774,
      "ĠÐ±Ð¾Ð»ÑĮÑĪÐµ": 775,
      "ÑĥÑģ": 776,
      "Ð²Ð°ÑĤ": 777,
      "ĠÑĤÐ¾Ð³Ð¾": 778,
      "ÐºÐ¾Ð²": 779,
      "ĠÐ±Ð¾Ð»ÑĮÑĪ": 780,
      "ÐµÑĤÑĮ": 781,
      "ÑıÐ»": 782,
      "ĠÑįÑĤÐ¾Ð¼": 783,
      "ÑĢÑĭÐ²": 784,
      "Ð·Ñĭ": 785,
      "ÐµÑī": 786,
      "ĠÑģÐ´ÐµÐ»": 787,
      "ĠÐ¿ÐµÑĢÐ²": 788,
      "ĠÐ¿ÐµÑĢÐµÐ´": 789,
      "ĠÐ½Ð¾Ð²": 790,
      "ĠÐµÐ¼Ñĥ": 791,
      "ÑıÐ²": 792,
      "ĠÐ½Ð°Ð¼": 793,
      "ĠÑĤÐµÐ±Ñı": 794,
      "Ð»Ðµ": 795,
      "Ð»Ð°Ð´": 796,
      "ĠÐ»ÐµÑĤ": 797,
      "Ð¸Ð»Ð¸ÑģÑĮ": 798,
      "ÑĢÐ°Ð¶": 799,
      "ÐµÑĢÐ¸": 800,
      "ĠÐĿÐ°": 801,
      "Ð¾Ð»ÑĮÐ·": 802,
      "ī¤": 803,
      "ĠÐ²Ð¾ÑĤ": 804,
      "td": 805,
      "ĠÐ²Ð¾Ð»": 806,
      "al": 807,
      "ĠÐļÐ°Ðº": 808,
      "ĠÑģÐ»Ð¾Ð²": 809,
      "Ð¡": 810,
      "Ð¸Ð¶": 811,
      "ĠÐ±Ð¾Ð»ÐµÐµ": 812,
      "Ð¾ÑĢÐ¾ÑĪ": 813,
      "ÑĤÑĮÑģÑı": 814,
      "ÑĩÐ½Ð¾": 815,
      "ĠÐ¼Ð¾Ð¶Ð½Ð¾": 816,
      "ĠÐ¿Ð¾Ð½Ñı": 817,
      "ĠÐ¿Ð°ÑĢ": 818,
      "ÑĪÐ¸ÑģÑĮ": 819,
      "ĠÑģÐ¾Ð·": 820,
      "ĠÐ¢Ð°Ðº": 821,
      "ĠÐ½ÐµÐ³Ð¾": 822,
      "ĠÐ½Ð¸Ñĩ": 823,
      "ĠâĢĵâ": 824,
      "ĠÐ¿Ð»Ð°": 825,
      "ĠÑĥÑĩ": 826,
      "Ð¼Ð¾Ð¶": 827,
      "Ð¿Ð¾Ð»": 828,
      "Âª": 829,
      "ÑģÑĤÑĢÐ¾": 830,
      "ĠÐ¤": 831,
      "ÑıÐ¼": 832,
      "ĠÐĶÐ°": 833,
      "ÑĨÑĭ": 834,
      "ĠÐľÑĭ": 835,
      "ĠÐ¿Ð¾Ð»ÑĥÑĩ": 836,
      "Ð¸Ð½Ñĥ": 837,
      "Ð°Ð·ÑĭÐ²": 838,
      "Ð¸Ð»Ð¾ÑģÑĮ": 839,
      "ÑıÐ·": 840,
      "Ð°ÑģÐº": 841,
      "ĠÐºÑĢ": 842,
      "ĠÑĥÐ¿": 843,
      "Ð½Ð°Ñĩ": 844,
      "ĠÐ½ÐµÑĤ": 845,
      "ĠÑĤÑĥÑĤ": 846,
      "Ð½ÑĥÐ»ÑģÑı": 847,
      "ĠÑģÑĥ": 848,
      "ÐĿ": 849,
      "ĠÐ·Ð°Ð²": 850,
      "ÑģÐºÐ¾Ð»ÑĮÐºÐ¾": 851,
      "ĠÐ¼ÐµÑģÑĤ": 852,
      "ÑĤÑĭ": 853,
      "ĠÑģÐµÐ¹ÑĩÐ°Ñģ": 854,
      "Ð»Ñĭ": 855,
      "ĠÐ¿ÑĢÐ¸Ð½": 856,
      "ĠÐ¿Ð¾ÑĤÐ¾Ð¼": 857,
      "ÑīÑĳ": 858,
      "ĠÐ½ÐµÐ¹": 859,
      "ĠÑĤÐ¾Ð¶Ðµ": 860,
      "Ð½Ð¸Ðµ": 861,
      "ĠÐ¸Ð³": 862,
      "ÑĨÐµ": 863,
      "ÐµÑģÑı": 864,
      "ĠÐ¾ÑĢ": 865,
      "ĠÑģÐµÐº": 866,
      "ĠÑĥÐ¼": 867,
      "ĠÑĩÑĥÐ²": 868,
      "Ð¾ÑģÑĤÐ¸": 869,
      "Ð»Ð°Ð³": 870,
      "Ð¾ÑģÑĤÑĮ": 871,
      "ĠÑģÐ¸Ð»ÑĮ": 872,
      "Ð»Ð¸Ð²": 873,
      "ÐºÐ°Ð¼Ð¸": 874,
      "ÐµÐ¶Ð´Ñĥ": 875,
      "Ð»ÑİÑĩ": 876,
      "Ġ[": 877,
      "Ð¾ÑĢÐ¼": 878,
      "Ð¸ÑĢÐ¾Ð²": 879,
      "ĠÑģÐ»ÐµÐ´": 880,
      "ÐµÐ´ÑĮ": 881,
      "ĠÐ¼Ð¾Ð¹": 882,
      "ĠÐ¼Ð°ÑĤ": 883,
      "ÑĩÐµÑģÐº": 884,
      "ĠÐ¾Ð´Ð¸Ð½": 885,
      "ĠÑĥÐ±": 886,
      "all": 887,
      "Ð½ÐµÑĤ": 888,
      "ĠÑħÐ¾Ñĩ": 889,
      "ĠÐ½ÑĥÐ¶": 890,
      "ĠÑĤÐ°Ð¼": 891,
      "ĠÐºÑĤÐ¾": 892,
      "ÑģÐ°": 893,
      "ĠÐ³Ð¾Ð´": 894,
      "ÑĢÐ°Ñı": 895,
      "ĠÑģÑĤÐ¾ÑĢ": 896,
      "ÐµÐ½Ð¸Ð¸": 897,
      "ĠÐ¶Ð¸Ð²": 898,
      "ĠÐ¼Ð¾Ð»": 899,
      "Ð»Ð°Ñģ": 900,
      "ĠÑģÐ»ÑĥÑĩ": 901,
      "ÐµÑĢÐ°": 902,
      "ĠÐ½ÐµÐ¿": 903,
      "ĠÐ´Ð¾Ð¼": 904,
      "ĠÑĢÐ°Ð·Ð²": 905,
      "sm": 906,
      "ÑĥÐ½": 907,
      "Ð½Ð°Ðº": 908,
      "ĠÑģÐ²Ð¾ÐµÐ¹": 909,
      "ĠÑįÑĤÐ¾ÑĤ": 910,
      "Ð¾Ð»Ð¶": 911,
      "ÑĢÐ°Ñħ": 912,
      "Ð¸Ð±": 913,
      "ÐµÐ¹ÑģÑĤÐ²": 914,
      "small": 915,
      "ĠÐ¿ÑĢÐ¸Ð²": 916,
      "ĠÐ¡ÑĤ": 917,
      "ĠÐ³Ð´Ðµ": 918,
      "ÐµÐ½Ð¸Ð¹": 919,
      "ĠÑģÑĤÐ°Ð»": 920,
      "ĠÑĤÐ¾Ð¼": 921,
      "ÑİÑī": 922,
      "ĠÐ¸ÑģÐº": 923,
      "ÐµÐ½Ð°": 924,
      "ÑıÐ´": 925,
      "ĠÐ½Ð¸Ñħ": 926,
      "ĠÐ³ÑĥÐ±": 927,
      "ĠÑģÐ²Ð¾Ñİ": 928,
      "ĠÐ½Ð¸ÑĩÐµÐ³Ð¾": 929,
      "ĠÐ´ÑĥÐ¼": 930,
      "ÑĪÐ¸Ð¹": 931,
      "ĠÐ²ÑĭÑģ": 932,
      "ĠÐµÑīÑĳ": 933,
      "ÐĲ": 934,
      "Ð¾Ð²Ð¾Ð»ÑĮ": 935,
      "ĠÐŁÐ¾": 936,
      "ĠÑĩÐµÑĢÐµÐ·": 937,
      "ĠÐĿÑĥ": 938,
      "ĠÐ´Ð°Ð²": 939,
      "ĠÑĤÐµÐ¿ÐµÑĢÑĮ": 940,
      "ĠÑĤÐµÐ±Ðµ": 941,
      "ĠÐ½ÐµÐ´": 942,
      "ĠÐ¿Ð¾Ð³": 943,
      "ÐµÐ½Ð¸ÐµÐ¼": 944,
      "ÑıÑī": 945,
      "ĠÐ¾Ð³": 946,
      "Ð¸ÑĤÐµÐ»ÑĮÐ½Ð¾": 947,
      "ĠÐ¼ÑĥÐ¶": 948,
      "Ð½ÑĮ": 949,
      "ĠÐ¶ÐµÐ½Ñī": 950,
      "ĠÐ½Ð°Ðº": 951,
      "ĠÐ¢Ñĭ": 952,
      "ÑĥÐ»ÑĮ": 953,
      "ĠÑģÐ²Ð¾Ð¹": 954,
      "ĠÑģÐºÐ°Ð·Ð°Ð»": 955,
      "ĠÐ¸ÑģÑĤ": 956,
      "ĠÐ¿Ð¾ÑģÐ»ÐµÐ´": 957,
      "ĠÐ»ÑİÐ´": 958,
      "Ð½ÑĥÐ²": 959,
      "ĠÐ²Ð¾Ñģ": 960,
      "ĠÐ½Ð°Ð´Ð¾": 961,
      "ĠÐ¼Ð½Ð¾Ð³Ð¾": 962,
      "ÑĨÐ¸Ð¸": 963,
      "ÑĢÐ°Ð¼": 964,
      "ĠÑģÐ¸Ð»": 965,
      "ĠÐ¿Ð¾ÑģÐ»Ðµ": 966,
      "ĠÐ¿Ð¾ÑĢ": 967,
      "ĠÐ½ÐµÑģÐºÐ¾Ð»ÑĮÐºÐ¾": 968,
      "ĠÐ²ÑģÐµÐ³Ð¾": 969,
      "ĠÐ´Ð¾Ð±": 970,
      "Ð¸ÑĤÐµ": 971,
      "ÑĪÐµÐ»": 972,
      "ÐµÑĢÐ²": 973,
      "ĠÐ¾ÑĤÐ²ÐµÑĤ": 974,
      "ĠÐºÐ¾ÑĤÐ¾ÑĢÑĭÐµ": 975,
      "ĠÐ¿ÑĢÐ¾Ð²": 976,
      "Ð»Ð°ÑģÑĮ": 977,
      "ÑĢÐ¾Ðº": 978,
      "ĠÑħÐ¾ÑĢÐ¾ÑĪ": 979,
      "Ð½ÑĥÐ»Ð°ÑģÑĮ": 980,
      "ĠÐ»ÑĥÑĩ": 981,
      "ĠÐ¼Ð°Ð»": 982,
      "Ð½Ð¸Ñı": 983,
      "ÑĥÑĤÑĮ": 984,
      "ĠÐ·Ð°Ð±": 985,
      "ÐµÑģÑģ": 986,
      "âĢĵÂ": 987,
      "ÑĳÑĤ": 988,
      "Âł": 989,
      "ĠÐ²ÑģÐµÑħ": 990,
      "ĠÐŀÑĤ": 991,
      "Ð½Ð°Ð»": 992,
      "ĠÐ½Ð°Ð²": 993,
      "ĠÐ¼ÐµÐ¶Ð´Ñĥ": 994,
      "ĠÐ½ÐµÐ²": 995,
      "Ð´ÐµÑģÑĮ": 996,
      "ĠÐ¿ÑĢÐ¾Ð´Ð¾Ð»Ð¶": 997,
      "ÐµÑĢÑĪ": 998,
      "ĠÐ¿ÑĢÐ¾Ð¸Ð·": 999,
      "Ð³Ð»ÑıÐ´": 1000,
      "Âº": 1001,
      "ĠÐŁÑĢ": 1002,
      "ĠÐºÐ°Ð¶Ð´": 1003,
      "ĠÑĤÐµÑħ": 1004,
      "ĠÐ»Ð¸ÑĪÑĮ": 1005,
      "Ð°ÑıÑģÑĮ": 1006,
      "ĠÐ¿ÑĢÐ¾ÑĤÐ¸Ð²": 1007,
      "ĠÐ½Ð°ÑĩÐ°Ð»": 1008,
      "Ġ3": 1009,
      "Ð¾Ñħ": 1010,
      "Ð°ÐµÐ¼": 1011,
      "ĠÐ½Ð°ÑģÑĤ": 1012,
      "Â».": 1013,
      "ĠÑģÑĤÐ°ÑĢ": 1014,
      "Ð»Ð¸ÑģÑĮ": 1015,
      "ÑĢÐ°Ñī": 1016,
      "ĠÐºÐ¾Ð¼Ð¿": 1017,
      "Ðŀ": 1018,
      "ĠÐ·Ð°ÑĤ": 1019,
      "Ð°ÑģÑĤÑĮ": 1020,
      "ĠÐ·Ð²": 1021,
      "Ð°ÑĤÐ¸": 1022,
      "ÐŁ": 1023,
      "Ð°Ð»ÑĮÐ½Ð¾": 1024,
      "ĠÑĥÐ²Ð¸Ð´": 1025,
      "ĠÐ§ÑĤÐ¾": 1026,
      "ĠÑĢÐ¾Ð´": 1027,
      "ÐµÑĩÐ½Ð¾": 1028,
      "ĠÐ¿ÑĢÐ¾Ð±": 1029,
      "ĠÐºÑĢÐ¾Ð²": 1030,
      "Ð¸Ð´Ð°": 1031,
      "ÑĳÐ»": 1032,
      "ĠÐ¿Ð¾Ð½Ð¸Ð¼": 1033,
      "Ð°Ð´Ð¸": 1034,
      "Ð¸ÑģÐº": 1035,
      "Ð»Ð¸Ð·": 1036,
      "Ð´Ð²": 1037,
      "ĠÐºÐ¾ÑĤÐ¾ÑĢÑĭÐ¹": 1038,
      "Ð½ÑĥÑĤÑĮ": 1039,
      "ÑĥÐµÑĤ": 1040,
      "ÑĥÐ´ÑĮ": 1041,
      "ÐµÐ»Ñı": 1042,
      "âĢĵâī¤": 1043,
      "ÐĶ": 1044,
      "ÐĴ": 1045,
      "Ð²Ð¾Ð»": 1046,
      "ĠÐ¾Ð±ÑĬ": 1047,
      "Ð½Ð¾Ð²Ð°": 1048,
      "ÑĤÑĢ": 1049,
      "ĠÑıÐ·Ñĭ": 1050,
      "ĠÐ½Ð°Ð·": 1051,
      "ÑĢÐ¾Ñĩ": 1052,
      "ÑĥÐ¶Ð´": 1053,
      "ĠÐ´Ð°": 1054,
      "ĠÐ¿Ð¾Ð±": 1055,
      "ĠÐ¾Ð±ÑĢÐ°Ð·": 1056,
      "ÑģÑĤÐ²ÐµÐ½Ð½Ð¾": 1057,
      "Ð¾ÑģÐ¾Ð±": 1058,
      "ĠÐ²Ð¾Ð´": 1059,
      "ĠÑĥÐ¶": 1060,
      "Ð»ÐµÐ½Ð¸Ñı": 1061,
      "ÐºÐ¸Ð¹": 1062,
      "ĠÑģÑĤÐ¾ÑĢÐ¾": 1063,
      "ĠÑģÐ¾ÑģÑĤ": 1064,
      "></": 1065,
      "ÐµÐºÐ¾": 1066,
      "Ð½Ð¾ÑģÑĤÑĮÑİ": 1067,
      "ĠÐ¿ÑĢÐµÐ´ÑģÑĤÐ°Ð²": 1068,
      "ÑĨÑĥ": 1069,
      "ĠÐ¿Ð¾Ñģ": 1070,
      "ĠÐ¼Ð½": 1071,
      "ÑĤÐµÑĢÐµÑģ": 1072,
      "ĠÐ¿Ð¾ÐºÐ°": 1073,
      "ÐµÑĢÐ³": 1074,
      "ĠÐºÐ¾Ð½Ñĩ": 1075,
      "Ð¸Ð½Ðµ": 1076,
      "ĠÑģÑĭ": 1077,
      "ÑĤÐ¾Ð¼": 1078,
      "ÑĢÐ°Ð½Ð¸": 1079,
      "Ð¾Ð»Ð¾Ð³": 1080,
      "ĠÑĥÑģÐ¿": 1081,
      "ĠÐ¿ÑĢÐ¾Ð³": 1082,
      "ÑĥÑİÑī": 1083,
      "ĠÑĤÐµÐ»": 1084,
      "Ð¸Ð²Ð°ÑĤÑĮ": 1085,
      "ĠÐ³Ð»Ð°Ð·Ð°": 1086,
      "ĠÐºÐ¾ÑĤÐ¾": 1087,
      "ĠÑįÐº": 1088,
      "ÐµÐ½Ð¸Ñİ": 1089,
      "ĠÐ´ÐµÐ½ÑĮ": 1090,
      "ĠÐķÑģÐ»Ð¸": 1091,
      "Ð½Ñİ": 1092,
      "ĠÐ²Ð¾Ð·Ð¼Ð¾Ð¶": 1093,
      "ÐµÐ½Ñĭ": 1094,
      "ĠÐºÑĢÐ°Ñģ": 1095,
      "ÑĥÑģÐº": 1096,
      "ĠÐºÐ¾Ð¼Ð½Ð°": 1097,
      "ĠÐ»ÐµÐ³": 1098,
      "ĉĉ": 1099,
      "ĠÐĴÑĭ": 1100,
      "ĠÐ½ÐµÐµ": 1101,
      "ĠÐ¿Ð°Ð»ÑĮ": 1102,
      "ĠÑĤÑĢÑĥÑģ": 1103,
      "ĠÐ¼ÐµÑĤ": 1104,
      "Ð½Ð¸Ð¹": 1105,
      "ĠÐ´ÐµÐ¹ÑģÑĤÐ²": 1106,
      "ĠÐļÐ¾Ð³Ð´Ð°": 1107,
      "Ð½Ð¸ÐºÐ°": 1108,
      "Ð»ÐµÐ½Ð½Ð¾": 1109,
      "ÐµÐ³Ð´Ð°": 1110,
      "ĠÑī": 1111,
      "ĠÐ¿Ð¾ÑĩÑĤÐ¸": 1112,
      "ĠÐ¶Ð¸Ð·Ð½Ð¸": 1113,
      "ĠÐ¶ÐµÐ»": 1114,
      "ÑħÐ²Ð°ÑĤ": 1115,
      "ĠÑĢÐµ": 1116,
      "Ð»ÐµÑĤ": 1117,
      "ĠÑģÐºÐ¾ÑĢ": 1118,
      "Ð¼Ñĭ": 1119,
      "ĠÐŁÑĢÐ¸": 1120,
      "ĠÐ¿ÑĢÐ¾ÑĪ": 1121,
      "Ð¼ÐµÑģÑĤ": 1122,
      "ĠÑĢÐµÐ·": 1123,
      "ÐµÑģÑĮ": 1124,
      "Ðĺ": 1125,
      "Ãī": 1126,
      "ÑĮÑı": 1127,
      "ĠÐ±ÐµÑģ": 1128,
      "ÑĢÐ°Ð·Ñĥ": 1129,
      "ÑĥÐº": 1130,
      "Ðļ": 1131,
      "ĠÑĤÐµÑĢ": 1132,
      "Ð°ÑĤÐ¾": 1133,
      "ÑĭÐ¼Ð¸": 1134,
      "ĠÑģÐ¾Ñģ": 1135,
      "Ð¸ÐºÐ¸": 1136,
      "ÑĤÐ¸Ð²": 1137,
      "Ð¸Ð¿": 1138,
      "ĠÐ²Ð¾Ð¿": 1139,
      "Ġ<": 1140,
      "ÑģÐµÐ¼": 1141,
      "ÑĳÐ¼": 1142,
      "Ð»ÐµÐ½Ð¸Ðµ": 1143,
      "ÑĥÐ³": 1144,
      "Ð¢": 1145,
      "ĠÐ¾ÑĢÐ³": 1146,
      "Ð°ÑĨÐ¸Ð¸": 1147,
      "ĠÐ¿Ð¾ÑĤÐ¾Ð¼Ñĥ": 1148,
      "ĠÑıÐ²": 1149,
      "Â»,": 1150,
      "Ð½Ð¸Ð·": 1151,
      "ĠÑģÐ²ÐµÑĤ": 1152,
      "ĠÑģÐ½Ð¾Ð²Ð°": 1153,
      "ÑĤÐ°Ðº": 1154,
      "ĠÐ·Ð´ÐµÑģÑĮ": 1155,
      "ĠÐ²ÑģÑı": 1156,
      "ĠÑĤÑĢÐ¸": 1157,
      "ĠÐ¼ÐµÐ´": 1158,
      "ĠÐ³Ð»ÑĥÐ±": 1159,
      "ĠÑįÑĤÐ¾Ð¹": 1160,
      "Ã¸": 1161,
      "ĠÐ²Ð´": 1162,
      "ĠÐ±Ð»": 1163,
      "ĠÑģÐ¿ÑĢÐ¾Ñģ": 1164,
      "ÑĪÐ¸Ðµ": 1165,
      "ÐµÑģÑĤÐ¸": 1166,
      "ĠÐ¿ÑĢÐ¸Ð¼": 1167,
      "Ð½Ð¾Ð¼Ñĥ": 1168,
      "ĠÑĢÑĥÐºÐ¸": 1169,
      "ĠÐ¿Ð¾ÑģÐ¼": 1170,
      "ĠÐ±ÑĭÑģÑĤÑĢÐ¾": 1171,
      "ÑıÐ¶": 1172,
      "ĠÑĨÐµÐ»": 1173,
      "Ð¾ÑģÐ¼": 1174,
      "ĠÑģÐ¸ÑģÑĤ": 1175,
      "ĠÐ½Ð°Ð±": 1176,
      "Ð¾Ð´Ð½Ñı": 1177,
      "ĠÑĢÐ¾ÑĤ": 1178,
      "ĠÑģÐ²Ð¾Ð¸": 1179,
      ").": 1180,
      "ĠÐ¾ÑĤÐ´": 1181,
      "ĠÐ²ÑĭÐ¿": 1182,
      "ĠÑģÐµÑģÑĤ": 1183,
      "ĠÐ½Ð¸Ð¼": 1184,
      "ÑĢÐ°ÑĤÑĮ": 1185,
      "Ð»ÐµÐ¼": 1186,
      "Ð¾Ð¶Ð´": 1187,
      "Ð¸Ñİ": 1188,
      "ĠÑįÑĤÐ¸": 1189,
      "ĠâĢĵâĪ": 1190,
      "ĠÑģÑĥÑīÐµ": 1191,
      "ÑĩÐ¸Ðº": 1192,
      "ÐºÐ°Ñħ": 1193,
      "ĠÐ¨": 1194,
      "ĠÐ¾ÐºÐ°Ð·": 1195,
      "ĠÑĤÐ°ÐºÐ¾Ð¹": 1196,
      "ĠÑģÑĤÑĢÐ°": 1197,
      "ÐµÐ½Ð½ÑĭÐ¹": 1198,
      "ĠÐ¿ÑĢÐ¸Ðº": 1199,
      "ĠÑģÑĢÐ°Ð·Ñĥ": 1200,
      "Ð°Ð´ÑĨ": 1201,
      "ĠÐ¾ÑģÑĤÐ°Ð²": 1202,
      "ĠÐĸ": 1203,
      "ĠÐĲÐ½": 1204,
      "ĠÐ¼Ð°Ð¼Ð°": 1205,
      "ĠÐĶÐ¶": 1206,
      "Ð¸Ð½Ñĭ": 1207,
      "ĠÑĩÐµÐ³Ð¾": 1208,
      "ĠÐ³Ð¾ÑĢÐ¾Ð´": 1209,
      "ĠÑģÐ¿Ð¾ÑģÐ¾Ð±": 1210,
      "ĠÐŁÐ¾ÑĤ": 1211,
      "ĠÐ¾ÑĤÐºÑĢÑĭ": 1212,
      "ÑıÐ³": 1213,
      "ĠÑĥÐ³": 1214,
      "ĠÐºÐ¾ÑĢÐ°Ð±": 1215,
      "00": 1216,
      "ĠÑģÐºÐ°Ð·Ð°Ð»Ð°": 1217,
      "Ð¼ÐµÑĢ": 1218,
      "ĠÐ»ÑİÐ´ÐµÐ¹": 1219,
      "ĠÐŀÐ´": 1220,
      "Ð²Ð¾ÑĢ": 1221,
      "ĠÑģÐ¾Ð²ÐµÑĢÑĪ": 1222,
      "ÑįÑĤ": 1223,
      "Ð»Ð¾Ð¶": 1224,
      "Ð¸Ð¼Ð¾": 1225,
      "Ð¾Ð±ÑīÐµ": 1226,
      "ĠÐ»Ð¸ÑĨ": 1227,
      "ĠÑĤÐ¾ÑĤ": 1228,
      "</": 1229,
      "ĠÐ½ÐµÐ±": 1230,
      "ÑıÑģ": 1231,
      "Ã¨": 1232,
      "ĠÐ²ÑģÐµÐ³Ð´Ð°": 1233,
      "ĠÑĥÑģÑĤ": 1234,
      "ĠÑĥÐ´Ð°": 1235,
      "ÑĢÐµÑĤ": 1236,
      "ĠÐ·Ð°Ñģ": 1237,
      "Ð»Ð¸Ð½": 1238,
      "ĠÑĥÑĤ": 1239,
      "ĠÐ²ÑģÑĤ": 1240,
      "Ð°Ð½ÑĮ": 1241,
      "ĠÑĢÑĥÐºÑĥ": 1242,
      "ĠÑģÑĤÐ°Ð»Ð°": 1243,
      "ÑĥÐ¹": 1244,
      "ĠÑĩÐ°Ñģ": 1245,
      "ĠÑģÑĤÑĢ": 1246,
      "ÐµÑĢÑĤ": 1247,
      "ĠÐ¿ÑĢÐ¸ÑĪ": 1248,
      "ÑıÑĤÐ¸": 1249,
      "ĠÐĴÐ¾ÑĤ": 1250,
      "ĠÐĴÑģÐµ": 1251,
      "ĠÐºÐ°ÑĢ": 1252,
      "ĠÑĤÐ¾Ð³Ð´Ð°": 1253,
      "Ð°Ð½ÑĤ": 1254,
      "ÑĭÑĩ": 1255,
      "ĠÐ´ÐµÑĤ": 1256,
      "ĠÐ´Ð²Ð°": 1257,
      "ĠÐ¸Ñģ": 1258,
      "Ð»Ð¾ÑģÑĮ": 1259,
      "ĠÐ¿Ð¾Ð²ÐµÑĢ": 1260,
      "Ð»Ð¸Ñĩ": 1261,
      "Ð¾Ð²Ð°ÑĤÑĮ": 1262,
      "Ðľ": 1263,
      "ÑĢÑıÐ´": 1264,
      "Ð¾Ð¼ÐµÐ½ÑĤ": 1265,
      "ĠÐ¾Ñī": 1266,
      "ĠÑĤÐµ": 1267,
      "ĠÐ¼Ð¾Ð¼ÐµÐ½ÑĤ": 1268,
      "ĠÐ¾ÑĤÐ¿": 1269,
      "ĠÐ²Ð¾Ð·Ð±": 1270,
      "ĠÑģÐ¸Ð´": 1271,
      "ĠÐ²ÑģÐµÐ¼": 1272,
      "ĠÐ²ÐµÐ´ÑĮ": 1273,
      "âĢĵÂ¥": 1274,
      "Ð»Ð¸ÑĪ": 1275,
      "Ð±Ð¾": 1276,
      "Ð»ÑĭÐ±": 1277,
      "ĠÐ¼Ð¾ÑĢ": 1278,
      "Ð¸Ð½Ð¾Ð¹": 1279,
      "ĠÐŀÐ½Ð¸": 1280,
      "ĠÐ²Ð°Ñģ": 1281,
      "ÐµÑĤÑĭ": 1282,
      "ÐµÐ½Ð½ÑĭÐµ": 1283,
      "ĠÑģÐ¼Ð¾ÑĤÑĢ": 1284,
      "ĠÐ´Ð²Ð¸Ð¶": 1285,
      "ĠÐ½Ð¾Ð³Ð¸": 1286,
      "ĠÐ³Ð¾ÑĤÐ¾Ð²": 1287,
      "Ð´ÐµÑĢÐ¶": 1288,
      "ĠÑĥÐ·": 1289,
      "Ð¾Ð½Ñĩ": 1290,
      "ĠÐ²Ð¾Ð¿ÑĢÐ¾Ñģ": 1291,
      "ÑģÐºÐ¾Ð¹": 1292,
      "Ð¾Ð½Ð°": 1293,
      "ĠÑħÐ¾ÑĢÐ¾ÑĪÐ¾": 1294,
      "ĠÐ¾ÑĤÐ½Ð¾": 1295,
      "ĠÐ½ÐµÐ¼Ð½Ð¾Ð³Ð¾": 1296,
      "ĠÑĢÑıÐ´": 1297,
      "Ð°Ð½Ð°": 1298,
      "ĠÑģÐ¾Ð²ÑģÐµÐ¼": 1299,
      "ĠÐ³ÑĢÑĥÐ´": 1300,
      "Ġ4": 1301,
      "ĠÐ¿ÑĢÑıÐ¼": 1302,
      "ÑĢÐµÑĤÑĮ": 1303,
      "ĠÑģÑĤÐ°": 1304,
      "ĠÐ°Ðº": 1305,
      "ĠÐ²Ð½ÑĥÑĤ": 1306,
      "ĠÑĥÑģÐ»": 1307,
      "ÑıÐ»Ð°": 1308,
      "Ð¸Ð²Ð°Ñı": 1309,
      "on": 1310,
      "ÑĪÐ¸Ñħ": 1311,
      "Ð²Ð¾Ð´": 1312,
      "Ð¸ÐºÐ°": 1313,
      "Ð´Ñĭ": 1314,
      "ĠÐ·Ð°Ð¼ÐµÑĤ": 1315,
      "ÐµÐ½Ð½Ð¾Ð¹": 1316,
      "ĠÑģÑĢÐµÐ´": 1317,
      "ĠÐ½Ð¸ÐºÐ¾Ð³Ð´Ð°": 1318,
      "\".": 1319,
      "ĠÐŁÐ¾Ñģ": 1320,
      "âĢĵâĪŀâĢĶ": 1321,
      "ĠÐ¼Ð¸Ð½ÑĥÑĤ": 1322,
      "Ð¾Ð½ÐµÑĨ": 1323,
      "ĠÑĥÐ»ÑĭÐ±": 1324,
      "Ð»Ð¸ÑĪÐºÐ¾Ð¼": 1325,
      "Ð±ÑĥÐ´ÑĮ": 1326,
      "ĠÐ¿ÑĢÐ¾Ñģ": 1327,
      "ĠÐ½Ð¾Ñĩ": 1328,
      "ĠÐ²Ð¿": 1329,
      "ĠÑĢÐ°ÑģÐ¿": 1330,
      "Ð¸Ñī": 1331,
      "ÑĭÐ²Ð°ÑĤÑĮ": 1332,
      "ĠÐ¾Ð±Ñī": 1333,
      "ĠÐ¸Ð¼Ðµ": 1334,
      "ĠÐ¼Ð¾ÐµÐ¹": 1335,
      "ĠÑĤÐ¾Ð»": 1336,
      "ĠÑģÐ¸ÑģÑĤÐµÐ¼": 1337,
      "ĠÐ¼Ð½Ð¾Ð¹": 1338,
      "ÑĪÐµÐ¹": 1339,
      "Ð³Ð°": 1340,
      "âĢĵâĪ«": 1341,
      "ÐµÑĤÐµ": 1342,
      "ĠÐ³Ð¾Ð»Ð¾Ð²Ñĥ": 1343,
      "ĠÐ°ÑĢ": 1344,
      "ĠÐ½Ð¸ÐºÐ°Ðº": 1345,
      "ÑĳÐ½": 1346,
      "ÑīÐµÐµ": 1347,
      "ĠÐ¾ÑģÐ¾Ð±": 1348,
      "ĠÑĥÑģ": 1349,
      "ĠÑģÐ²Ð¾ÐµÐ³Ð¾": 1350,
      "ĠÐ®": 1351,
      "ĠÐľÐ½Ðµ": 1352,
      "ĠÐ¿Ð°": 1353,
      "ĠÐ´ÐµÑģÑı": 1354,
      "ĠÑİ": 1355,
      "ĠÑģÑĩ": 1356,
      "ĠÐ»ÐµÐ¶": 1357,
      "ĠÐ¾ÑģÐ½Ð¾Ð²": 1358,
      "Ð»ÑģÑı": 1359,
      "ĠÐ²Ð¾Ð¹": 1360,
      "ĠÐ²Ð¼ÐµÑģÑĤ": 1361,
      "Ð²Ð°ÑĢ": 1362,
      "ĠÐ¿Ð¾Ñħ": 1363,
      "Ð°ÑĤÐµÐ»ÑĮÐ½Ð¾": 1364,
      "ĠÐ¼Ð°ÑĤÐµÑĢÐ¸": 1365,
      "ĠÐºÐ°ÐºÐ¾Ð¹": 1366,
      "ĠÐ³Ð¾ÑĢ": 1367,
      "Ð¸ÑĪÑĮ": 1368,
      "ĠÐºÑĢÐ¸": 1369,
      "ĠÐ¸Ð½ÑĤÐµÑĢÐµÑģ": 1370,
      "ĠÑģÐµÑĢ": 1371,
      "Ð½Ð¸Ð±ÑĥÐ´ÑĮ": 1372,
      "Ð·Ð°": 1373,
      "Ġ5": 1374,
      "ĠÐ´Ð²Ð¸Ð³": 1375,
      "ÑįÑĤÐ¾Ð¼Ñĥ": 1376,
      "ĠÑħÐ¾ÑĤÑı": 1377,
      "ĠÐ»ÑİÐ´Ð¸": 1378,
      "ĠÐ²ÐµÑģÑĮ": 1379,
      "ĠÐ½Ð°ÑĩÐ°Ð»Ð°": 1380,
      "ĠÐ¼Ð¾Ð¸": 1381,
      "ĠÐ¿Ð¾Ð»Ð¾Ð¶": 1382,
      "ĠÎ": 1383,
      "ĠÑģÐ»Ð¸ÑĪÐºÐ¾Ð¼": 1384,
      "ĠÐ´Ð°Ð»ÑĮ": 1385,
      "ĠÐ·ÐµÐ¼": 1386,
      "ĠÐ²ÑĢÐµÐ¼ÐµÐ½Ð¸": 1387,
      "Ð¾Ñī": 1388,
      "Ð³Ð¸": 1389,
      "ĠÐ¼Ð°Ð»ÐµÐ½ÑĮ": 1390,
      "ĠÐ²ÑģÑĤÑĢ": 1391,
      "âĢĵâĪŀâĢĵ": 1392,
      "ĠÐ¿ÑĢÐ¸Ð´": 1393,
      "ĠÑĩÑĥÑĤÑĮ": 1394,
      "ĠÐ²Ð¾Ð¾Ð±ÑīÐµ": 1395,
      "ĠÐ´ÐµÐ²ÑĥÑĪ": 1396,
      "ĠÐ¾ÑĤÐ²": 1397,
      "Ð¾ÐºÐ¾": 1398,
      "Ð¾ÑĩÐºÐ°": 1399,
      "ÑıÑĤÐ½Ð¾": 1400,
      "\",": 1401,
      "ĠÐ¿Ð¾Ð¶": 1402,
      "ĠÐ¿ÑĭÑĤ": 1403,
      "ÐºÐ¸Ðµ": 1404,
      "ĠÐ¸ÑģÐ¿Ð¾Ð»ÑĮÐ·": 1405,
      "Ã¥": 1406,
      "Ð»Ð°Ð²": 1407,
      "ĠÐ´ÐµÐ»Ð°ÑĤÑĮ": 1408,
      "Ð¼ÐµÐ½": 1409,
      "ĠÐ·Ð½Ð°Ñİ": 1410,
      "ĠÐ¿Ð»Ð¾": 1411,
      "ĠÐ¸Ð·Ð²": 1412,
      "ĠÐ´ÑĢ": 1413,
      "ĠÑģÑĩÐ¸ÑĤ": 1414,
      "Ð»Ð¾Ð²": 1415,
      "ĠÐ¿Ð¾ÑıÐ²": 1416,
      "ĠÐ¿ÑĢÐ¸Ð±": 1417,
      "ÐµÑĢÐµ": 1418,
      "ĠÐ²ÑĭÐ±": 1419,
      "ĠÐ¶Ð¸Ð²Ð¾ÑĤ": 1420,
      "ĠÐ¿Ð¾Ð´Ð½Ñı": 1421,
      "ÑĤÐµÐ»ÑĮ": 1422,
      "ÑģÑĤÐ²Ðµ": 1423,
      "ÐµÐ»ÐµÐ¹": 1424,
      "ÑĥÐ²ÑģÑĤÐ²Ð¾Ð²": 1425,
      "!!": 1426,
      "Ð¸ÑĨ": 1427,
      "ĠÑĢÐ°Ð²": 1428,
      "ĠÐ½Ð°ÑħÐ¾Ð´": 1429,
      "ĠÐ¸Ð´": 1430,
      "ĠÐľÐ°ÑĢ": 1431,
      "ĠÑĤÐ¾ÑĢ": 1432,
      "ĠÐ°Ð½": 1433,
      "ĠÐ¿Ð¾ÑĪ": 1434,
      "Ð°ÑİÑĤÑģÑı": 1435,
      "Ð»ÐµÐ´": 1436,
      "Ã£": 1437,
      "Ð°ÑģÑģ": 1438,
      "ÐµÐ½Ð½ÑĭÑħ": 1439,
      "Ð½Ð¸Ñĩ": 1440,
      "ÑĪÐµÐ³Ð¾": 1441,
      "ĠÐ»ÑĥÑĩÑĪÐµ": 1442,
      "ĠÐ¼Ð¸Ð»": 1443,
      "Ð½Ð¸ÐºÐ¸": 1444,
      "ĠÐ°Ð²": 1445,
      "ÐµÐ³Ð¾Ð´Ð½Ñı": 1446,
      "ĠÑģÐ¿ÐµÑĢ": 1447,
      "Ð¸ÑģÑĮ": 1448,
      "Ð°Ð³Ð¾": 1449,
      "ĠÐ²Ð¿ÐµÑĢ": 1450,
      "ĠÐ¼Ð¾Ñı": 1451,
      "ĠÑĥÐº": 1452,
      "ĠÑĩÐµÐ»Ð¾Ð²ÐµÑĩ": 1453,
      "ĠÑĪÐ¸": 1454,
      "Ð°ÑĪÐ°": 1455,
      "ĠÐ²Ð°Ð¼": 1456,
      "ĠÐ²ÑĤÐ¾ÑĢ": 1457,
      "ĠÑģÐ¼Ð¾Ð³": 1458,
      "ĠÑĢÐ°ÑģÑģÐº": 1459,
      "ÐµÐ½Ð¾": 1460,
      "ĠÐ²ÐµÑĩ": 1461,
      "Ð¾ÑĢÐ¾Ð²": 1462,
      "ĠÑĩÐ°ÑģÑĤ": 1463,
      "Ðł": 1464,
      "ĠÑĢÑĥÐºÐ¾Ð¹": 1465,
      "Ð¾Ð±Ð¾Ð´": 1466,
      "ĠÐ²ÐµÐ»": 1467,
      "ĠÑĤÑĭÑģÑı": 1468,
      "ĠÐ½ÑĥÐ¶Ð½Ð¾": 1469,
      "Ð½Ð¸ÐºÐ¾Ð²": 1470,
      "ÑĭÐ»": 1471,
      "ĠÑģÐ²Ð¾Ð¸Ñħ": 1472,
      "ĠÑģÐµÐ¼": 1473,
      "Ð°ÐµÑĪÑĮ": 1474,
      "ĠÑģÐ´ÐµÐ»Ð°ÑĤÑĮ": 1475,
      "ÑģÐºÐ¾Ð³Ð¾": 1476,
      "ĠÐ¶Ð¸Ð·Ð½ÑĮ": 1477,
      "Ð°ÐºÑĤÐ¸": 1478,
      "ĠÐŁÐ¾Ð´": 1479,
      "ÑĩÐ¸Ð²": 1480,
      "ÑĢÑĥÑİ": 1481,
      "ĠÐ¿Ð¾Ð´Ð¾Ð±": 1482,
      "Ð°Ð½Ð´": 1483,
      "ĠÐ²Ð·Ð³Ð»ÑıÐ´": 1484,
      "ÐºÐ°Ñı": 1485,
      "ÑģÐºÐ¸Ð¹": 1486,
      "ĠÑĤÐµÐ»Ð¾": 1487,
      "ĠÐ»Ð°ÑģÐº": 1488,
      "ĠÐ´Ð¾ÑĢ": 1489,
      "Ð¾Ð¹Ð´": 1490,
      "Ð½Ð½Ð¾": 1491,
      "ĠÑģÐ»Ð¾Ð¶": 1492,
      "ĠÐ±ÐµÐ´": 1493,
      "ĠÐ¸ÑģÑĤÐ¾ÑĢ": 1494,
      "ĠâĢĵÂ": 1495,
      "âĢĵâĪıâĢĶ": 1496,
      "ÑĨÐ¸Ñı": 1497,
      "ĠÑģÐ¾Ð»": 1498,
      "ĠÐ¸Ð¼ÐµÐ½Ð½Ð¾": 1499,
      "Ð¾ÑĤÑı": 1500,
      "ÐºÐ¸Ñħ": 1501,
      "ĠÑĢÑıÐ´Ð¾Ð¼": 1502,
      "ĠÑĤÐ°ÐºÐ¶Ðµ": 1503,
      "ĠÐ¿Ð¾ÑģÐ¼Ð¾ÑĤÑĢ": 1504,
      "ĠÐºÐ¾ÑģÐ¼": 1505,
      "Ð°ÑĪÐ¸": 1506,
      "ÐµÐºÐ¾ÑĤÐ¾ÑĢ": 1507,
      "ĠÑģÐ¾Ð³": 1508,
      "ĠÐ¼Ð¸ÑĢ": 1509,
      "Ð¯": 1510,
      "ĠÐ³Ð¾Ð»Ð¾Ñģ": 1511,
      "ÑĢÑĮ": 1512,
      "ĠÐ²Ð¾ÑģÐ¿": 1513,
      "ĠÑĤÐ²Ð¾": 1514,
      "Ð¾ÑĢÐ°": 1515,
      "Ð¾Ð²Ð¾Ð»ÑĮÑģÑĤÐ²": 1516,
      "ĠÐ¿Ñĥ": 1517,
      "ĠÐ´Ð¾Ð»Ð¶ÐµÐ½": 1518,
      "ĠÑģÐ¾Ð±Ð¾Ð¹": 1519,
      "ĠÑģÐ²ÑıÐ·": 1520,
      "ĠÐ¿Ð¾ÑĩÑĥÐ²ÑģÑĤÐ²Ð¾Ð²": 1521,
      "ĠÑģÐ²Ð¾Ð¸Ð¼": 1522,
      "Ð°Ð¼Ð°": 1523,
      "ÑĢÐµÐ½": 1524,
      "ĠÑĥÐ´Ð¸Ð²": 1525,
      "ĠÐ½Ð°Ð¿ÑĢÐ°Ð²": 1526,
      "Ð½Ð¸Ð¸": 1527,
      "ĠÐ¿ÑĢÐµÐº": 1528,
      "ĠÐ¿ÑĢÐ¸Ð·": 1529,
      "ĠÐ¿Ð»Ð°Ð½ÐµÑĤ": 1530,
      "Ð°Ñī": 1531,
      "ÑĢÐ°Ð³": 1532,
      "Ð¸ÑĢÐ°": 1533,
      "ÑĪÐ°Ñı": 1534,
      "ĠÐĿÐµÑĤ": 1535,
      "ĠÐ·Ð°Ð³": 1536,
      "Ð´Ð°Ð²": 1537,
      "ĠÐ¿ÑĢÑıÐ¼Ð¾": 1538,
      "ĠÐ³Ð»Ð°Ð²": 1539,
      "ÑĥÐ»": 1540,
      "ĠÐ²Ð½Ð¸Ð¼": 1541,
      "ĠÐ¼Ð½Ð¾Ð³": 1542,
      "ĠÐ½ÑĢÐ°Ð²": 1543,
      "ĠÐºÐ¾ÑĤÐ¾ÑĢÐ°Ñı": 1544,
      "ĠÐ·Ð°Ð»": 1545,
      "ĠÐ´ÑĢÑĥÐ³Ð¾Ð¹": 1546,
      "ĠÐŀÐ±": 1547,
      "ĠÐ¿Ð¾ÐºÐ°Ð·": 1548,
      "ÑĢÐ¾ÑģÑĤ": 1549,
      "ÑĨÐµÐ²": 1550,
      "ĠÑħÐ¾ÑĩÑĥ": 1551,
      "ĠÐ´ÐµÑĢ": 1552,
      "ĠÐ»Ð°Ð´": 1553,
      "ĠÑĤÐ°ÐºÐ¾Ðµ": 1554,
      "ÐµÑı": 1555,
      "ĠÐ²ÑģÑİ": 1556,
      "re": 1557,
      "ĠÐ¼Ð°Ð³": 1558,
      "ÐµÐ½Ñı": 1559,
      "ĠÐ¿ÑĢÐ¾Ð¼": 1560,
      "ĠÐ¾Ð³ÑĢÐ¾Ð¼": 1561,
      "Ð°Ð½Ð¸Ð¸": 1562,
      "ī¥": 1563,
      "ĠÐ²ÐµÑī": 1564,
      "ĠÐĲÑĢ": 1565,
      "ĠÐŁÐ¾ÑĤÐ¾Ð¼": 1566,
      "ĠÐ¾ÑīÑĥÑī": 1567,
      "ĠÐ·Ð°Ð½Ð¸Ð¼": 1568,
      "Ð½ÐµÐ¼": 1569,
      "ĠÑĤÑĢÐ°Ñħ": 1570,
      "ĠÐ½ÐµÐ¶": 1571,
      "\\\\": 1572,
      "ĠÐ²ÑģÐ¿": 1573,
      "ĠÑģÐºÐ°Ð·Ð°ÑĤÑĮ": 1574,
      "Ð¸ÑĪ": 1575,
      "ĠÐ´Ð²ÐµÑĢÑĮ": 1576,
      "ĠÐ³ÑĢÑĥÐ´Ð¸": 1577,
      "ĠÐ¿Ð¾ÑĩÐµÐ¼Ñĥ": 1578,
      "ĠÐ·Ð°Ð½": 1579,
      "ĠÐ¿ÑĢÐ¾ÑĨ": 1580,
      "ĠÐ´Ð°Ð»": 1581,
      "ÐµÑĢÐµÐ´": 1582,
      "ĠÐ¡Ðº": 1583,
      "ĠÑĥÐ´Ð¾Ð²Ð¾Ð»ÑĮÑģÑĤÐ²": 1584,
      "âĢĵâĪıâĢĵ": 1585,
      "Ð¾ÐºÐ¾Ð¹": 1586,
      "ĠÑģÐ¸Ð»ÑĮÐ½Ð¾": 1587,
      "ĠÐ´ÐµÐ»Ð¾": 1588,
      "ĠÐ¾Ñħ": 1589,
      "ĠÐ²Ð»Ð°Ð³": 1590,
      "ĠÐºÐ°Ð¼": 1591,
      "ĠÑħÐ¾Ð´": 1592,
      "ĠÐ´Ð¾Ð»Ð³Ð¾": 1593,
      "Ð´Ð¸Ð½": 1594,
      "ĠÐ¿Ð¾Ð´ÑĥÐ¼": 1595,
      "ĠÐ¼Ð¾Ñİ": 1596,
      "ĠÐ·Ð°ÑĢ": 1597,
      "Ð¾Ð»Ð¾Ð´": 1598,
      "ĠÑĤÐ¾Ñĩ": 1599,
      "ÑģÐºÐ¾Ð»ÑĮ": 1600,
      "ĠÐ¼Ð¾Ð»Ð¾Ð´": 1601,
      "ĠÐ¸Ð´Ðµ": 1602,
      "ĠÐ½ÐµÐ¾Ð±": 1603,
      "ÑģÐºÐ¾ÑĢ": 1604,
      "Ð°ÑģÑĤÐ¸": 1605,
      "ĠÐºÐ¾Ð½ÐµÑĩÐ½Ð¾": 1606,
      "Ð½Ð°ÐºÐ¾Ð¼": 1607,
      "ĠÐ²Ð¾Ð»Ð¾Ñģ": 1608,
      "Ð°Ð½Ñĭ": 1609,
      "ÑģÑĥ": 1610,
      "ĠÐłÐ°Ð·": 1611,
      "ĠÐ½Ð°Ð·Ð°Ð´": 1612,
      "ĠÐ²Ð¼ÐµÑģÑĤÐµ": 1613,
      "ĠÑĩÐµÐ»Ð¾Ð²ÐµÐºÐ°": 1614,
      "ĠÐ¿ÑĢÐ¾Ð³ÑĢÐ°Ð¼": 1615,
      "Ð¾ÐºÐ°": 1616,
      "Ð»Ð¾ÑĤ": 1617,
      "ÑħÐ¾Ð´Ð¸ÑĤ": 1618,
      "ĠÑĥÑĢÐ¾Ð²": 1619,
      "ĠÑįÑĤÑĥ": 1620,
      "),": 1621,
      "Ð´Ð°ÑĤÑĮ": 1622,
      "ÑĢÐ¾Ð±": 1623,
      "ĠÐ¿Ð¾Ð½ÑıÐ»": 1624,
      "ÐµÑĤÐ°": 1625,
      "ĠÐ¼Ð°ÑĤÑĮ": 1626,
      "Ð°Ð½Ð¾": 1627,
      "ĠÑįÑĤÐ¸Ð¼": 1628,
      "Ð°ÑĢÐ°": 1629,
      "ĠÐ´Ð¾Ñĩ": 1630,
      "ÑģÑĤÐ²Ñĥ": 1631,
      "Ġ19": 1632,
      "ĠÐ¿ÑĢÐ¸Ñĩ": 1633,
      "ĠÐ¿Ð¾Ð´Ð¾ÑĪ": 1634,
      "ĠÐ¾Ð´Ð½Ð¾Ð¹": 1635,
      "ĠÐ±Ð¾": 1636,
      "Ð°Ð´ÑĨÐ°ÑĤÑĮ": 1637,
      "Ð½ÐµÐ²": 1638,
      "ĠÑģÐµÐ³Ð¾Ð´Ð½Ñı": 1639,
      "ĠÐ¼Ð¾Ð³Ñĥ": 1640,
      "ĠÐ¿Ð¾Ð·Ð²Ð¾Ð»": 1641,
      "ĠÐ¿ÑĢÐ¾Ð¸Ñģ": 1642,
      "ĠÐºÐ°Ð·": 1643,
      "ĠÐĺÐ·": 1644,
      "ĠÐ¼Ñĥ": 1645,
      "ĠÐºÐ¾ÑĤÐ¾ÑĢÐ¾Ð¹": 1646,
      "ÑģÑĤÐ²Ð¾Ð¼": 1647,
      "ĠÐ¸Ð½ÑģÑĤ": 1648,
      "ĠÑĢÐ°Ð·Ð³": 1649,
      "Ð¾ÑıÑī": 1650,
      "ĠÑģÐ¾Ð±ÑģÑĤÐ²ÐµÐ½": 1651,
      "ĠÐ¸ÑģÐºÑĥÑģ": 1652,
      "ĠÐĺÐ½": 1653,
      "ĠÑĢÐ°ÑģÑĤ": 1654,
      "ĠÐĽÑİ": 1655,
      "ĠÑĤÐ¾Ð¼Ñĥ": 1656,
      "ÑĩÐµ": 1657,
      "ĠÑĢÐ°Ð´": 1658,
      "Ð½Ð¸ÑĤÑĮ": 1659,
      "ÑĳÑĢ": 1660,
      "ĠÐ½ÐµÐºÐ¾ÑĤÐ¾ÑĢ": 1661,
      "Ð³Ð¾Ð´": 1662,
      "Ð¿Ð¿": 1663,
      "ÑıÐ¼Ð¸": 1664,
      "Ð¸ÑĢÑĥ": 1665,
      "Ð¾ÑĦ": 1666,
      "ÑĭÐ²Ð°Ñı": 1667,
      "ĠÐºÐ°Ð¿": 1668,
      "ĠÑģÑĤÐ¾ÑĢÐ¾Ð½Ñĭ": 1669,
      "ÐµÑĢÑĥ": 1670,
      "Ð»Ð¾Ð¼": 1671,
      "ÑĢÑĥÐ·": 1672,
      "Ġ*": 1673,
      "ÑĦÐ¾ÑĢÐ¼": 1674,
      "Ð°Ð»ÑĮÐ½ÑĭÐµ": 1675,
      "ÑģÐ»ÐµÐ´": 1676,
      "ĠÐ²Ð¾Ð·Ð±ÑĥÐ¶Ð´": 1677,
      "ĠÐºÑĥÐ´Ð°": 1678,
      "ĠÐ´ÐµÑĢÐ¶": 1679,
      "ĠÐ¿ÑĢÐ¾Ñĩ": 1680,
      "ÑıÐ½": 1681,
      "ÐµÐ»Ð¾ÑģÑĮ": 1682,
      "ĠÐ±ÑĢ": 1683,
      "ÑģÐ¾Ð²": 1684,
      "ĠÑĢÐ°Ð·Ð´": 1685,
      "ĠÐ¼Ð°Ð»ÑĮ": 1686,
      "ÑħÐ°": 1687,
      "ĠÐ¿ÑĢÐµÐ²": 1688,
      "ÑĢÐ°Ð´": 1689,
      "ÑĮÑİÑĤÐµÑĢ": 1690,
      "ÑģÐºÐ¸": 1691,
      "ĠÐ²Ð´ÑĢÑĥÐ³": 1692,
      "ĠÑģÐ¾Ð·Ð´Ð°": 1693,
      "ĠÑĤÑĢÐµÐ±": 1694,
      "ĠÐ»Ð¸ÑĨÐ¾": 1695,
      "Ð½Ð°ÐºÐ¾": 1696,
      "ĠÐ¼ÐµÐ´Ð»ÐµÐ½Ð½Ð¾": 1697,
      "Ġ18": 1698,
      "ĠÑĤÑĢÑĥÐ´": 1699,
      "ĠÐ¦": 1700,
      "ĠÐ¾ÑģÑĤÐ°Ð½Ð¾Ð²": 1701,
      "ĠÐ¿ÑĢÐ¸Ñģ": 1702,
      "ĠÑĤÑıÐ¶": 1703,
      "ĠÑįÐ½": 1704,
      "ĠÑģÐ²ÐµÑĢ": 1705,
      "ĠÑģÐ¾ÑģÑĤÐ¾Ñı": 1706,
      "ĠâĢĵâī¤": 1707,
      "ĠÐ²Ð½Ð¸Ð·": 1708,
      "ĠÐ½Ð°Ð²ÐµÑĢ": 1709,
      "ĠÑįÑĤÐ¸Ñħ": 1710,
      "ĠÐ´ÑĥÑĪ": 1711,
      "or": 1712,
      "ĠÐŁÐ¾ÑģÐ»Ðµ": 1713,
      "ĠÐ¿ÑıÑĤÑĮ": 1714,
      "ÑĤÐ°ÑĤ": 1715,
      "ĠÐ½Ð¸ÐºÑĤÐ¾": 1716,
      "ĠÐ·Ð°ÑģÑĤÐ°Ð²": 1717,
      "Ð½Ð¾ÑģÑĤ": 1718,
      "ĠÐºÐ¾ÑĤÐ¾ÑĢÑĭÑħ": 1719,
      "Ð½Ð¸Ð»": 1720,
      "ÑĢÑĥÑĪ": 1721,
      "ĠÐ³ÑĢÑĥÐ´ÑĮ": 1722,
      "ĠÐ¿Ð¾Ð¿ÑĭÑĤ": 1723,
      "ĠÐ´Ð¾Ðº": 1724,
      "ĠÐ¢ÐµÐ¿ÐµÑĢÑĮ": 1725,
      "ĠÐ¿Ð¾ÑĨ": 1726,
      "Ð¾Ð¶ÐµÑĤ": 1727,
      "ĠÐ²Ð»Ð°Ð³Ð°Ð»Ð¸": 1728,
      "ĠÐ½ÐµÑĳ": 1729,
      "ĠÑĪÐº": 1730,
      "ĠÑģÐµÐºÑĥÐ½": 1731,
      "ĠÑĤÑĥ": 1732,
      "ÑĢÐµÐ´ÐµÐ»": 1733,
      "ĠÑħÐ¾ÑĤÐµÐ»": 1734,
      "ĠÑģÐ²Ð¾Ðµ": 1735,
      "er": 1736,
      "ĠÐ¿Ð¾Ð»Ð½Ð¾ÑģÑĤÑĮÑİ": 1737,
      "Ð°Ð¹ÑĤÐµ": 1738,
      "ĠÑįÐ»ÐµÐº": 1739,
      "Ð¾ÑĢÐ¾Ð¶": 1740,
      "ÑģÑĤÑĥÐ¿": 1741,
      "ĠÐ±Ð¾Ð³": 1742,
      "ĠÐ¾Ð½Ð¾": 1743,
      "ĠÐ¡Ð¿": 1744,
      "ÐºÐ»ÑİÑĩ": 1745,
      "ĠÐ±ÑĥÐ´Ñĥ": 1746,
      "Ð¸ÑĤÑĥ": 1747,
      "ĠÑĢÐ°ÑģÐº": 1748,
      "ĠÑģÐ°Ð¼Ð¾Ð¼": 1749,
      "ĠÐ´Ð¾Ð²Ð¾Ð»ÑĮ": 1750,
      "ĠÑģÐ±": 1751,
      "ĠÐ¾Ð¿ÑıÑĤÑĮ": 1752,
      "ÑĢÐ¸Ð¼": 1753,
      "Ð¾ÑĤÑĮ": 1754,
      "Ð½ÐµÑģ": 1755,
      "Ġĉĉ": 1756,
      "ĠÑģÐ»ÑĥÑĩÐ°": 1757,
      "Ġ6": 1758,
      "in": 1759,
      "ĠÑģÐ¶": 1760,
      "Ð°ÑĤÐ¾ÑĩÐ½Ð¾": 1761,
      "ĠÐ¿Ð¾Ð»Ð¾Ð²": 1762,
      "ÑĢÐ°ÑģÑĤ": 1763,
      "Ð¸Ð²Ð°Ð»": 1764,
      "ĠÑĤÑĭÑģÑıÑĩ": 1765,
      "Ð»ÑıÐ´": 1766,
      "ĠÎ¹": 1767,
      "ĠÑģÑĤÐ°Ð»Ð¸": 1768,
      "ÐĹ": 1769,
      "ĠÐ´Ð°Ð»ÑĮÑĪÐµ": 1770,
      "ĠI": 1771,
      "Ġĉĉĉ": 1772,
      "ÐµÐ½Ð½Ð¾Ð³Ð¾": 1773,
      "ÐµÑĨÐ¸": 1774,
      "ĠÐ¾Ð±ÑĢÐ°ÑĤ": 1775,
      "ÑİÐ´Ð°": 1776,
      "Ð°Ð»ÑĮÐ½Ð¾Ð¹": 1777,
      "ĠÑĦÐ¸Ð·": 1778,
      "ĠÐ¼Ð¾ÐµÐ³Ð¾": 1779,
      "Ð¾Ð±ÑĢÐ°Ð·": 1780,
      "ÏĢ": 1781,
      "ĠÐ½ÐµÐ¾Ð±ÑħÐ¾Ð´": 1782,
      "ĠÐķÐ³Ð¾": 1783,
      "Ð¾ÑĩÐºÐ¸": 1784,
      "ĠÐºÑĢÑĥ": 1785,
      "ĠÐļÐ°ÑĤ": 1786,
      "Ð¾Ð½Ð¾Ð²": 1787,
      "Ð¾Ð½Ð¾Ð¼": 1788,
      "ÐµÑĢÐ¾": 1789,
      "âĢĵâī¥": 1790,
      "Ð°ÑĨÐ¸Ñı": 1791,
      "ÐµÐ½Ð½ÑĭÐ¼": 1792,
      "ĠÑĢÐ°Ð·ÑĥÐ¼": 1793,
      "ĠÐ¼Ð¾Ñī": 1794,
      "ĠÑĢÐ°Ð±": 1795,
      "ĠÐļÐ°": 1796,
      "ĠÑĢÐ°Ð·ÑĢ": 1797,
      "ĠÑĢÑĥÐºÐ°Ð¼Ð¸": 1798,
      "ĠÑįÑĤÐ°": 1799,
      "ĠÐ¿ÑĢÐ¸Ð¶": 1800,
      "Ð¾Ð²Ð°Ð»": 1801,
      "ÑıÑģÑĮ": 1802,
      "ĠÑģÐ°Ð¼Ð°": 1803,
      "ÑĤÐ¾Ñĩ": 1804,
      "ÑĥÐ»Ñı": 1805,
      "ÑĢÐ°Ñĩ": 1806,
      "ÐµÐ´Ð¸": 1807,
      "ĠÐ¿Ð»ÐµÑĩ": 1808,
      "ĠÑģÐ¾Ð¿": 1809,
      "Ð¾ÑĤÑĢÐµÑĤÑĮ": 1810,
      "ÑģÐºÐ¸Ñħ": 1811,
      "Ð½Ð¾Ñģ": 1812,
      "ĠÑģÑĤÐ°Ð»Ð¾": 1813,
      "ÑĢÐ°Ð»": 1814,
      "ĠÐ¿Ð°Ð¿": 1815,
      "ĠÐºÐ¾Ð¼Ð¿ÑĮÑİÑĤÐµÑĢ": 1816,
      "ĠÐ²Ð°Ð¶": 1817,
      "ĠÐ²Ð°ÑĪ": 1818,
      "ĠÑģÐ¾ÑĤ": 1819,
      "Ã¡": 1820,
      "Ð½Ð¸Ñħ": 1821,
      "ĠÐ¾ÑĤÑģ": 1822,
      "Ð¾Ð·Ð¼Ð¾Ð¶": 1823,
      "ĠÐºÐ»Ð¸": 1824,
      "ĠÐ´Ð¾Ð»Ð¶Ð½Ñĭ": 1825,
      "ĠÐ²Ð·Ð´": 1826,
      "ĠÑĤÐ²": 1827,
      "ĠÐ¾ÑĤÐ½Ð¾ÑĪ": 1828,
      "ĠÑģÑĤÐ°Ð½Ð¾Ð²": 1829,
      "ĠÐ³Ð¾Ð´Ð°": 1830,
      "ĠÐºÐ½Ð¸": 1831,
      "ĠÐ´Ð¾ÑĢÐ¾Ð³": 1832,
      "ĠÐ¿ÑĢÐ¾Ð±Ð»ÐµÐ¼": 1833,
      "ĠÐºÐ»Ð°Ñģ": 1834,
      "ĠÐ·Ð°ÑĤÐµÐ¼": 1835,
      "ĠÐ·Ð½Ð°Ð»": 1836,
      "ĠÑĪÐµ": 1837,
      "ÐµÐ½Ð½Ð¾Ðµ": 1838,
      "ĠÐ¾Ð¶": 1839,
      "Ð²Ð¸": 1840,
      "ĠÑģÑĤÐ¾ÑĢÐ¾Ð½Ñĥ": 1841,
      "Ð²Ð°Ð»": 1842,
      "ĠÐĿÐ¸Ðº": 1843,
      "Ð°Ð¶ÐµÑĤÑģÑı": 1844,
      "ÑĪÐ»Ð°": 1845,
      "ĠÐ¼Ð¸Ð»Ð»Ð¸": 1846,
      "ÐµÐ·Ð´": 1847,
      "ĠÐ·Ð°ÑģÑĤ": 1848,
      "ÑĥÐ¿ÐµÑĢÐ²": 1849,
      "Ð¾Ð±Ñī": 1850,
      "ĠÐ´Ð°Ð½": 1851,
      "ĠÐ½Ð°Ð±Ð»Ñİ": 1852,
      "ĠÑĥÐ²ÐµÑĢ": 1853,
      "ĠÐ±Ð»Ð°Ð³": 1854,
      "ĠÐ¿ÐµÑĢÐµÐ²": 1855,
      "ÐµÑĢÑĭ": 1856,
      "ĠĠĠĠ": 1857,
      "ÑıÐ»ÑģÑı": 1858,
      "ĠÐ²ÑĭÑħÐ¾Ð´": 1859,
      "ĠÐ±ÑĥÐ´ÑĤÐ¾": 1860,
      "ĠÑģÐ¿ÑĢÐ¾ÑģÐ¸Ð»": 1861,
      "ĠÐ±ÑĥÐ´ÑĥÑĤ": 1862,
      "ĠÐ¢Ð¾Ð»ÑĮÐºÐ¾": 1863,
      "ĠÐ¼ÑĥÐ¶Ñĩ": 1864,
      "ĠÐļÐ¾Ð½": 1865,
      "ĠÐ¼ÐµÑģÑĤÐ¾": 1866,
      "ĠÐ³ÑĥÐ±Ñĭ": 1867,
      "ĠÑģÑĥÐ¼": 1868,
      "ĠÐ²ÑĭÐ·": 1869,
      "ĠÐ¡Ð²ÐµÑĤ": 1870,
      "ĠÐļÐ°ÑĥÐ¿ÐµÑĢÐ²": 1871,
      "ĠÐ½Ð°Ð¹": 1872,
      "ĠÐ¿Ð¾Ð¼Ð¾Ñī": 1873,
      "ĠÐ¼Ð¾Ð³ÑĥÑĤ": 1874,
      "ĠÐ¿ÑĢÐ¾Ð¿": 1875,
      "Ð¾Ð²Ð°ÑĢ": 1876,
      "ĠÐ¿Ð°Ð»": 1877,
      "ÑĭÑģÐ»": 1878,
      "ĠÑģÐ¾Ð²ÐµÑĢÑĪÐµÐ½Ð½Ð¾": 1879,
      "Ðķ": 1880,
      "ÑİÑĤÑģÑı": 1881,
      "ĠÑģÐ»ÑĭÑĪ": 1882,
      "ĠÑģÐ¾Ð³Ð»Ð°Ñģ": 1883,
      "Ð½ÐµÐ³Ð¾": 1884,
      "ĠÑıÐ²Ð»Ñı": 1885,
      "ĠÑħÐ²Ð°ÑĤ": 1886,
      "ĠÐ½ÐµÐ·": 1887,
      "ĠÐ¼ÐµÑĩ": 1888,
      "ĠÐ´ÐµÑĢÐµÐ²": 1889,
      "ĠÑĢÐ°Ð´Ð¸": 1890,
      "Ð°Ð½Ð¸Ð·": 1891,
      "ÑħÐ¾": 1892,
      "Ð¸Ð²Ð°ÐµÑĤ": 1893,
      "ÐµÐ½Ð½Ð°Ñı": 1894,
      "ĠÑĤÐ°ÐºÐ¸Ðµ": 1895,
      "Ð°Ð»Ð¸Ð·": 1896,
      "ĠÐ¾Ð±ÑĢÐ°Ð·Ð¾Ð¼": 1897,
      "ĠÐ²Ð¸Ð´ÐµÐ»": 1898,
      "ĠÐ´ÑĥÑħ": 1899,
      "Ðĵ": 1900,
      "ÑıÑħ": 1901,
      "ĠÐºÐ°Ð¶Ð´ÑĭÐ¹": 1902,
      "ĠÐ¿ÐµÑĢÐ²ÑĭÐ¹": 1903,
      "Ð»ÐµÐ³": 1904,
      "Ð³Ð¾ÑĤÐ¾Ð²": 1905,
      "ĠÑĢÐ°Ð·Ð±": 1906,
      "ĠÐ´Ð¾Ð¼Ð°": 1907,
      "ÑĢÐ°ÑĪ": 1908,
      "ÑģÐºÐ¸Ðµ": 1909,
      "Ð¾ÐºÑĢÑĥÐ³": 1910,
      "Ð·Ñı": 1911,
      "ĠÐ¾ÑĤÐ¿ÑĢÐ°Ð²": 1912,
      "ÑĤÑĥÑĢ": 1913,
      "ĠÑģÑĤÐ¾Ð»": 1914,
      "ĠÑĤÐ¾Ð½": 1915,
      "Ð°Ð»ÑĮÐ½ÑĭÐ¹": 1916,
      "ĠÐ±Ð¾ÑĢ": 1917,
      "ĠÑĩÐ°ÑģÑĤÑĮ": 1918,
      "ĠÐ»Ð¸Ñĩ": 1919,
      "ÑĦÑĦ": 1920,
      "ĠÑįÐ½ÐµÑĢÐ³": 1921,
      "Ð¾Ð½Ð¸": 1922,
      "ÑĭÐ²Ð°Ð»": 1923,
      "ÑĢÐ°ÑĦ": 1924,
      "ĠÑģÐ²Ð¾Ð±Ð¾Ð´": 1925,
      "ÑĤÐ¾ÑĢÐ°": 1926,
      "ĠÑĢÐµÐ±": 1927,
      "ĠÐ½Ð°ÑĥÑĩ": 1928,
      "Ð»Ð°Ð¶": 1929,
      "ĠÐ¿ÑĢÐ¸ÑħÐ¾Ð´": 1930,
      "ÑĢÑıÑĩ": 1931,
      "ĠÐºÐ¾Ð¼Ð½Ð°ÑĤÑĥ": 1932,
      "ĠÑģÑĤÐ°Ð½": 1933,
      "ĠÑģÐ¿ÐµÑĨÐ¸": 1934,
      "ĠÐ¿Ð¾Ð½": 1935,
      "ĠÐľÐ°Ð¼Ð°": 1936,
      "ĠÐ½ÐµÑĩ": 1937,
      "ĠÐ¿ÑĢÐµÐ´Ð»Ð¾Ð¶": 1938,
      "Ð½Ð°ÑĩÐ°Ð»Ð°": 1939,
      "ÑĥÑİÑĤ": 1940,
      "Ð´Ð¾ÑĢÐ¾Ð²": 1941,
      "ĠÑģÑĤÑĢÐ°Ð½": 1942,
      "an": 1943,
      "Ð´Ð°Ð»": 1944,
      "ĠÐ¿ÑĢÐµÐ´ÑģÑĤÐ°Ð²Ð»Ñı": 1945,
      "ĠÑĤÐ¸Ñħ": 1946,
      "ĠÐ¿Ð¾ÑģÑĤÐ¾Ñı": 1947,
      "Ð´ÐµÑĢ": 1948,
      "ĠÑģÐ»Ð¾Ð²Ð½Ð¾": 1949,
      "ĠÐ·Ð°Ñħ": 1950,
      "Ð¾Ð¶Ð¸Ð´Ð°": 1951,
      "ÐĶÐ°": 1952,
      "ĠÐ¸Ð½ÑĤ": 1953,
      "ÑĢÐ¾ÑĤÐ¸Ð²": 1954,
      "ÑıÑĤÐµÐ»ÑĮ": 1955,
      "Ð¾Ð»ÑĮÑĪ": 1956,
      "ĠÑģÐ»ÑĥÑĩÐ°Ðµ": 1957,
      "ĠÐ¶ÐµÐ½ÑīÐ¸Ð½Ð°": 1958,
      "ÑĢÐµÐ±": 1959,
      "ĠÐ±ÐµÐ»": 1960,
      "ĠÐ§ÐµÑĢ": 1961,
      "Ðĳ": 1962,
      "ĠÐ½Ð°Ð·ÑĭÐ²": 1963,
      "Ð°Ð½ÑĮÑĪÐµ": 1964,
      "ĠÑĢÑĭ": 1965,
      "ĠÐ½Ð°ÐºÐ¾Ð½ÐµÑĨ": 1966,
      "ĠÐ¸ÑģÐ¿ÑĭÑĤ": 1967,
      "ĠÑĥÐ²Ð¸Ð´ÐµÐ»": 1968,
      "ont": 1969,
      "Ð¼ÐµÑĤ": 1970,
      "ĠÐ¾ÑĢÑĥÐ¶": 1971,
      "Ð¾Ð»Ðµ": 1972,
      "ĠÐĿÐ°Ð´": 1973,
      "ÐºÐ¾Ðµ": 1974,
      "Ð¾Ð»Ð¾": 1975,
      "ĠÐ¿Ð¸Ñģ": 1976,
      "ĠÐ¿Ð¾ÑįÑĤÐ¾Ð¼Ñĥ": 1977,
      "Ð²Ñĭ": 1978,
      "ÐµÐ»ÑĮÐ·Ñı": 1979,
      "ÑģÑĭ": 1980,
      "ĠÑģÐ½Ñı": 1981,
      "ÑĨÐ¸Ñİ": 1982,
      "Ð»Ð¸Ð¶": 1983,
      "ĠÐºÑĢÐ°Ð¹": 1984,
      "Ġc": 1985,
      "ĠÐĴÑģ": 1986,
      "ĠÑĩÑĥÐ²ÑģÑĤÐ²Ð¾Ð²": 1987,
      "ĠÑĢÐµÑĪÐ¸Ð»": 1988,
      "ÑİÑģÑĮ": 1989,
      "ĠÐ´ÐµÐ»Ðµ": 1990,
      "ÑĢÑĥÐº": 1991,
      "Ð¼Ðµ": 1992,
      "ÑįÐ½": 1993,
      "ĠÐ¾Ð±ÑĭÑĩ": 1994,
      "Ð±Ñĭ": 1995,
      "Ġ7": 1996,
      "âĢĵâĪĳ": 1997,
      "Ð¾Ð¿Ð¾Ð»": 1998,
      "ÐºÐ½ÑĥÐ»": 1999,
      "ĠÐºÐ°Ñĩ": 2000,
      "ĠÐ¿ÑĢÐµÐ¶": 2001,
      "ĠÑĢÐ°Ðº": 2002,
      "ĠÐ²ÑģÑĤÑĢÐµÑĩ": 2003,
      "čĊ": 2004,
      "ĠÐ±ÐµÑģÐ¿": 2005,
      "ĠÑĤÐ°ÐºÐ¾Ð³Ð¾": 2006,
      "ĠÐ´Ð²ÑĥÑħ": 2007,
      "ÑĤÑı": 2008,
      "ĠÐ²ÑĭÑģÐ¾Ðº": 2009,
      "Ð¾ÑĢÐ¾ÑĤ": 2010,
      "âĢĵâī¤âĢĵ": 2011,
      "ĠÐ´Ð¾Ð³": 2012,
      "ÑĢÐ¾Ð¼Ðµ": 2013,
      "ĠÐºÑĢÐµÐ¿": 2014,
      "ĠÐ½Ð°Ð¿ÑĢÑı": 2015,
      "ĠÐ·ÑĢ": 2016,
      "ÐµÑĩÑĮ": 2017,
      "ĠÐ´ÑĢÑĥÐ³Ð¸Ñħ": 2018,
      "ĠÐ±ÑĢÐ¾Ñģ": 2019,
      "ĠÑģÑĤÐµÐ½": 2020,
      "ĠÐ½Ð°ÑģÐ»": 2021,
      "ĠÐ¿Ð¾Ð¹": 2022,
      "Ð¸ÐºÐ¾Ð²": 2023,
      "ÐºÐ¸Ð¼": 2024,
      "Ð¾Ð²Ð°Ð½": 2025,
      "ĠÐ´Ñĭ": 2026,
      "ĠÐ´Ñĥ": 2027,
      "ÐĽ": 2028,
      "ĠÑĢÐ°ÑģÑģÑĤ": 2029,
      "ĠÐ·Ð½Ð°Ñĩ": 2030,
      "Ġ'": 2031,
      "ĠÑĢÐ°Ð²Ð½Ð¾": 2032,
      "ĠÐ¾Ð¿ÑĥÑģÑĤ": 2033,
      "ĠÐ²Ð¾ÐºÑĢÑĥÐ³": 2034,
      "Ð»ÐµÐ¹": 2035,
      "ĠÐ·Ð°Ñī": 2036,
      "ĠÐ¸Ð·Ð¼ÐµÐ½": 2037,
      "ĠÐ²Ð°Ð½": 2038,
      "Ð°Ð»ÑĮÐ½ÑĭÑħ": 2039,
      "ĠÐŁÐ¾Ð»": 2040,
      "ĠÐ²Ð»Ð°": 2041,
      "ÐµÑĢÐ¾Ð¼": 2042,
      "ĠÐ¼ÐµÑģÑı": 2043,
      "ĠÐĹÐ°": 2044,
      "ĠÐ¿Ð°Ð»ÑĮÑĨ": 2045,
      "Ð°Ð²Ð»Ñı": 2046,
      "ĠÐµÐ´Ð¸Ð½": 2047,
      "Ð¼Ð¾": 2048,
      "ĠÐ´ÑĢÑĥÐ³Ð°": 2049,
      "ĠÐ½Ð¾Ñģ": 2050,
      "Ð°ÑĤÑĢ": 2051,
      "ÑĨÐ¾Ð²": 2052,
      "ĠÐ¿ÑĢÐµÐºÑĢÐ°Ñģ": 2053,
      "Ð¾Ð½Ðµ": 2054,
      "ĠÐ¼ÐµÐ½ÑĮ": 2055,
      "ĠÑĤÐ°ÐºÐ¸Ð¼": 2056,
      "ÐºÐ°Ð¼": 2057,
      "Ð´Ð¾": 2058,
      "Ð½Ð°Ð»Ð°": 2059,
      "ĠÑģÐ»ÐµÐ´ÑĥÑİÑī": 2060,
      "Ð¾Ð·Ñı": 2061,
      "ÑıÑĤÑģÑı": 2062,
      "ÑģÑĤÐ°Ð»": 2063,
      "ÐµÑģÐ¿": 2064,
      "ĠÐ·Ð°ÐºÑĢÑĭ": 2065,
      "ÐµÑģÑĤÑĮ": 2066,
      "ĠÑĤÑĥÐ´Ð°": 2067,
      "ĠÑĩÐµÑĤÑĭ": 2068,
      "ÑĨÐ¸Ð¿": 2069,
      "ĠÐ´Ð²Ðµ": 2070,
      "en": 2071,
      "ÑĪÐ¸Ð±": 2072,
      "ĠÑĢÐ°Ð·Ð´Ð²": 2073,
      "ĠÐ¾Ð·": 2074,
      "ĠÐ½Ð°Ð³": 2075,
      "ĠÑħÐ¾ÑĤÑĮ": 2076,
      "ĠÐ´Ð¾ÑģÑĤÐ°ÑĤÐ¾ÑĩÐ½Ð¾": 2077,
      "ĠÐ²ÑģÑĤÐ°Ð²": 2078,
      "ĠÐ¾Ð¿ÑĢÐµÐ´ÐµÐ»": 2079,
      "ĠÐ¾Ð´Ð½Ð¾Ð³Ð¾": 2080,
      "Ð²Ð°": 2081,
      "ĠÐ´Ð¾Ð²Ð¾Ð»ÑĮÐ½Ð¾": 2082,
      "ÐµÑĤÑĢÐ¾Ð²": 2083,
      "ĠÐ¾Ð¿Ð°Ñģ": 2084,
      "ÑĥÐ»ÑĮÑĤÐ°ÑĤ": 2085,
      "ĠÐĴÐ¾": 2086,
      "ĠÐ¿ÑĢÐµ": 2087,
      "ĠÐ±ÑĭÐ²": 2088,
      "ĠÑģÑĤÐ¾Ð¸ÑĤ": 2089,
      "Ð½Ð¾Ð»Ð¾Ð³": 2090,
      "ĠÐ²ÐµÑģ": 2091,
      "ĠÐ·Ð½Ð°ÑĩÐ¸ÑĤ": 2092,
      "ĠÑģÑĥÐ´": 2093,
      "ÐµÑģÑĤÐ½Ð¾": 2094,
      "ĠÐ¿ÑĢÐ¸Ð¿": 2095,
      "ĠÐ¾Ð´Ð½Ð¾": 2096,
      "Ð¸Ð²ÑĪÐ¸ÑģÑĮ": 2097,
      "ĠÐ¼Ð°ÑģÑģ": 2098,
      "ÑĢÐ¾Ð´Ðµ": 2099,
      "font": 2100,
      "ĠÐ¼Ð°Ð»Ð¾": 2101,
      "ĠÑĢÐ°Ð·Ð¼": 2102,
      "ĠÑģÐ°Ð¼Ð¾Ð³Ð¾": 2103,
      "ÐµÑģÑĤÐ²Ð¾": 2104,
      "Ð¸Ð½Ð¾Ð²": 2105,
      "Ð°ÐºÑģ": 2106,
      "ĠÐ¿Ð¾Ð¼Ð¾Ð³": 2107,
      "ÑĥÐ·": 2108,
      "Ð°Ð½Ð¸ÐµÐ¼": 2109,
      "Ġi": 2110,
      "ĠÐ¾ÑĤÑĩ": 2111,
      "ĠÐ¾Ð´Ð½Ð°": 2112,
      "Ð¸ÑĢÐ¾Ð²Ð°ÑĤÑĮ": 2113,
      "ÑģÑĤÐ²ÑĥÐµÑĤ": 2114,
      "ĠÑĢÐ°Ð½ÑĮÑĪÐµ": 2115,
      "Ð§": 2116,
      "ÑĪÐ¸Ð¼": 2117,
      "ĠÐ¿Ð¾ÑĤÐµÑĢ": 2118,
      "Ð£": 2119,
      "ĠÑĤÐ°ÐºÐ¸Ñħ": 2120,
      "ĠÐ¾Ð±ÑĬÑıÑģ": 2121,
      "ĠÐ²ÑģÐµÐ¹": 2122,
      "ĠÐ½Ð°ÑĪÐ¸": 2123,
      "ĠÐ´Ð°Ð²Ð½Ð¾": 2124,
      "ĠÑģÐ°Ð¼Ð¾Ðµ": 2125,
      "ĠÐ½Ð°ÑģÑĤÐ¾ÑıÑī": 2126,
      "ĠÐ½Ñĥ": 2127,
      "Ð½ÑĥÐ²ÑĪÐ¸ÑģÑĮ": 2128,
      "ĠÐºÑĥÐ¿": 2129,
      "Ð¾Ð´Ð°ÑĢ": 2130,
      "ĠÐ³Ð¾ÑĢÑıÑĩ": 2131,
      "Ð¾Ð´Ð°": 2132,
      "ĠÐ¿Ð°ÑĢÑĥ": 2133,
      "ÐµÐºÑĤ": 2134,
      "ĠÐĿÐ°Ð¿": 2135,
      "ĠÐ¼Ð¾Ð³Ð»Ð°": 2136,
      "ĠÐ³ÑĢ": 2137,
      "ĠÐ´ÐµÐ»Ð°": 2138,
      "ĠÐ±ÐµÑĢ": 2139,
      "ĠÐ¼Ð°ÑĪÐ¸": 2140,
      "ĠÐ¿Ð¾ÑģÑĤÑĥÐ¿": 2141,
      "ĠÐ¼ÑĭÑģÐ»Ð¸": 2142,
      "ĠÐ»ÑİÐ±Ð¾Ð²": 2143,
      "ĠÐ½Ð°Ñĥ": 2144,
      "ĠÐ¼Ð¾Ð³Ð»Ð¸": 2145,
      "ÑıÐ»Ð¸": 2146,
      "Ð²ÐµÑĢÑħ": 2147,
      "ĠÐ¿ÑĥÑģÑĤ": 2148,
      "ĠÐ§ÐµÑĢÐµÐ·": 2149,
      "ĠÑģÐ»Ð°Ð±": 2150,
      "Ð¾Ð²Ð°Ð½Ð¸Ñı": 2151,
      "ÑĢÐ¸Ðº": 2152,
      "ÑĢÑĥÐ´": 2153,
      "ĠÐ¿ÑıÑĤ": 2154,
      "ĠÑģÐ»Ð¾Ð²Ð°": 2155,
      "ĠÐ³ÑĢÐ¾Ð¼": 2156,
      "Ġt": 2157,
      "Ð¸Ð»Ð¾Ñģ": 2158,
      "ÐµÐ½Ð½Ð¾ÑģÑĤÑĮ": 2159,
      "ÑĤÐ¾Ð¶": 2160,
      "ÑĨÐ¸Ð¾Ð½": 2161,
      "ĠÐĿÐ°ÑĤ": 2162,
      "ĠÑĪÐ¸ÑĢÐ¾Ðº": 2163,
      "ĠÐ²ÐµÐ»Ð¸": 2164,
      "ÑĢÐ¾ÑĪ": 2165,
      "ĠÑģÐ¾Ðº": 2166,
      "ÑģÐºÐ¾Ð»ÑĮÐºÑĥ": 2167,
      "ÑĨÐµÐ½": 2168,
      "ÑĤÐ°ÐºÐ¸": 2169,
      "ÑģÐ¾Ð»": 2170,
      "ĠÐ¿Ð¾ÑĢÑıÐ´": 2171,
      "ĠÐ½Ð¸Ð¼Ð¸": 2172,
      "Ð¸ÑģÐ»": 2173,
      "ĠÐºÐ¾ÑĤÐ¾ÑĢÐ¾Ð³Ð¾": 2174,
      "Ð¾ÑģÑĤÑĮÑİ": 2175,
      "ĠÐ¾ÑĢÐ³Ð°Ð·": 2176,
      "ÐºÑĥÑİ": 2177,
      "Ð½Ð°ÑĢÑĥÐ¶": 2178,
      "ÐŃ": 2179,
      "ĠÐĹÐµÐ¼": 2180,
      "ĠÐ´Ð¾Ð²": 2181,
      "ĠÑĨÐµÐ½ÑĤ": 2182,
      "ĠÐ²ÑĢÐ°Ð³": 2183,
      "Ð´ÑĢ": 2184,
      "ĠÐ¼Ð¾Ð·": 2185,
      "ĠÑĤÐµÐ»Ð°": 2186,
      "ÑĢÐµÐ¶": 2187,
      "ÑĭÐ²Ð°ÐµÑĤ": 2188,
      "ĠÐ´Ð¸": 2189,
      "ĠÐ±Ð¾Ñı": 2190,
      "ĠÐ²Ð¾Ð·Ð²": 2191,
      "ĠÐ¼Ð¸ÑĢÐ°": 2192,
      "ĠÐ²ÑģÐ¿Ð¾Ð¼": 2193,
      "ĠÑĤÐ¾ÑĩÐ½Ð¾": 2194,
      "ĠÑĥÐ´Ð°ÑĢ": 2195,
      "Ð¸Ð»Ð¾ÑģÐ¾ÑĦ": 2196,
      "ĠÐºÐ¾ÑĤÐ¾ÑĢÑĥÑİ": 2197,
      "ĠÐ½Ð°ÑĪÐµÐ¹": 2198,
      "Ð¸ÐµÐ¼": 2199,
      "Ð°ÑİÑīÐ¸Ð¹": 2200,
      "ĠÐºÐ¾ÑĤÐ¾ÑĢÐ¾Ðµ": 2201,
      "ĠÐ¸Ð½ÑĦÐ¾ÑĢÐ¼": 2202,
      "ĠÐ¿Ð¾Ð±ÐµÐ´": 2203,
      "ĠÐ±Ð¾Ð»ÑĮÑĪÐ¾Ð¹": 2204,
      "ĠÐ¸Ð·Ð¾Ð±": 2205,
      "ĠÐ¢Ð¾": 2206,
      "Ð°Ð»ÑĮÐ½Ð¾Ð³Ð¾": 2207,
      "ÑģÑĤÐ°": 2208,
      "ĠÐ½ÐµÐ»ÑĮÐ·Ñı": 2209,
      "ĠÑģÐ»ÑĥÑĩÐ°Ð¹": 2210,
      "Ð¾ÑĢÐ¾": 2211,
      "ĠÐ¢Ð¾Ð³Ð´Ð°": 2212,
      "ĠÑģÐ²ÐµÑĢÑħ": 2213,
      "ĠÑĩÐ¸ÑģÑĤ": 2214,
      "Ð²Ð¾Ð·": 2215,
      "ĠÑĩÐ»ÐµÐ½Ð°": 2216,
      "ĠÐ½ÐµÑģ": 2217,
      "ĠÑįÑĤÐ¾Ð¼Ñĥ": 2218,
      "ÐµÑĢÐ½Ð¾": 2219,
      "ĠÑĪÐ°Ð³": 2220,
      "ĠÐ°Ð±": 2221,
      "ĠÑģÐ¾Ð·Ð½Ð°": 2222,
      "ÑĪÐµÐµ": 2223,
      "ĠÐ¸Ð·Ð±": 2224,
      "ĠÐ¼Ð¾Ð¸Ñħ": 2225,
      "ĠÑĢÐ°ÑģÑģÐ¼": 2226,
      "ĠÑģÐ¸Ð»Ñĭ": 2227,
      "ĠÐŁÐ¾Ñĩ": 2228,
      "ĠÐ½ÐµÐ¼Ñĥ": 2229,
      "ÑĪÑĥÑİ": 2230,
      "ÐºÐ¾Ð³Ð¾": 2231,
      "ĠÑĩÐµÐ»Ð¾Ð²ÐµÑĩÐµÑģÐº": 2232,
      "ĠÐ¿Ð¸Ð·": 2233,
      "Ð»Ð¸Ð²Ð¾": 2234,
      "ĠÑĤÐ°": 2235,
      "ÑĤÐ¸Ñı": 2236,
      "ĠÑģÐ´ÐµÐ»Ð°Ð»": 2237,
      "ĠÐ²Ð¾Ð²": 2238,
      "ĠÑģÐºÐ°Ð¶": 2239,
      "ĠÑĤÐ¸Ð¿": 2240,
      "ĠÐĳÑĭ": 2241,
      "Ð¸ÑĩÐµÑģÐºÐ¸Ñħ": 2242,
      "ĠÐ·Ð°ÐºÐ¾Ð½Ñĩ": 2243,
      "ĠÐ¼ÐµÐ½ÐµÐµ": 2244,
      "ĠÐ²ÑħÐ¾Ð´": 2245,
      "ĠÑĢÐ¾Ð±": 2246,
      "ÑĢÐµÐ¼ÐµÐ½Ð½Ð¾": 2247,
      "ĠÐºÐ¾Ð³Ð¾": 2248,
      "ĠÑĤÐµÑħÐ½Ð¾Ð»Ð¾Ð³": 2249,
      "ÑĥÐ´Ð°ÑĢ": 2250,
      "ÑĪÐ»Ð¸": 2251,
      "ĠÐºÐ°ÐºÐ¸Ðµ": 2252,
      "ĠÐºÑĥÑĢ": 2253,
      "ĠÑĤÐµÑĤ": 2254,
      "ĠÐºÑĢÐ¾Ð²Ð°ÑĤÐ¸": 2255,
      "ĠÐ´ÐµÐ¹ÑģÑĤÐ²Ð¸ÑĤÐµÐ»ÑĮÐ½Ð¾": 2256,
      "ĠÐ¾Ð±ÑīÐµ": 2257,
      "Ð»Ð¾Ð½": 2258,
      "ĠÐ¾ÑĤÐ»Ð¸Ñĩ": 2259,
      "ĠÑĤÐµÐ¿": 2260,
      "ĠÑĦÐ¾ÑĢÐ¼": 2261,
      "Ð½ÑĥÑĤÑĮÑģÑı": 2262,
      "Ð¾Ð±Ð¾Ð¹": 2263,
      "ĠÑĩÐ°ÑģÑĤÐ¾": 2264,
      "ĠÐ·Ð´Ð¾ÑĢÐ¾Ð²": 2265,
      "Ð³Ð½Ð¾Ð²": 2266,
      "Ð½Ð°ÑĤÑĮ": 2267,
      "Ð¾ÑģÐ¿": 2268,
      "Ð¾ÑĢÐ²": 2269,
      "Ð·Ð¸": 2270,
      "ĠÐ´ÑĢÑĥÐ³Ð¸Ðµ": 2271,
      "Ð°ÑĨÐ¸Ñİ": 2272,
      "ĠÐ´Ð¸Ð²": 2273,
      "Ð½ÑĥÐ»Ð¸": 2274,
      "ĠÑĢÐµÐ·ÑĥÐ»ÑĮÑĤÐ°ÑĤ": 2275,
      "ĠÑģÑĭÐ½Ð°": 2276,
      "ĠÐ¼Ð¾Ð»Ñĩ": 2277,
      "ÑĢÐ¸Ð¼ÐµÑĢ": 2278,
      "ĠÑħÐ¾ÑĤÐµÐ»Ð¾ÑģÑĮ": 2279,
      "Ð½Ð¸ÑĤ": 2280,
      "ĠÑĩÑĥÐ´": 2281,
      "ÑĢÐµÐ·": 2282,
      "ĠÐ¾Ð±Ñĭ": 2283,
      "ĠÑĢÐ°ÑģÑģÐºÐ°Ð·": 2284,
      "Ð°Ð½Ð¸Ð¹": 2285,
      "ÑĤÐ¾Ð½": 2286,
      "ĠÐ¿Ð¾ÑģÑĤÐ°Ð²": 2287,
      "ĠÐ½Ð°ÑĩÐ¸Ð½Ð°": 2288,
      "ĠÐ¾ÑĤÐ²ÐµÑĤÐ¸Ð»": 2289,
      "Ð¾ÑģÐº": 2290,
      "ÑĩÐµÑģÐºÐ¸": 2291,
      "Ð½Ð¸ÑĨÐ°": 2292,
      "ĠÐ¿ÑĢÐ°ÐºÑĤÐ¸": 2293,
      "ÐµÐ½ÑĤÐ¾Ð²": 2294,
      "ĠÐĹÐ°ÑĤ": 2295,
      "ÐºÑĥÑģ": 2296,
      "Ð¾Ð·Ð¼Ð¾Ð¶Ð½Ð¾": 2297,
      "Ð°Ð»ÑĮÐ½Ð¾Ðµ": 2298,
      "ĠÑģÐºÐ¾Ð»ÑĮÐºÐ¾": 2299,
      "ĠÑĤÑĢÑĥÑģÐ¸ÐºÐ¸": 2300,
      "ĠÐºÐ¾Ð½ÑĤÑĢ": 2301,
      "Ð¸ÑĩÐµÑģÐºÐ¾Ð¹": 2302,
      "ĠÑĥÐ¿ÑĢÐ°Ð²": 2303,
      "Ð²ÐµÐ´": 2304,
      "ĠÑģÐ¿ÑĢÐ¾ÑģÐ¸Ð»Ð°": 2305,
      "Ð¸Ð½Ðº": 2306,
      "Ð½Ð¸ÑĩÑĤÐ¾Ð¶": 2307,
      "ĠÐķÐµ": 2308,
      "Ð¾ÑĩÐºÑĥ": 2309,
      "ÐµÐ¿ÑĤ": 2310,
      "ĠÐļÐ°ÑĥÐ¿ÐµÑĢÐ²ÑĥÐ´": 2311,
      "Ð°ÑİÑīÐ¸Ðµ": 2312,
      "ĠÐ½Ð°ÑĢÐ¾Ð´": 2313,
      "Ð½ÑıÑı": 2314,
      "ĠÑģÐ»ÐµÐ³": 2315,
      "âĢĵÂ±": 2316,
      "Ð½Ð¾Ð²ÑĮ": 2317,
      "Ð¾ÑĢÑĤ": 2318,
      "ĠÐ·Ð°Ñĩ": 2319,
      "ĠÐ¼Ð¸ÑĢÐµ": 2320,
      "ÐµÐ»Ñİ": 2321,
      "ĠÑĩÐ¸ÑĤ": 2322,
      "ĠÑģÐµÑĢÐ´": 2323,
      "ĠÐ²Ð¾Ð·Ð¼Ð¾Ð¶Ð½Ð¾": 2324,
      "Ð¸ÑĤÐµÐ»Ð¸": 2325,
      "ÑĢÐ¾Ð³": 2326,
      "Ġ8": 2327,
      "Ð±Ð°": 2328,
      "ĠÐ³Ð¾Ñģ": 2329,
      "ĠÐ¿ÑĢÐµÐ´Ð¿": 2330,
      "ĠÑģÐ»ÐµÐ³ÐºÐ°": 2331,
      "ĠÐ²Ð·ÑıÐ»": 2332,
      "ĠÐ¼Ð³Ð½Ð¾Ð²": 2333,
      "Ð¸ÑĩÐµÑģÐºÐ¸Ðµ": 2334,
      "ĠÑıÐ·ÑĭÐº": 2335,
      "ĠÐ¿ÐµÑĢÐµ": 2336,
      "ĠÐ²ÑĭÐ¿Ð¾Ð»": 2337,
      "ĠÐºÐ¾Ð½ÑĨÐµ": 2338,
      "ĠÐ¿Ð¾Ð»ÑĮÐ·": 2339,
      "ÑĢÐµÑħ": 2340,
      "ĠÐŀÐ´Ð½Ð°ÐºÐ¾": 2341,
      "ÑĢÐ¾Ð¹": 2342,
      "Ð°ÑĢÐ°Ðº": 2343,
      "ĠÑĥÐ¶Ð°Ñģ": 2344,
      "ĠÐ´Ð²Ð¸Ð¶ÐµÐ½Ð¸Ñı": 2345,
      "ĠÑĩÐµÑĤ": 2346,
      "ĠÑģÐ»ÑĥÐ¶": 2347,
      "ĠÑĥÑģÐ»Ð¾Ð²": 2348,
      "ĠÑĥÑģÐ»ÑĭÑĪ": 2349,
      "ĠÐ¢ÐµÐ¼": 2350,
      "ĠÐ´ÑĥÐ¼Ð°Ñİ": 2351,
      "Ð»Ð°ÑĤ": 2352,
      "ĠÑĤÐ¾Ð±Ð¾Ð¹": 2353,
      "ĠÑģÐ¾Ð¾Ð±Ñī": 2354,
      "Ãĸ": 2355,
      "ĠÐ´Ð½Ñı": 2356,
      "Ð²Ðµ": 2357,
      "ĠÐ¼Ð¾Ð´": 2358,
      "ĠÐ¾ÑĪÐ¸Ð±": 2359,
      "ĠÐĿÐ°Ðº": 2360,
      "ĠÐ¼ÑĭÑģ": 2361,
      "ĠÑģÑĤÑĢÐµÐ¼": 2362,
      "ĠÐ³Ð»Ð°Ð´": 2363,
      "Ð´Ð²Ð°": 2364,
      "ĠÐ¾Ð±ÑıÐ·": 2365,
      "ĠÐ¾Ð´Ð½Ñĥ": 2366,
      "ĠÐ¥Ð¾ÑĤÑı": 2367,
      "Ð¾ÑĤÑĢÑı": 2368,
      "ĠÐ²Ð²ÐµÑĢÑħ": 2369,
      "ĠÐ¼ÐµÐ»": 2370,
      "Ð¾Ð½ÑĮ": 2371,
      "ĠÐ¾ÐºÐ¾Ð»Ð¾": 2372,
      "ÑģÑıÑĤ": 2373,
      "ĠÑĢÐ°Ð·Ð²Ð¸ÑĤ": 2374,
      "Ð¾Ð»Ð°": 2375,
      "ÑģÑĤÐ²Ð¸Ðµ": 2376,
      "Ð°Ð½Ð¸Ñİ": 2377,
      "ĠÐ²ÐµÐ»Ð¸Ðº": 2378,
      "ĠÐ½ÐµÐ¾Ð¶Ð¸Ð´Ð°": 2379,
      "ĠÐ²ÑĤÐ¾ÑĢÐ¾Ð¹": 2380,
      "Ð°ÑĤÑĥ": 2381,
      "ĠÐ²Ð½Ð¾Ð²ÑĮ": 2382,
      "ĠÑħÐ¾Ð»Ð¾Ð´": 2383,
      "ĠÐ±Ð»Ð¸Ð·": 2384,
      "ĠâĢĵâĪı": 2385,
      "ÑįÑĢ": 2386,
      "ĠÐ´ÐµÑģÑıÑĤÑĮ": 2387,
      "ol": 2388,
      "ĠÐ¿ÑĢÐ¸ÑĪÐ»Ð¾ÑģÑĮ": 2389,
      "Ð¾ÑĤÐ°": 2390,
      "ĠÐ²Ð»Ð°Ð³Ð°Ð»Ð¸ÑīÐµ": 2391,
      "ĠÐ·Ð½Ð°ÐºÐ¾Ð¼": 2392,
      "ĠÐĶÐ»Ñı": 2393,
      "ĠÑģÐ¿ÑĥÑģÑĤ": 2394,
      "he": 2395,
      "ĠÑĢÐ°ÑģÑģ": 2396,
      "ĠÑĢÐ°Ð·Ð³Ð¾Ð²Ð¾ÑĢ": 2397,
      "ĠÐ½Ð¾Ð¶": 2398,
      "Ð¸ÑĤÐµÐ»ÐµÐ¹": 2399,
      "ĠÐ±ÑĥÐ´ÑĥÑī": 2400,
      "ĠÐ½ÐµÐ½": 2401,
      "ĠÐºÐ°Ð±": 2402,
      "ĠÐ¼ÑıÐ³": 2403,
      "ĠÑģÐ¿ÑĢÐ°Ð²": 2404,
      "ĠÐ½ÐµÐ¾Ð±ÑħÐ¾Ð´Ð¸Ð¼": 2405,
      "ÐµÑĩÐ°ÑĤ": 2406,
      "ĠÐ¿ÐµÑĢÐµÑģÑĤ": 2407,
      "Â·": 2408,
      "ĠÑģÑĤÐ¾Ð»ÑĮ": 2409,
      "ĠÑģÑĤÑĢÐ¾": 2410,
      "Ð¸Ð»ÑĮÐ½Ð¾": 2411,
      "ĠÑģÐ¿Ð¸Ð½Ñĥ": 2412,
      "Ã©": 2413,
      "ĠÐ²Ð¸Ð´Ðµ": 2414,
      "ĠÐ½Ð°ÑģÐ»Ð°Ð¶Ð´": 2415,
      "ÑģÐ¸": 2416,
      "ĠÐ½ÐµÐº": 2417,
      "ĠÐºÑĢÑĥÐ¿": 2418,
      "Ð¾ÑĢÐ¾ÑĪÐ¾": 2419,
      "ĠÐĶÐ°Ð²": 2420,
      "ĠÐ²ÑĢÐµÐ¼ÐµÐ½": 2421,
      "ĠÑĥÐ½Ð¸ÑĩÑĤÐ¾Ð¶": 2422,
      "ĠÐ½ÐµÐ¸Ð·": 2423,
      "Ð¿Ð¾Ð»Ð½Ðµ": 2424,
      "ÐµÑĢÐº": 2425,
      "ĠÐĹÐ°ÑĤÐµÐ¼": 2426,
      "ĠÐºÑĢÐ°ÑģÐ¸Ð²": 2427,
      "ĠÑħÐ¾ÑĩÐµÑĪÑĮ": 2428,
      "Ð¸Ð»Ð¸Ð·": 2429,
      "ĠÐ¼ÑĥÐ·Ñĭ": 2430,
      "ĠÐ¶ÐµÐ½ÑīÐ¸Ð½Ñĭ": 2431,
      "ĠÐ¿Ð¾Ð¶Ð°Ð»": 2432,
      "ÐµÐºÑĤÐ¸Ð²": 2433,
      "Ð²ÐµÑĢÐ´": 2434,
      "Ġ9": 2435,
      "ĠÐºÐ°Ð¶ÐµÑĤÑģÑı": 2436,
      "ĠÑģÐ²Ð¾Ð¸Ð¼Ð¸": 2437,
      "ĠÐ¿ÑĢÐ¸Ð»": 2438,
      "ÑģÐºÐ°Ñı": 2439,
      "ĠÐ¿ÑĢÐ¸Ð½ÑĨÐ¸Ð¿": 2440,
      "ĠÑĦÐ¸Ð»Ð¾ÑģÐ¾ÑĦ": 2441,
      "ĠÑĨÐµÐ»Ð¾Ð²": 2442,
      "ĠÐĶÐ¸Ð¼": 2443,
      "ĠÐ²ÐµÐ´": 2444,
      "ĠÑģÐ¿Ð¾ÐºÐ¾Ð¹": 2445,
      "ĠÐ²Ð½ÑĥÑĤÑĢÐ¸": 2446,
      "ĠÐ±ÑĭÑģÑĤ": 2447,
      "Ð±Ñĥ": 2448,
      "ĠÐºÐ¸Ð»": 2449,
      "ĠÐ³Ð¾ÑģÑĥÐ´Ð°ÑĢ": 2450,
      "ĠÐ¡ÐµÐ¹ÑĩÐ°Ñģ": 2451,
      "ĠÐĶÐ°Ð¶Ðµ": 2452,
      "ĠÑĦÐ¾ÑĢ": 2453,
      "Ãł": 2454,
      "ÐµÐ»Ð¸Ñĩ": 2455,
      "ĠÑģÐ¼ÑĭÑģÐ»": 2456,
      "ĠÐ³ÐµÐ½": 2457,
      "ĠÑģÐ¾Ð¼": 2458,
      "ĠÐ¾ÑĢÐ³Ð°Ð½Ð¸Ð·": 2459,
      "ĠÑģÑĤÐ¾ÑıÐ»": 2460,
      "Ð½Ð¾Ðº": 2461,
      "ĠÐ¿Ð»Ð¾ÑĤ": 2462,
      "ĠÐ½ÐµÐ±Ð¾Ð»ÑĮÑĪ": 2463,
      "Ð½ÑĥÐ»Ð¸ÑģÑĮ": 2464,
      "Ð¸ÑĩÐµÑģÐºÐ¸Ð¹": 2465,
      "ĠÐ¼ÐµÐ½ÑĮÑĪÐµ": 2466,
      "Ð°Ð´Ð½Ð¾": 2467,
      "Ð¾ÑĤÑĭ": 2468,
      "ĠÐ¶ÐµÑģÑĤ": 2469,
      "ĠÑģÐµÑĢÑĮ": 2470,
      "ĠÐ³Ð¾Ð»Ð¾Ð²Ð¾Ð¹": 2471,
      "ĠÑĨÐ²ÐµÑĤ": 2472,
      "Ġ--": 2473,
      "=\"": 2474,
      "Ð°ÑĢÐ°ÐºÑĤÐµÑĢ": 2475,
      "ĠÑĤÐ°ÐºÐ°Ñı": 2476,
      "ĠÐ²ÐºÐ»ÑİÑĩ": 2477,
      "ĠÐ¿ÑĢÐ¾Ðº": 2478,
      "ĠÐ¸ÑģÑģÐ»ÐµÐ´": 2479,
      "ĠÑģÐ°Ð¼Ð¸": 2480,
      "?!": 2481,
      "ĠÐ²ÑģÐº": 2482,
      "ĠÐ¢ÑĥÑĤ": 2483,
      "ĠÑıÐ³Ð¾Ð´": 2484,
      "ÑģÑĤÐµ": 2485,
      "ĠÐ¿Ð¾Ð¿ÐºÑĥ": 2486,
      "ĠÐ¿Ð¾ÑĩÑĥÐ²ÑģÑĤÐ²Ð¾Ð²Ð°Ð»": 2487,
      "Ð°Ð²ÑĪÐ¸ÑģÑĮ": 2488,
      "ĠÑģÐ¼ÐµÑĢ": 2489,
      "ĠÐ¼ÐµÑĢÐµ": 2490,
      "ÐµÐ½Ð½Ð¾ÑģÑĤÐ¸": 2491,
      "ĠÐ´Ð¾Ð¼Ð¾Ð¹": 2492,
      "ĠÐļÐ¾Ð½ÐµÑĩÐ½Ð¾": 2493,
      "ĠÐºÐ¾Ð»ÐµÐ½Ð¸": 2494,
      "ĠÑĩÐ°ÑģÑĤÐ¸": 2495,
      "ĠÐ¾Ð±Ð½Ð°ÑĢÑĥÐ¶": 2496,
      "ĠÐ»Ð¸ÑĪ": 2497,
      "ĠÐ´Ð¾Ð»Ð¶Ð½Ð¾": 2498,
      "ĠÐ¼ÐµÑĤÐ°Ð»": 2499,
      "Ð¼ÐµÐ½ÑĤ": 2500,
      "ÑģÐ»Ð°Ð±": 2501,
      "ÑĢÐµÐµ": 2502,
      "ĠÑĢÐ°Ð±Ð¾ÑĤÑĭ": 2503,
      "ĠÐ¼Ð¾Ðµ": 2504,
      "Ð¾Ð»ÐµÑĤ": 2505,
      "ĠÑģÐ¿Ð°Ñģ": 2506,
      "Ð»ÐµÑĩ": 2507,
      "Ð½ÐµÑĪ": 2508,
      "ĠÐ¡ÐµÑĢ": 2509,
      "ĠÑģÐ¸Ð»ÑĮÐ½ÐµÐµ": 2510,
      "Ð°ÑĢÐ¸": 2511,
      "ĠÐ½Ð°Ð¼Ð¸": 2512,
      "ĠÐ²Ð¾Ð·Ð´Ñĥ": 2513,
      "ĠÐ¿ÑĥÑĤ": 2514,
      "Ð½ÐµÐ½Ð¸Ñı": 2515,
      "ĠÐ´Ð¾Ð»Ð¶Ð½Ð°": 2516,
      "ĠÑħÐ¾ÑĩÐµÑĤ": 2517,
      "ÐºÑĥÐ´Ð°": 2518,
      "ĠÐ´Ð»Ð¸Ð½": 2519,
      "Ð¾Ð²Ð°Ð½Ð¸Ðµ": 2520,
      "ĠÑĢÐµÐ´": 2521,
      "ĠÐºÐ¾Ð»Ð¸Ñĩ": 2522,
      "Ð»Ð¾Ð½Ð¸": 2523,
      "Ð¸ÑĤÐ°": 2524,
      "ĠÐ¾Ð±Ð»Ð°": 2525,
      "Ð¸Ð²Ð°Ð»Ð°": 2526,
      "ĠÐ±Ð°Ð½": 2527,
      "Ð¸ÐºÐµ": 2528,
      "ĠÐ¿ÑĢÐ¾ÑĤ": 2529,
      "ĠÐºÑĢÐ¾Ð²Ð°ÑĤÑĮ": 2530,
      "ĠÑģÑİÐ´Ð°": 2531,
      "ÑĤÐ¾Ð»": 2532,
      "ĠÐ²Ð¿Ð¾Ð»Ð½Ðµ": 2533,
      "Ð¼Ð°Ð½": 2534,
      "ĠÐ¡ÑĢ": 2535,
      "Ð°ÑİÑģÑĮ": 2536,
      "ÑĢÐ¾Ð²Ð°ÑĤÑĮ": 2537,
      "ĠÐ´ÐµÑģÑıÑĤ": 2538,
      "ĠÐ¸Ð¼ÐµÐµÑĤ": 2539,
      "ĠÐ¼Ð°Ð»ÑĮÑĩÐ¸": 2540,
      "ĠÐ¡Ð°Ð¼": 2541,
      "ĠâĢĵÂ¥": 2542,
      "ÑĢÐµÐ¿": 2543,
      "ĠÐ¿ÑĢÐ¾Ð¸Ð·Ð²Ð¾Ð´": 2544,
      "ĠÐĵÐ»Ð°Ð²": 2545,
      "ĠÑģÐ°Ð¼Ð¾Ð¹": 2546,
      "Ð¸Ð²Ð°Ð»Ð¸": 2547,
      "ĠÐŁÐ¾ÑįÑĤÐ¾Ð¼Ñĥ": 2548,
      "ĠÐ±ÑĢÐ°": 2549,
      "ĠÐ²ÑĭÑĪÐµ": 2550,
      "ĠÐ²ÑģÑĤÐ°Ð»": 2551,
      "ĠÐ·Ð°Ð´Ð°Ñĩ": 2552,
      "ÑĢÐ¾ÑĩÐµÐ¼": 2553,
      "ÑģÐºÐ¾ÑĢÐµ": 2554,
      "ĠÐ¾ÑĤÐµÑĨ": 2555,
      "ĠÐºÑĢÑĥÐ³": 2556,
      "ĠÑģÐ»Ð°Ð´": 2557,
      "ĠÐ·Ð°Ð¼ÐµÑĤÐ¸Ð»": 2558,
      "ĠÐ½Ð°Ð»": 2559,
      "Ð¸ÑģÑģ": 2560,
      "ĠÐ¿ÑĢÐ¾Ð¸Ð·Ð¾ÑĪ": 2561,
      "Ð¸ÑĩÐµÑģÐºÐ¸": 2562,
      "Ð¸Ð½Ð¾": 2563,
      "âĢĵÂ¥âĢĵ": 2564,
      "Ð²Ð¾Ð·ÑĮ": 2565,
      "Ð°ÑİÑīÐ¸Ñħ": 2566,
      "\\\\\\": 2567,
      "**": 2568,
      "ĠÑģÐ°Ð¼ÑĭÐ¹": 2569,
      "ĠÐ¾ÑĩÐµÑĢÐµÐ´": 2570,
      "ĠÐ´Ð¾ÑģÑĤÐ¸Ð³": 2571,
      "Ġs": 2572,
      "Ð°Ð½Ð½ÑĭÐµ": 2573,
      "ÑĢÐµÐ²": 2574,
      "ĠÑģÐ°Ð¼Ð¾": 2575,
      "Ð¸ÑĩÐµÑģÐºÐ¾Ð³Ð¾": 2576,
      "Ġ20": 2577,
      "ĠÐ²Ð¾Ð»Ð¾ÑģÑĭ": 2578,
      "ÐµÑģÑĤÐ²Ð°": 2579,
      "ĠÐ¿ÑĢÐµÐ·": 2580,
      "ĠÑģÐ¸ÑģÑĤÐµÐ¼Ñĭ": 2581,
      "ÑĥÑīÐµ": 2582,
      "Ð½Ð¾Ð²ÑĢÐµÐ¼ÐµÐ½Ð½Ð¾": 2583,
      "Ð¿Ð¾Ð»Ð¾Ð¶": 2584,
      "ĠÐ¿Ð¾Ð»Ñĥ": 2585,
      "Ð¾Ð²Ð¾Ð¹": 2586,
      "Ð°ÐµÑĤÐµ": 2587,
      "Ð¾ÑĢÐ¾Ð¶Ð½Ð¾": 2588,
      "ĠÐºÑĥÐ»ÑĮ": 2589,
      "ĠÐ¡Ð¼": 2590,
      "ĠÐºÐ¸ÑģÐº": 2591,
      "ĠÐ³Ð¾Ð²Ð¾ÑĢÐ¸ÑĤÑĮ": 2592,
      "ÑĦÐ¾ÑĢ": 2593,
      "Ð°ÐºÑģÐ¸Ð¼": 2594,
      "Ð½Ð°ÑĩÐµ": 2595,
      "Ð¸Ð²Ð°ÑĤÑĮÑģÑı": 2596,
      "Ð¸ÐºÐ¾Ð¼": 2597,
      "Ð¾ÑģÑĤÐ¾": 2598,
      "ĠÐ¾ÑĤÐ²ÐµÑĢ": 2599,
      "ĠÐĶÐµÐ²": 2600,
      "ĠÑįÐ»ÐµÐºÑĤ": 2601,
      "ĠÐ¿ÑĢÐ¸Ð³": 2602,
      "ĠÐ³Ð¾Ð²Ð¾ÑĢÐ¸ÑĤ": 2603,
      "ĠÑĤÐ¾Ð¹": 2604,
      "ĠÐ»ÐµÐ³ÐºÐ¾": 2605,
      "ĠÑģÐ¸ÑĤÑĥ": 2606,
      "ĠÐ¿ÑĢÐ¸ÐºÐ°Ð·": 2607,
      "ĠÐ¿ÑĢÐ¸ÑıÑĤ": 2608,
      "ĠÐķÑīÐµ": 2609,
      "ĠÐºÐ°Ð·Ð°Ð»Ð¾ÑģÑĮ": 2610,
      "ĠÐ½Ð¸Ð·": 2611,
      "ĠÐºÐ¾Ð¶": 2612,
      "ĠÑħÑĥÐ´": 2613,
      "ĠÑĩÑĥÐ²ÑģÑĤÐ²": 2614,
      "es": 2615,
      "ĠÐ´Ð¾Ð»Ð³": 2616,
      "Ð°Ð¶Ð´Ñĭ": 2617,
      "Ð¾Ð³ÑĢÐ°ÑĦ": 2618,
      "ĠÑħÐ°ÑĢÐ°ÐºÑĤÐµÑĢ": 2619,
      "ĠÑĢÐ°Ð½": 2620,
      "ÑĢÑĭÑĤ": 2621,
      "ĠÐ¿ÑĢÐ¾ÑĦ": 2622,
      "ÑĢÐ¾Ð¿": 2623,
      "ĠÐ»ÐµÑģ": 2624,
      "ĠÐ¸Ð¼Ð¿ÐµÑĢ": 2625,
      "ĠÐ¾Ð¿ÑĭÑĤ": 2626,
      "ÐµÐ½Ð¸Ñģ": 2627,
      "ĠÐ½Ð¾ÑĢÐ¼": 2628,
      "Ð´Ð½Ð¾": 2629,
      "ĠÐ¿Ð¾ÑĤÑĢÐµÐ±": 2630,
      "ĠÐĿÐ°ÐºÐ¾Ð½ÐµÑĨ": 2631,
      "ĠÐ»Ð¾Ð±": 2632,
      "ĠÐ³Ð¾Ð²Ð¾ÑĢÐ¸Ð»": 2633,
      "ĠÐ´Ðµ": 2634,
      "ĠÐ³Ð»Ð°Ð·Ð°Ð¼Ð¸": 2635,
      "ĠÑĥÐ»Ð¸": 2636,
      "ÑĭÑģ": 2637,
      "ĠÐ¿Ð¸ÑģÑĮ": 2638,
      "ĠÐ²Ð·ÑıÐ»Ð°": 2639,
      "ĠÐºÑĢÐ¾Ð¼Ðµ": 2640,
      "Ð»ÑĥÑĪ": 2641,
      "ĠÐ¿Ð¾ÑģÐ¼Ð¾ÑĤÑĢÐµÐ»": 2642,
      "ĠÑĦÐ°Ðº": 2643,
      "ÐµÐ½Ð½ÑĥÑİ": 2644,
      "ĠÐ¡ÐµÑĢÐ³": 2645,
      "ĠÐ³ÑĢÑĥÐ¿Ð¿": 2646,
      "ĠâĢĵâĪ«": 2647,
      "ĠÑĢÐ°Ð·Ð¼ÐµÑĢ": 2648,
      "ĠÐĲÐ»ÐµÐº": 2649,
      "ĠÑģÑħÐ²Ð°ÑĤ": 2650,
      "ÑĢÐ¸Ð¿": 2651,
      "ĠÐ¿ÑĢÐ¾ÑģÑĤÑĢÐ°Ð½": 2652,
      "ĠÑĤÐµÐ¾ÑĢ": 2653,
      "ĠÐºÐ¸Ð²": 2654,
      "ĠÐŁÐµÑĢÐ²": 2655,
      "ÑĭÐ²Ð°Ð»Ð°": 2656,
      "ĠÐ¿Ð¾Ð²ÑĤÐ¾ÑĢ": 2657,
      "ĠÐºÐ¾ÑĢÐ¾ÑĤ": 2658,
      "ÑģÑĤÐ²ÐµÐ½Ð½ÑĭÐ¹": 2659,
      "Ð»ÑıÑĤÑĮ": 2660,
      "ÑģÐ¾Ð»ÑİÑĤ": 2661,
      "ĠÐ¿Ð¾Ð¿ÑĢÐ¾Ñģ": 2662,
      "ĠÐ¼ÐµÑģÑĤÐµ": 2663,
      "ĠÑģÑĥÑīÐµÑģÑĤÐ²Ð¾Ð²": 2664,
      "ÑıÑĤÑĮÑģÑı": 2665,
      "ÑĤÑĢÐ°": 2666,
      "ĠÐµÐ´Ð²Ð°": 2667,
      "ĠÐĺÐ¼": 2668,
      "ĠÐ²ÑĭÑĪÐµÐ»": 2669,
      "Ð°Ð½Ð½ÑĭÐ¹": 2670,
      "ĠÐ´ÑĥÐ¼Ð°Ð»": 2671,
      "ĠÐ¾ÑģÐ²": 2672,
      "ĠÐ±Ð»Ð°Ð³Ð¾Ð´Ð°ÑĢ": 2673,
      "âĢĵâī¥âĢĵ": 2674,
      "ĠÐ¿ÑĢÐ¸ÑĤ": 2675,
      "ĠÐ¸Ð½Ð¾Ð³Ð´Ð°": 2676,
      "ĠÐ·Ð°ÐºÐ»ÑİÑĩ": 2677,
      "Ð°Ð½Ñı": 2678,
      "ĠÐºÐ°ÑĤ": 2679,
      "Ð¸ÑĤÐµÐ»Ñı": 2680,
      "ÑĤÐ¸Ð½": 2681,
      "ÐµÑĢÐ¾Ð²": 2682,
      "ÐµÐ´Ð¸Ð½": 2683,
      "ĠÐ¿ÑĢÐ¾ÑħÐ¾Ð´": 2684,
      "Ġ10": 2685,
      "ĠÑģÐ½Ð°ÑĩÐ°Ð»Ð°": 2686,
      "ĠÐ¾Ð±ÑĢÐ°Ñī": 2687,
      "Ð¾Ð½Ñĭ": 2688,
      "Ð²Ð°ÑĤÑĮ": 2689,
      "ĠÑĩÐ°ÑģÐ¾Ð²": 2690,
      "ĠÑģÑĤÐ°ÑĤÑĮ": 2691,
      "ÑĥÐµÐ¼": 2692,
      "ĠÐ·Ð°Ð¼ÐµÑĩ": 2693,
      "ĠÐ²ÑģÑĤÑĢÐµÑĤ": 2694,
      "ĠÐ¿ÑĢÐ¾Ð¼ÐµÐ¶": 2695,
      "ĠÐ¿ÑĢÐµÐ¶Ð´Ðµ": 2696,
      "ĠÑıÐ·ÑĭÐºÐ¾Ð¼": 2697,
      "ĠÑģÐ¾ÑĢ": 2698,
      "ÐµÐ»Ð»ÐµÐº": 2699,
      "ĠÑģÐ½Ð¸Ð¼": 2700,
      "Ð½Ð°Ð²": 2701,
      "ĠÐ¿Ð¾ÑĨÐµÐ»Ð¾Ð²": 2702,
      "ÑĨÐ¸Ð¹": 2703,
      "ĠÐ²ÐµÐº": 2704,
      "ĠÐľÐ¾Ð¶ÐµÑĤ": 2705,
      "Ð½Ð¸ÑĨÑĥ": 2706,
      "ĠÐ¾ÑĤÐºÑĢÑĭÐ²": 2707,
      "ĠÐŀÐº": 2708,
      "Ð´Ð¸Ð²": 2709,
      "ÑģÑĤÑĢÐ°": 2710,
      "ÑĳÐ·": 2711,
      "ÑĥÑı": 2712,
      "ĠÑģÑĤÑĢÐ°ÑĪ": 2713,
      "ĠÐ´ÑĢÑĥÐ·": 2714,
      "ĠÐ¿Ð»Ð°Ð²": 2715,
      "Ð°Ð»Ð¸ÑģÑĤ": 2716,
      "Ð²ÐµÑĢÐ¶": 2717,
      "ĠÐ±Ð¾Ð¹": 2718,
      "ĠÐ¿ÑĢÐ¾Ð²Ð¾Ð´": 2719,
      "ĠÐ´ÐµÐ¼": 2720,
      "ĠÑģÐ¾Ñħ": 2721,
      "ĠÑģÐºÐ¾ÑĢÐ¾": 2722,
      "ĠÑģÑĢÐ°Ð²": 2723,
      "ĠÐ·Ð°Ð´ÑĥÐ¼": 2724,
      "Ð¾ÑģÑģ": 2725,
      "ÑģÑĤÑĢÐ¾Ð¹": 2726,
      "ĠÑįÐºÑģÐ¿": 2727,
      "ĠÑģÐ¼Ð¾ÑĤÑĢÐµÐ»": 2728,
      "ĠÐ¸ÑģÑĤÐ¾ÑĢÐ¸Ð¸": 2729,
      "ĠÐ¼Ð°ÑģÑĤ": 2730,
      "ĠÐ³Ð»ÑĥÐ¿": 2731,
      "ĠÐºÐ°ÐºÐ¾Ðµ": 2732,
      "ĠÑģÐ¸Ð¼": 2733,
      "ĠÐºÐ²Ð°ÑĢ": 2734,
      "ĠÐ²Ð¿ÐµÑĢÐµÐ´": 2735,
      "ĠÐ¿ÑĢÐ¸ÑıÑĤÐ½Ð¾": 2736,
      "ĠÐ±Ð°Ð±": 2737,
      "ĠÐ¢Ð°Ð¼": 2738,
      "ĠÐ¿Ð¾ÑģÑĤÐ¾ÑıÐ½Ð½Ð¾": 2739,
      "ĠÐ¿Ð¾Ð½ÑĢÐ°Ð²": 2740,
      "ĠÐ°ÑĢÐ¼Ð¸": 2741,
      "ĠÐ½Ð°ÑĪÐ¸Ñħ": 2742,
      "ĠÐ¿Ð¾Ð²ÐµÑĢÑħ": 2743,
      "ĠÑģÐ»ÑĥÑĪ": 2744,
      "Ð½Ð¸ÐºÐ¾Ð¼": 2745,
      "ĠÐºÐ»Ð°ÑģÑģ": 2746,
      "Ġd": 2747,
      "ĠÑĤÑĢÑĥÑģÑĭ": 2748,
      "ĠÐ¸Ð·ÑĥÑĩ": 2749,
      "ÑĥÑĪÐºÐ°": 2750,
      "Ð¾Ð¹ÑĤÐ¸": 2751,
      "Ð°Ð»Ð°ÑĤ": 2752,
      "ĠÐ¿Ð¾ÑģÐºÐ¾Ð»ÑĮÐºÑĥ": 2753,
      "Ġ25": 2754,
      "ĠÐ¾Ð±Ð»Ð°Ð´": 2755,
      "ĠÐ¶Ð¸ÑĤÑĮ": 2756,
      "!\"": 2757,
      "ĠÐ¾Ð´Ð½Ð¾Ð²ÑĢÐµÐ¼ÐµÐ½Ð½Ð¾": 2758,
      "âĢĵâĪĤ": 2759,
      "ĠÑıÐ²Ð»ÑıÐµÑĤÑģÑı": 2760,
      "Ð»Ð¸Ñı": 2761,
      "ĠÐ¿Ð¾Ð½ÑıÑĤÑĮ": 2762,
      "ĠÐ¸ÑģÑĩ": 2763,
      "ÐµÑĢÑĤÐ²": 2764,
      "ĠÑĢÑĥÐ±": 2765,
      "ĠÑģÑĩÐ°ÑģÑĤÑĮ": 2766,
      "ĠÐ²ÐµÑīÐ¸": 2767,
      "ĠÐ¿ÐµÑĢÐµÐ¼": 2768,
      "ĠÐ¿ÑĢÐ¸Ð½Ð¸Ð¼": 2769,
      "ĠÐ¡ÑĤÐ°Ñģ": 2770,
      "ĠÐ½Ð°Ð¿Ð¸Ñģ": 2771,
      "Ð°Ð»ÑĮÐ½ÑĭÐ¼": 2772,
      "Ð¥": 2773,
      "ĠÐŁÑĢÐ°Ð²": 2774,
      "ĠÐ´Ð°Ð»ÐµÐºÐ¾": 2775,
      "?\"": 2776,
      "ĠÐ²ÐµÑģÑĮÐ¼Ð°": 2777,
      "ÐĿÑĥ": 2778,
      "ĠÐ±Ð¾Ðº": 2779,
      "Ð½Ð¸ÑĨ": 2780,
      "Ð¨": 2781,
      "ĠÐ¼Ð¾Ðº": 2782,
      "ĠÐ¿Ð¾Ð´Ð´ÐµÑĢÐ¶": 2783,
      "ĠÑģÐµÐ¼ÑĮ": 2784,
      "at": 2785,
      "Ð½Ð¸ÑĨÑĭ": 2786,
      "ĠÐºÐ°Ñģ": 2787,
      "ĠÑģÐ¾Ñĩ": 2788,
      "ĠÑħÐ¾Ð·Ñı": 2789,
      "ĠÐ¼Ð¸Ð½Ñĥ": 2790,
      "Ð²Ð¸Ð´": 2791,
      "ĠÐ´ÐµÐ½ÑĮÐ³Ð¸": 2792,
      "ĠÑĥÐ´Ð°Ð»Ð¾ÑģÑĮ": 2793,
      "ĠÐ¿ÑĢÐ¾Ð²ÐµÑĢ": 2794,
      "Ð¾Ð·Ð½Ð°": 2795,
      "ĠÐļÑĤÐ¾": 2796,
      "ÐºÐ¸Ð¼Ð¸": 2797,
      "Ð°Ð»ÑĮÐ½Ð°Ñı": 2798,
      "Ð¾ÑĤÐ²ÐµÑĤ": 2799,
      "ĠÑħÑĥÐ¹": 2800,
      "ĠÑĥÐ²ÐµÐ»Ð¸Ñĩ": 2801,
      "ÑģÐºÐ¾Ðµ": 2802,
      "Ð»ÑĥÐ±": 2803,
      "Ġ15": 2804,
      "ÑĩÐ¾Ð½": 2805,
      "ĠÐºÑĢÐµÑģ": 2806,
      "ĠÐ½Ð°Ð¹ÑĤÐ¸": 2807,
      "ĠÑĤÐµÐ»Ðµ": 2808,
      "ĠÐŀÑĩ": 2809,
      "ĠÑıÐ²Ð½Ð¾": 2810,
      "ĠÐºÐ¾ÑģÐ¼Ð¾Ñģ": 2811,
      "ĠÐ¿Ð¾Ð´Ð½Ð¸Ð¼": 2812,
      "ĠÑĢÑĥÐºÐ°": 2813,
      "ĠÐ¾ÑģÐ¾Ð±ÐµÐ½Ð½Ð¾": 2814,
      "ĠÐ¾ÑĦ": 2815,
      "Ð¾Ð²Ð°Ð»Ð¸": 2816,
      "ĠÐ¾ÑĤÐ½Ð¾Ñģ": 2817,
      "ĠÐ»Ð¾Ð¶": 2818,
      "ĠÑĨÐµÐ»ÑĮ": 2819,
      "ĠÑĢÐ°Ð±Ð¾ÑĤÑĥ": 2820,
      "ĠÐºÐ°ÐºÐ°Ñı": 2821,
      "Ð¡Ð¡": 2822,
      "ÑģÑĤÐ²Ð¸Ñı": 2823,
      "ĠÐ½Ð°ÑĪÐµÐ³Ð¾": 2824,
      "Ð¸Ð²Ð¸Ð»Ð¸Ð·": 2825,
      "Ð»Ð°Ð½": 2826,
      "ĠÐ¶Ð°Ð»": 2827,
      "ĠÐ²Ð¾Ð·Ð½Ð¸Ðº": 2828,
      "ĠÐ½Ð°ÑĩÐ°Ð»Ð¸": 2829,
      "ÑĢÑıÑģ": 2830,
      "ĠÑĢÐ°Ð·Ð»Ð¸Ñĩ": 2831,
      "ĠÐ¿Ð¾Ð¿ÑĢÐ¾Ð±": 2832,
      "Ð½ÑıÑĤÑĮ": 2833,
      "ĠÑĢÐµÐ·ÐºÐ¾": 2834,
      "ÑİÑīÐ¸Ð¹": 2835,
      "Ð¾Ð»Ñı": 2836,
      "ĠÑģÐµÑģÑĤÑĢÐ°": 2837,
      "ĠÐ°Ð±ÑģÐ¾Ð»ÑİÑĤ": 2838,
      "ĠÐ»Ð¸Ð±Ð¾": 2839,
      "ĠÐ¿ÑĢÐ°Ð²Ð´Ð°": 2840,
      "Ð¾Ð»ÐµÐµ": 2841,
      "ÐµÐ¿ÐµÐ½Ð½Ð¾": 2842,
      "ĠÐ²Ð·Ð³Ð»Ñı": 2843,
      "Ð»Ñĥ": 2844,
      "Ð±Ð¸": 2845,
      "ĠÐ°Ð½Ñĥ": 2846,
      "20": 2847,
      "ĠÐ¸ÑģÐºÐ»ÑİÑĩ": 2848,
      "ĠÐ±Ð»Ð°Ð³Ð¾": 2849,
      "ĠÐºÐ»Ð¸ÑĤÐ¾ÑĢ": 2850,
      "ĠÐ¿ÑĢÐ¾Ð¸ÑģÑħÐ¾Ð´": 2851,
      "ĠÐĹÐ½Ð°": 2852,
      "ĠÐ°Ð»": 2853,
      "ĠÐĴÐµÐ´ÑĮ": 2854,
      "ĠÑģÐ»ÐµÐ´ÑĥÐµÑĤ": 2855,
      "ĠÐ¿ÑĥÑĤÐ¸": 2856,
      "ĠÐ¾Ð±ÑĭÑĩÐ½Ð¾": 2857,
      "Ð»Ð¸Ðº": 2858,
      "Ð¸Ð±Ð¾": 2859,
      "ĠÑįÑĦÑĦ": 2860,
      "Ð½Ð¸ÑĤÐµÐ»ÑĮ": 2861,
      "ĠÐ¾ÐºÐ°Ð·Ð°Ð»ÑģÑı": 2862,
      "ĠÐ¿ÑĢÐ¾ÑĨÐµÑģÑģ": 2863,
      "ĠÑįÐ¿": 2864,
      "ĠÐ¼Ð°ÑĪ": 2865,
      "ĠÐ´ÐµÐ²ÑĥÑĪÐºÐ°": 2866,
      "ĠÑģÐºÐ¾Ð»ÑĮÐ·": 2867,
      "ÑĥÐ½Ðº": 2868,
      "ĠÐ¼Ð¾Ð¸Ð¼": 2869,
      "Ð²ÑĭÐµ": 2870,
      "ĠÐ¿Ñģ": 2871,
      "ĠÐľÐ¾Ð¹": 2872,
      "Ð½ÑİÑİ": 2873,
      "ĠÐ¿Ð¾Ð´ÑħÐ¾Ð´": 2874,
      "ĠÐºÐ¾Ð¼Ð½Ð°ÑĤÐµ": 2875,
      "ĠÐ¾Ð±ÑīÐµÐ¼": 2876,
      "ÑģÐ¾Ð½": 2877,
      "ĠÐ±ÑĥÐ´ÐµÐ¼": 2878,
      "ĠÑģÐºÐ¾ÑĢÐµÐµ": 2879,
      "ĠÐºÑĥÑħ": 2880,
      "ĠÐ²ÑĭÑĢÐ°Ð¶": 2881,
      "ĠÐ¾ÐºÐ¾Ð½Ñĩ": 2882,
      "ĠÐ±ÑĭÑģÑĤÑĢÐµÐµ": 2883,
      "ĠÐºÐ¾ÑĤÐ¾ÑĢÐ¾Ð¼": 2884,
      "ĠÐ¿Ð°Ð¼": 2885,
      "ÑĩÐ¸Ð½Ñĭ": 2886,
      "ĠÑĤÐ¸ÑħÐ¾": 2887,
      "Ð¾Ð»Ð½": 2888,
      "ĠÑģÐ°Ð¼ÑĭÐ¼": 2889,
      "ĠÐĺÐ»Ð¸": 2890,
      "ĠÐ¾Ð±Ð¾": 2891,
      "ĠÐ¿ÑĢÐ¸ÑĢÐ¾Ð´": 2892,
      "Ð¾Ð²Ð°": 2893,
      "ĠÐ±Ð°Ð·": 2894,
      "ĠÑģÑĤÑĢÐ°Ñħ": 2895,
      "ĠÐ¼Ð½Ð¾Ð³Ð¸Ðµ": 2896,
      "Ð°Ð½Ðµ": 2897,
      "ĠÐ³Ð¾Ð´Ñĥ": 2898,
      "ĠÐ¿Ð¾ÑħÐ¾Ð¶": 2899,
      "ĠÑģÐ²Ð¾ÐµÐ¼Ñĥ": 2900,
      "Ġh": 2901,
      "Ð°ÑĦ": 2902,
      "ĠÑģÐµÐºÑģÑĥ": 2903,
      "ÑĢÐµÐº": 2904,
      "ĠÐŃÐ¹": 2905,
      "ĠÑģÑĢÐµÐ´Ð¸": 2906,
      "ĠÐ±ÑĥÐº": 2907,
      "ĠÐ´Ð²ÐµÑĢÐ¸": 2908,
      "ĠÐ¸Ð½ÑģÑĤÐ¸Ð½Ðº": 2909,
      "ĠC": 2910,
      "ĠÐ¼ÑĭÑģÐ»ÑĮ": 2911,
      "ĠÐ²ÐºÑĥÑģ": 2912,
      "ĠÐ»Ð¾Ð²": 2913,
      "Ð»ÑĥÑĩ": 2914,
      "ÑĢÐ¸Ð·": 2915,
      "ĠÐ²Ð½Ð¸Ð¼Ð°Ð½Ð¸Ðµ": 2916,
      "ÑĥÐµÑĤÑģÑı": 2917,
      "ĠÐ¿Ð¾Ð´ÑĥÐ¼Ð°Ð»": 2918,
      "ar": 2919,
      "ĠÐ¸Ð½ÑĤÐµÐ»Ð»ÐµÐº": 2920,
      "ÑĭÐº": 2921,
      "ÑĢÐ°Ð½Ð¸Ñĩ": 2922,
      "ĠÐ²Ð¸Ð´Ð½Ð¾": 2923,
      "ĠS": 2924,
      "Ð¾ÑĩÑĮ": 2925,
      "ĠÑİÐ±": 2926,
      "Ð¸ÑĨÑĭ": 2927,
      "ĠÑģÐµÑĢÑĮÐµÐ·": 2928,
      "Ð¸Ð¼ÑģÑı": 2929,
      "ĠÐ¾ÑĤÐ²ÐµÑĩ": 2930,
      "ĠÑģÐ¿ÐµÑĢÐ¼Ñĭ": 2931,
      "ĠÑĤÐ°Ð¹": 2932,
      "ĠÑĤÐ¾Ð¿": 2933,
      "ÑĤÐ°Ñī": 2934,
      "!!!": 2935,
      "ĠÐŁÐ¾ÐºÐ°": 2936,
      "Ð¸ÑĩÐ½Ð¾": 2937,
      "ĠÐ³Ð¾Ð»Ð¾Ð²Ðµ": 2938,
      "Ð´Ð°Ð½": 2939,
      "ĠÐ¾ÑĤÐ´ÐµÐ»ÑĮ": 2940,
      "ĠÐŁÐ¾ÑĩÐµÐ¼Ñĥ": 2941,
      "ĠÑģÑĥÐ¿": 2942,
      "ĠÐ¿Ð¾Ð»Ð¸ÑĤ": 2943,
      "ĠÐ¶Ð´": 2944,
      "ĠÑĢÐ°Ð±Ð¾ÑĤÐ°ÑĤÑĮ": 2945,
      "ĠÐ·Ð½Ð°ÐµÑĤ": 2946,
      "ĠÐ½Ð°Ð²ÐµÑĢÐ½Ð¾Ðµ": 2947,
      "ĠÐ¸Ð½Ð°ÑĩÐµ": 2948,
      "ĠÐ»ÑİÐ±Ð¾Ð¹": 2949,
      "ĠÐ±ÑĢÐ°ÑĤ": 2950,
      "ĠÑģÐ¾Ð´": 2951,
      "ÑĩÐ°Ð»": 2952,
      "Ð¹ÑĤÐ¸": 2953,
      "ĠÐ³Ð°Ð·": 2954,
      "ĠÑģÐ¿Ð°ÑĤÑĮ": 2955,
      "ÑģÑĤÐ²Ð¾Ð²Ð°ÑĤÑĮ": 2956,
      "ĠÐ¸ÑģÑĩÐµÐ·": 2957,
      "âĢ¦.": 2958,
      "ĠÑĥÐ½Ð¸": 2959,
      "ĠÐ²ÑĢÐ¾Ð´Ðµ": 2960,
      "ĠÐ½Ñĭ": 2961,
      "ĠÐŁÑĢÐ¾": 2962,
      "ĠÑģÐ¾ÑģÐµÐ´": 2963,
      "ĠÐ³Ð»ÑıÐ´": 2964,
      "ÑīÐ°": 2965,
      "ĠÑĨÐ¸Ð²Ð¸Ð»Ð¸Ð·": 2966,
      "Ð»Ð¸Ð½Ð°": 2967,
      "ĠÐ¿Ð»Ð¾ÑħÐ¾": 2968,
      "Ð³Ð¾ÑĢ": 2969,
      "ĠÐ²Ð¾Ð·ÑĢÐ°ÑģÑĤ": 2970,
      "ĠÐ¼ÑĥÐ¶ÑĩÐ¸Ð½Ð°": 2971,
      "Ð»Ð¾Ð¿": 2972,
      "ĠÐ¿Ð°Ð»ÐµÑĨ": 2973,
      "ĠÐºÑĢÑĭ": 2974,
      "Ð³Ñĥ": 2975,
      "ĠÐ´ÑĢÐ¾Ñĩ": 2976,
      "ÑĪÐºÐ°": 2977,
      "ĠÐ½Ð°Ð¿ÑĢÐ¸Ð¼ÐµÑĢ": 2978,
      "âĢĵâĪ«âĢĵ": 2979,
      "ĠÐ²ÑģÐµÐ¼Ñĥ": 2980,
      "ĠÑģÑĤÐ°Ð²": 2981,
      "ĠÐ²ÐµÑĢÑħ": 2982,
      "ĠÑĪÐºÐ¾Ð»": 2983,
      "ĠÐ¿ÑĢÐ¾Ð½Ð¸Ðº": 2984,
      "ÑĳÑĤÑģÑı": 2985,
      "Ð¿Ð¾Ð»Ð°Ð³": 2986,
      "ĠÐ¿Ð°Ð»ÑĮÑĨÑĭ": 2987,
      "ĠÑıÑĢ": 2988,
      "ÑģÑĤÐ²ÑĥÑİÑī": 2989,
      "ÑĢÐ¸Ð½": 2990,
      "ĠÐ¼ÐµÑģÑĤÐ°": 2991,
      "ÐµÐ½Ð½ÑĭÐ¼Ð¸": 2992,
      "ĠÐ¿Ð¾Ð´ÑĢÑĥÐ³": 2993,
      "ĠÑĦÐ»Ð¾ÑĤ": 2994,
      "Ð¸ÑĨÐ¸": 2995,
      "Ð¾Ð»ÐµÐ²": 2996,
      "Ð°Ð¹ÑģÑı": 2997,
      "Ð¾Ð»Ð¾ÑĤ": 2998,
      "ÑģÑĤÐ²ÐµÐ½Ð½Ð¾Ðµ": 2999,
      "ĠÐ¼Ð°Ð¼Ñĥ": 3000,
      "ÑĢÐ°ÑĤÑĮÑģÑı": 3001,
      "ĠÐ²Ð·Ð´Ð¾Ñħ": 3002,
      "ÑģÐºÐ¸Ð¼": 3003,
      "ĠÐ¾Ð¿ÐµÑĢ": 3004,
      "ĠÐ¿ÑĢÐ¾ÑĦÐµÑģÑģ": 3005,
      "ĠÐķÐ²": 3006,
      "ĠÐ³Ð¾ÑĢÐ¾Ð´Ð°": 3007,
      "ĠÐºÐ¾Ð¼Ð°Ð½": 3008,
      "Ð°ÑĤÐµÐ»Ñı": 3009,
      "ĠÐĴÐ¿": 3010,
      "ĠÐºÐ¸Ð»Ð¾Ð¼": 3011,
      "ĠÐ»Ð¸ÑĨÐ¾Ð¼": 3012,
      "ĠÑĩÐµÑĤÑĭÑĢÐµ": 3013,
      "Ð»Ð¸Ð±Ð¾": 3014,
      "Ð¾Ð²ÑĭÐµ": 3015,
      "ou": 3016,
      "ĠÐ²Ð¾Ð·Ð¼Ð¾Ð¶Ð½Ð¾ÑģÑĤÑĮ": 3017,
      "Ð½Ð°Ð¶": 3018,
      "ĠÑıÑģ": 3019,
      "ĠÐ¿Ð¾ÑĨÐµÐ»": 3020,
      "Ð¸Ð¶Ñĥ": 3021,
      "ĠÐ¼Ð¾Ð½": 3022,
      "ÑĢÐ¸ÑģÑĤÐ¸": 3023,
      "ĠÑĥÐ´Ð¾Ð²Ð¾Ð»ÑĮÑģÑĤÐ²Ð¸Ðµ": 3024,
      "ĠÑģÐ¸Ð³": 3025,
      "ĠÐĴÐ¸Ð´": 3026,
      "ĠÐ´Ð²Ð°Ð´ÑĨÐ°ÑĤÑĮ": 3027,
      "ĠÐ¿Ð¾ÑĤÑı": 3028,
      "ĠÑĢÐµÐº": 3029,
      "ĠÐ»ÑİÐ±Ð¸Ð¼": 3030,
      "ĠÐ±Ð¾Ð»Ð¸": 3031,
      "ÑĢÐ¾Ð½": 3032,
      "ÑģÐºÐ¾Ð¼": 3033,
      "Ð»Ð¸Ð¶Ðµ": 3034,
      "ĠÑģÐµÐ»": 3035,
      "ĠÐ³Ð¾ÑģÐ¿": 3036,
      "ÐµÐ½ÑĤÑĭ": 3037,
      "Ð°ÑĨÐ¸Ð¾Ð½": 3038,
      "Ð¾Ñİ": 3039,
      "ĠÐ½Ð°ÑģÑĤÐ¾Ð»ÑĮÐºÐ¾": 3040,
      "ÐµÐ»ÐµÐ¼": 3041,
      "ĠÑħÐ°Ð»Ð°ÑĤ": 3042,
      "ÑĢÐ°ÑıÑģÑĮ": 3043,
      "ĠÐ°Ð²ÑĤÐ¾Ð¼": 3044,
      "ĠÑĦÐ¸Ð³": 3045,
      "ĠÐ¾ÐºÑĢÑĥÐ¶": 3046,
      "ĠÑģÐºÐ²Ð¾Ð·ÑĮ": 3047,
      "Ð°ÑİÑīÐµÐ¹": 3048,
      "ĠÐ²Ð½ÑĥÑĤÑĢÐµÐ½": 3049,
      "Ð¾Ð»Ñİ": 3050,
      "it": 3051,
      "ĠÐ¿Ð°ÑĢÐµÐ½ÑĮ": 3052,
      "ĠÐ¿ÑĥÑģÑĤÑĮ": 3053,
      "ĠÑĤÐ²Ð¾ÑĢ": 3054,
      ".,": 3055,
      "Ġl": 3056,
      "ĠÐ²ÑĢÐµÐ¼ÐµÐ½ÐµÐ¼": 3057,
      "ĠÐ½ÐµÑĩÑĤÐ¾": 3058,
      "Ð°Ð²Ð»Ð¸Ð²": 3059,
      "ĠÑģÑĭÐ½": 3060,
      "ĠÐ»Ð¸ÑĦ": 3061,
      "ĠÐ²Ð¾Ð·Ð´ÑĥÑħ": 3062,
      "Ð¶Ð¸": 3063,
      "ĠÐ¼Ð°Ñģ": 3064,
      "ĠÐ´ÐµÐ½": 3065,
      "ÑģÐºÐ°Ð·": 3066,
      "ĠÐĿÐ°Ð´Ð¾": 3067,
      "Ð°Ð»Ðµ": 3068,
      "ĠÐ´Ð¾Ð¿": 3069,
      "ÑĤÑĥÑĢÑĭ": 3070,
      "ĠÐºÑĢÐ¸ÑģÑĤÐ°Ð»": 3071,
      "ÐµÐ¼ÑģÑı": 3072,
      "Ð¾ÑĢÐ¾Ð´": 3073,
      "ĠÐ½Ð¾ÑĩÑĮ": 3074,
      "ÐµÐ»ÐµÐ½": 3075,
      "Ð´Ð°Ñı": 3076,
      "ĠÑģÐ°Ð¼ÑĭÐµ": 3077,
      "Ð¾Ð²Ð»ÐµÑĤ": 3078,
      "ĠÑĢÑĥÐº": 3079,
      "\">": 3080,
      "ĠÐ¿Ð¾ÑģÑĤÑĢÐ¾": 3081,
      "ĠÑīÐµÐº": 3082,
      "ĠÐ²ÐµÑĩÐµÑĢ": 3083,
      "Ġ11": 3084,
      "ÑĮÐ¼Ð¸": 3085,
      "Ð¸ÑĦ": 3086,
      "Ð¾Ð¼Ð¸Ð½Ð°": 3087,
      "ĠÐ¸Ð³ÑĢÐ¾Ðº": 3088,
      "ĠÑģÐ¾Ð²ÑĢÐµÐ¼": 3089,
      "ĠÐ¿Ð»Ð°Ð½ÐµÑĤÑĭ": 3090,
      "ĠÑģÐ´": 3091,
      "Ð½ÐµÑĩ": 3092,
      "ÑĪÐ¸Ð¹ÑģÑı": 3093,
      "ĠÐ½ÑĢÐ°Ð²Ð¸ÑĤÑģÑı": 3094,
      "ĠÑĩÐµÑĤÐ²ÐµÑĢ": 3095,
      "ĠÐ¡Ð¾Ð²": 3096,
      "ĠÐ¿Ð°Ð»ÑĮÑĨÐ°Ð¼Ð¸": 3097,
      "ĠÐ²Ð¾Ð·Ð²ÑĢÐ°Ñī": 3098,
      "is": 3099,
      "ĠÐ½Ð¾Ð²ÑĭÐµ": 3100,
      "ĠÑģÐ¾Ð²ÐµÑĤ": 3101,
      "ĠÑĢÑĥÐºÐ°Ñħ": 3102,
      "ĠÐºÐ¾Ð½ÑĨÐ°": 3103,
      "ĠÐºÐ°ÑĩÐµ": 3104,
      "ĠÐ·Ð½Ð°ÑĤÑĮ": 3105,
      "ĠÐºÐ¾ÑģÑĤ": 3106,
      "ĠÐµÐ±": 3107,
      "Ġ12": 3108,
      "ÐµÐ½ÑĤÐ°": 3109,
      "ĠÐ·Ð½Ð°ÐµÑĪÑĮ": 3110,
      "ĠÐ°ÐºÑĤÐ¸Ð²": 3111,
      "ĠÐ¾ÑĢÑĥÐ¶Ð¸Ðµ": 3112,
      "Ð»Ð°Ð·": 3113,
      "ĠÐ²Ð¾ÑģÑĤ": 3114,
      "ĠÐ²ÐµÑĤ": 3115,
      "ÑĢÑĥÑĩ": 3116,
      "ĠÐ´ÑĢÑĥ": 3117,
      "ĠÐ¼ÐµÑĪ": 3118,
      "ĠÐ¿ÐµÑĢÐµÐ¿": 3119,
      "Ð¾Ð±ÑĢ": 3120,
      "Î¹": 3121,
      "ĠÐ²ÑĭÐ´ÐµÑĢÐ¶": 3122,
      "ĠÐºÐ¾Ð¿": 3123,
      "ĠÑģÐ¾Ð»Ð½": 3124,
      "Ð¾ÑĢÐ´": 3125,
      "ĠÑħÐ¾ÑĤÐµÐ»Ð°": 3126,
      "ÑģÑĤÐ°ÑĤÐ¸": 3127,
      "Ð¾Ð²Ð»ÐµÑĤÐ²Ð¾ÑĢ": 3128,
      "ÐµÐ²Ð¸Ð´": 3129,
      "ĠÐ´Ð°Ð²Ð°Ð¹": 3130,
      "ÑģÐ¾Ð¼": 3131,
      "ĠÐºÐ¾ÑĤÐ¾ÑĢÑĭÐ¼": 3132,
      "ĠÐ·Ð°ÑĩÐµÐ¼": 3133,
      "ĠÑģÑĤÑĭ": 3134,
      "Ð°ÑĪÐºÐ°": 3135,
      "ĠÑģÐ°Ð´": 3136,
      "ĠÐŁÑĢÐµÐ´": 3137,
      "ĠÐ½Ð°Ð¿ÑĢÑıÐ¶": 3138,
      "Ġp": 3139,
      "Ð¸Ð²Ð°ÐµÑĤÑģÑı": 3140,
      "ĠÐ¼Ð°Ð»ÑĮÑĩÐ¸Ðº": 3141,
      "ÑģÑĤÐ°Ð½Ð¾Ð²": 3142,
      "ĠÑģÐ¾Ð¾ÑĤÐ²ÐµÑĤ": 3143,
      "Ð°Ð¼ÐµÑĤ": 3144,
      "Ð¾Ð²Ð°Ð»ÑģÑı": 3145,
      "ĠÐļÐ¾ÑĢ": 3146,
      "ĠÑĥÐºÐ°Ð·": 3147,
      "ĠÐŀÑģ": 3148,
      "ĠÑĤÐ°Ð½": 3149,
      "ĠÐ¿Ð¾Ð»ÐµÐ·": 3150,
      "ĠÐºÐ¾ÑĢÐ°Ð±Ð»ÑĮ": 3151,
      "ĠÐ¸Ð´ÑĤÐ¸": 3152,
      "olor": 3153,
      "ĠÐ³Ð¾Ð²Ð¾ÑĢÑı": 3154,
      "Ð¸Ð½ÑĮ": 3155,
      "ĠÐºÐ°ÐºÐ¸Ð¼": 3156,
      "ĠÑģÑĤÑĢÐ°Ð´": 3157,
      "ÑĢÐ°Ð±Ð¾ÑĤ": 3158,
      "ĠÐŁÐµÑĢ": 3159,
      "ĠÐ±ÑĥÐ´ÐµÑĪÑĮ": 3160,
      "ĠÐ½ÐµÐ´Ð¾ÑģÑĤ": 3161,
      "ĠÑĢÐµÐ°Ðº": 3162,
      "Ð¾Ð¶Ð°Ð»": 3163,
      "ĠÑģÐ¿Ð¸Ð½Ð¾Ð¹": 3164,
      "ĠÐºÐ²Ð°ÑĢÑĤÐ¸": 3165,
      "ÑıÐ»Ð°ÑģÑĮ": 3166,
      "ĠÑģÑĤÑĢÑĥ": 3167,
      "ĠÐ´ÑĢÑĥÐ³Ð¾Ð¼": 3168,
      "ĠÑįÐ»ÐµÐºÑĤÑĢ": 3169,
      "ĠÑĢÐ°Ð·Ð´Ð²Ð¸": 3170,
      "ĠÐ½ÐµÐ¶Ð½Ð¾": 3171,
      "ĠÐ¼Ð°ÑĢ": 3172,
      "ĠÐ·Ð»": 3173,
      "ĠÐµÑģÑĤÐµ": 3174,
      "ĠÑĢÐµÐ°Ð»ÑĮ": 3175,
      "ĠÐ±ÑĥÑĢ": 3176,
      "Ð½Ð°Ð»Ð¸": 3177,
      "ĠÐ²Ð¸Ð´ÐµÑĤÑĮ": 3178,
      "ĠÐ¾ÑĤÐ²ÐµÑĤÐ¸Ð»Ð°": 3179,
      "ĠÐ¿ÑģÐ¸Ñħ": 3180,
      "ĠÐ¿ÐµÑĢÐµÐº": 3181,
      "Ð³Ð¾Ð²": 3182,
      "ĠÐ¸Ð·Ð²ÐµÑģÑĤ": 3183,
      "Ð½Ð°Ð´ÑĨÐ°ÑĤÑĮ": 3184,
      "ĠÑĤÐµÑĩ": 3185,
      "ĠÐ²ÑĭÐ´ÐµÐ»": 3186,
      "Ð¼Ð¸ÑĢÐ¾Ð²": 3187,
      "ĠÐ²Ð¾Ð´Ñĭ": 3188,
      "Ð½Ð°Ð¶Ð´Ñĭ": 3189,
      "ĠÐ½ÐµÐ¿ÑĢÐ¸": 3190,
      "ÑĢÐ¸Ð²": 3191,
      "ĠÑĥÐ¼Ðµ": 3192,
      "ĠÐ¿Ð°Ð´": 3193,
      "Ð´Ð°ÑĤ": 3194,
      "ĠÐºÐ¾Ð½ÑĩÐ¸Ð»": 3195,
      "ĠÐľÐµÐ½Ñı": 3196,
      "ĠÑģÐ¼Ð¾ÑĤÑĢÐµÑĤÑĮ": 3197,
      "Ð°ÑĢÐ´": 3198,
      "ĠÑĤÐµÐº": 3199,
      "ĠÑģÐµÐºÑĥÐ½Ð´": 3200,
      "Ð¸ÑĤÑĭ": 3201,
      "ĠÐ¿ÑĢÐ¾ÑıÐ²": 3202,
      "Ð»ÐµÐ½Ð¸ÐµÐ¼": 3203,
      "ĠÑĩÑĥÐ²ÑģÑĤÐ²Ð¾": 3204,
      "ĠÑģÑĤÐ¾ÑıÐ»Ð°": 3205,
      "ĠÑģÐºÑĥ": 3206,
      "Ð½ÐµÐ·": 3207,
      "ÐºÐ¾Ð²Ð¾Ð´": 3208,
      "Ð¾Ð±ÑĢÐ°Ð¶": 3209,
      "ĠÐ¾ÑĤÐ±": 3210,
      "ĠÐºÐ¾ÑĢÐ°Ð±Ð»Ñı": 3211,
      "ĠÐºÑĢÐ°": 3212,
      "ĠÑĤÑĢÐµÑĤÑĮ": 3213,
      "ĠÐ¸Ð¼ÐµÑĤÑĮ": 3214,
      "ĠÐ¿ÐµÑĢÐµÐ¶": 3215,
      "ĠÐ¿ÑĥÑĤÑĮ": 3216,
      "ÑĤÐ¸ÑĢÐ¾Ð²": 3217,
      "ĠÐ¿Ð¾Ð½ÑıÑĤ": 3218,
      "ÑİÑīÐ¸Ðµ": 3219,
      "ÑĩÐµÑĤ": 3220,
      "ÑıÐµÑĤ": 3221,
      "ĠÑģÐ¾Ð±Ñĭ": 3222,
      "Ð½Ð¸Ð»Ð°": 3223,
      "ĠÐ³Ð»Ð°Ð·Ð°Ñħ": 3224,
      "Ġa": 3225,
      "ĠÐ¼ÑĭÑĪ": 3226,
      "ĠÐ¼Ð°ÑĤÐµÐ¼": 3227,
      "ĠÐ±ÐµÐ³": 3228,
      "ĠÐ²ÑģÑĤÐ°Ð»Ð°": 3229,
      "ĠÐĿÐ°ÑģÑĤ": 3230,
      "ÑģÑĤÐµÑĢ": 3231,
      "ĠÐ´Ð¾Ð±Ð°Ð²": 3232,
      "ĠÐĲÐ»ÐµÐºÑģ": 3233,
      "ĠÑģÐ¾Ð±Ð¸ÑĢ": 3234,
      "Ð´ÑĨ": 3235,
      "ĠÑĥÑĩÐ°ÑģÑĤ": 3236,
      "ĠÐ±Ð¾Ð¼": 3237,
      "ĠÑĢÐµÐ²": 3238,
      "ÑģÐºÑĥÑİ": 3239,
      "ĠÐĺÑĢ": 3240,
      "ĠÐ¿ÑĢÐ¾Ð´Ð¾Ð»Ð¶Ð°Ð»": 3241,
      "ĠÐ½Ð¸Ð¶Ðµ": 3242,
      "ÐµÐ½Ð¸ÑĤÑĮ": 3243,
      "ĠÐ¼Ð¾Ð¶ÐµÐ¼": 3244,
      "Ð¾Ð²Ð¾": 3245,
      "Ð·Ð°Ð´Ð¸": 3246,
      "ĠÐĶÐ°Ð²Ð°Ð¹": 3247,
      "ĠÐ³Ð¾ÑĢÐ°Ð·": 3248,
      "ĠÐ¾Ð±Ð½Ñı": 3249,
      "ĠÐ¾ÑħÐ¾ÑĤ": 3250,
      "Ð½ÐµÑĢ": 3251,
      "ĠÐ¾ÑģÑĤÐ°Ð½": 3252,
      "ĠÐ¾Ð±Ð½Ð°Ð¶": 3253,
      "ĠÐ¼Ð¾ÐµÐ¼Ñĥ": 3254,
      "ĠÑĥÐ±ÐµÐ¶": 3255,
      "ĠÐ²Ð½ÑĥÑĤÑĢÑĮ": 3256,
      "ÑģÑĤÐ¾": 3257,
      "ĠÐ¾ÑģÑĤÐ¾ÑĢÐ¾Ð¶Ð½Ð¾": 3258,
      "ĠÐ´ÐµÐ²ÑĩÐ¾Ð½": 3259,
      "Ð»ÐµÐ¶": 3260,
      "ĠÐ¼Ð½Ð¾Ð¶Ðµ": 3261,
      "ĠÑģÐ¾Ð¿ÑĢÐ¾ÑĤÐ¸Ð²": 3262,
      "ĠÐ¾ÑĤÐºÐ°Ð·": 3263,
      "ĠÐ¿Ð¾Ð½ÑıÐ»Ð°": 3264,
      "Ð¾Ð²Ð°Ð»Ð°": 3265,
      "ĠÐ¿Ð¾ÑĩÑĥÐ²ÑģÑĤÐ²Ð¾Ð²Ð°Ð»Ð°": 3266,
      "ĠÐĿÐ°Ð¿Ð¾Ð»Ðµ": 3267,
      "ĠÐ¾ÑĤÑĤ": 3268,
      "ĠÐ¾Ð¿Ð¸Ñģ": 3269,
      "ĠÐ²ÑĭÐ³Ð»ÑıÐ´": 3270,
      "ÑĭÐ²Ð°Ð»Ð¸": 3271,
      "ĠÐ½Ð°Ð´ÐµÐ¶": 3272,
      "Ð¼Ð°ÑĤ": 3273,
      "ĠÐ³Ð¾ÑĢÐ°Ð·Ð´Ð¾": 3274,
      "Ð¾ÑĤÑĢÐ¸": 3275,
      "ÑĨÐµÐ¿": 3276,
      "Ġ188": 3277,
      "ĠÑĥÑĩÐ¸ÑĤ": 3278,
      "ĠÐ´Ð¾Ð»Ð»Ð°": 3279,
      "Ð¸Ð²Ð°ÑıÑģÑĮ": 3280,
      "Ð°ÑĢÑĮ": 3281,
      "ĠÐ²Ð¾Ð²ÑģÐµ": 3282,
      "ĠÐ°ÑĤÐ¾Ð¼": 3283,
      "ĠÐĽÐµÐ½": 3284,
      "ĠÑĩÐ°ÑģÐ°": 3285,
      "Ð¸ÑıÑħ": 3286,
      "ĠÑģÐ°Ð¼ÑĭÑħ": 3287,
      "ĠÐ¿Ð¾Ð½Ð¸Ð¼Ð°Ñİ": 3288,
      "ĠÑģÐ¸Ñħ": 3289,
      "ĠÐ²Ð·ÑĢÐ¾Ñģ": 3290,
      "ĠÐ¶Ð°ÑĢ": 3291,
      "Ð»ÑıÑı": 3292,
      "ĠÐ±Ð¾Ð»ÑĮÐ½Ð¾": 3293,
      "Ð¸ÐºÑĥ": 3294,
      "ĠÑģÐ¸Ð»Ð°": 3295,
      "Ð»ÑĮÑĦ": 3296,
      "Ð²ÐµÑģÑĤ": 3297,
      "red": 3298,
      "ĠÐ¾Ð´Ð½Ð¸Ð¼": 3299,
      "ĠÐ¿Ð¾ÑĪÐ»Ð¸": 3300,
      "ĠÐ·Ð°Ð¶": 3301,
      "ĠÐ¿Ð¾ÐºÐ°Ð·ÑĭÐ²": 3302,
      "ĠÐ´ÑĢÐµÐ²": 3303,
      "ĠÑĢÐ°Ð·ÑĢÐ°Ð±Ð¾ÑĤ": 3304,
      "ĠÐ¿Ð¾Ð³Ð¸Ð±": 3305,
      "ĠÐ¿ÑĢÐ¾Ð¸ÑģÑħÐ¾Ð´Ð¸ÑĤ": 3306,
      "Ð½ÐµÐ¼Ñĥ": 3307,
      "ĠÐ¿Ð¾ÑģÐ»ÐµÐ´Ð½Ð¸Ð¹": 3308,
      "ĠÑĢÐ°ÑģÑģÐºÐ°Ð·ÑĭÐ²": 3309,
      "ĠÐľÐ¾Ð¶": 3310,
      "ĠÐ¿ÑĢÐ¾ÑĤÑı": 3311,
      "ĠÑĥÑģÑĤÑĢÐ¾": 3312,
      "ĠÑĩÐ¸ÑģÐ»": 3313,
      "ÐµÐ³Ð¾ÑĢÐ¸": 3314,
      "ĠÑģÐ»Ð¾Ð²Ð¾": 3315,
      "ÑĤÐ¸Ðµ": 3316,
      "ĠÐ³Ð»ÑıÐ´Ñı": 3317,
      "ÑĢÐ°ÑĤÐ½Ð¾": 3318,
      "Ð½Ð¾ÑģÑĤÐµÐ¹": 3319,
      "ĠÐ³ÑĥÐ±Ð°Ð¼Ð¸": 3320,
      "ĠÐºÐ¾Ñģ": 3321,
      "ĠÐ»Ð¸Ð·": 3322,
      "ĠÐ³Ð¾Ð»Ð¾Ð²ÐºÑĥ": 3323,
      "ĠÑģÐµÑģÑĤÑĢÑĭ": 3324,
      "ĠÐĴÐ¿ÑĢÐ¾ÑĩÐµÐ¼": 3325,
      "ĠÐ´Ð½ÐµÐ¹": 3326,
      "ĠÑģÐ²Ð¾ÐµÐ¼": 3327,
      "ĠÐ·Ð°ÐºÐ¾Ð½": 3328,
      "Ð°ÑıÐ²": 3329,
      "ĠÐºÐ¾Ð½ÑĨÐ¾Ð²": 3330,
      "ĠÐ¸ÑģÐ¿Ð¾Ð»ÑĮÐ·Ð¾Ð²Ð°ÑĤÑĮ": 3331,
      "ĠÐĵÐ»Ð°Ð²Ð°": 3332,
      "Ġ]": 3333,
      "ĠÐ¿Ð¾Ð´Ñĩ": 3334,
      "ĠÐ¿Ð¾ÑģÐ¼Ð¾ÑĤÑĢÐµÐ»Ð°": 3335,
      "ÑĤÐ¾Ð±Ñĭ": 3336,
      "ÑĢÐ°Ð»Ð°": 3337,
      "Ð¾Ð´Ð½Ð¾": 3338,
      "ĠÐ¾Ð±Ñģ": 3339,
      "ĠÑģÑĥÐ´ÑĮ": 3340,
      "Ð¾Ð·Ð²": 3341,
      "Ð³Ð¾Ðµ": 3342,
      "Ð°ÑİÑīÐµÐ³Ð¾": 3343,
      "Ð»ÐµÐ½Ð¸Ð¸": 3344,
      "Ð´ÐµÐ½": 3345,
      "Ð¾Ð»ÑĮÐ½Ð¾": 3346,
      "Ð¸ÑĩÐµÑģÐºÐ¾Ðµ": 3347,
      "ĠÐ¿ÑĢÐ¾Ð¸Ð·Ð¾ÑĪÐ»Ð¾": 3348,
      "Ð¼Ð¾Ð¹": 3349,
      "ĠÐ³Ð»ÑĥÐ±Ð¾ÐºÐ¾": 3350,
      "ĠÐ¾ÑĤÑĨÐ°": 3351,
      "Ð°Ð½Ð½Ð¾Ð¹": 3352,
      "ÐµÐ²Ð¾Ð¹": 3353,
      "ÑģÑĤÑĢÐ¸": 3354,
      "ĠÐ´ÐµÐ²Ð¾ÑĩÐºÐ°": 3355,
      "ĠÐ¶ÐµÐ½ÑīÐ¸Ð½": 3356,
      "ĠÐ´Ð¶": 3357,
      "ĠÑĪÐ¸ÑĢÐ¾ÐºÐ¾": 3358,
      "ĠÑĥÑģÐ¸Ð»": 3359,
      "ĠÐ±Ð¸": 3360,
      "Ð°Ð½Ñģ": 3361,
      "Ð½Ð°Ñħ": 3362,
      "ĠÐĺÐ³Ð¾": 3363,
      "ĠÐ¾ÑĩÐµÑĢ": 3364,
      "ĠÑģÐ¾Ð±Ð¸ÑĢÐ°": 3365,
      "ĠÐ¥Ð¾ÑĢÐ¾ÑĪÐ¾": 3366,
      "ĠÐ²Ð½ÐµÑĪ": 3367,
      "Ð¸Ð½ÑĤÐµÑĢÐµÑģ": 3368,
      "ĠÐ¾ÑģÐ¼": 3369,
      "ĠÐ½Ð¸ÐºÐ°ÐºÐ¸Ñħ": 3370,
      "Ð´ÐµÑģÑıÑĤ": 3371,
      "ĠÑĤÑı": 3372,
      "Ð¾Ð»ÑĮÑĪÐµ": 3373,
      "ÐµÐ²Ð°ÑĤÑĮ": 3374,
      "ÑįÐ¹": 3375,
      "Ð¸Ð½Ð¸": 3376,
      "ÑĭÐ¿": 3377,
      "om": 3378,
      "ĠÐ¿Ð¾Ð´Ð³Ð¾ÑĤÐ¾Ð²": 3379,
      "ĠÐ¾Ð±ÐµÑģÐ¿": 3380,
      "ÑĢÐ¸ÑģÑĤ": 3381,
      "Ð½Ð¾Ð³": 3382,
      "ĠÐ¾Ð±Ðµ": 3383,
      "ĠÑģÐ¸Ð´ÐµÐ»": 3384,
      "ĠÑģÑĤÐµÐ¿": 3385,
      "Ð¸ÐµÐ¹": 3386,
      "ĠÑıÐ´ÐµÑĢ": 3387,
      "ĠÑĥÐ´Ð¾Ð²Ð¾Ð»ÑĮÑģÑĤÐ²Ð¸Ñı": 3388,
      "!Â»": 3389,
      "Ð¾Ð¿Ð°Ñģ": 3390,
      "ĠÐ´ÑĭÑħ": 3391,
      "ĠÐ¾Ð±Ð»Ð¸Ð·": 3392,
      "ÑģÑĤÐ²ÐµÐ½Ð½Ð¾Ð³Ð¾": 3393,
      "ĠÐ´Ð»Ð¸": 3394,
      "ĠÐŁÐ¾ÑĤÐ¾Ð¼Ñĥ": 3395,
      "ĠÑģÐ¿Ð¾ÑĢ": 3396,
      "ĠÑĤÐµÑĢÐ¿": 3397,
      "ĠÑģÐ¶Ð¸Ð¼": 3398,
      "ĠÑģÐµÐºÑĥÐ½Ð´Ñĥ": 3399,
      "ĠÐ´Ð¾Ð±ÑĢ": 3400,
      "ĠÐ±ÑĥÐºÐ²": 3401,
      "ĠÐ¾Ð¶Ð¸Ð´Ð°": 3402,
      "ĠÐ´ÑĭÑĢÐ¾Ñĩ": 3403,
      "ĠÐļÐ°ÑĢ": 3404,
      "ĠÐ¸Ð³ÑĢÐ°": 3405,
      "ĠÐºÐ¾Ð¼Ð½Ð°ÑĤÑĭ": 3406,
      "ĠÐ±ÐµÐ´ÑĢÐ°": 3407,
      "ĠÑĤÐ¾Ð»ÑģÑĤ": 3408,
      "ĠÐ°Ð¿Ð¿": 3409,
      "ĠÑĩÐ»ÐµÐ½Ð¾Ð¼": 3410,
      "ĠÑģÐ·Ð°Ð´Ð¸": 3411,
      "ĠÐ¼Ð°Ð¼Ñĭ": 3412,
      "ĠÐ²Ð¿ÐµÑĢÐ²ÑĭÐµ": 3413,
      "ĠÑĥÐ´ÐµÑĢÐ¶": 3414,
      "Ð²Ð¸Ð³": 3415,
      "ĠÑĤÐµÐ¼Ð¿ÐµÑĢ": 3416,
      "ĠÐ´ÑĢÐ¾Ð¶": 3417,
      "ĠÑģÐ´ÐµÑĢÐ¶": 3418,
      "ĠÑĥÐ²Ð¸Ð´ÐµÑĤÑĮ": 3419,
      "Ð¸Ð¾Ð½": 3420,
      "ĠÑĢÐ°Ð·Ð´ÐµÐ»": 3421,
      "Ð°ÑĤÐµÐ»ÐµÐ¹": 3422,
      "Ð°ÑĤÐ¸Ð²": 3423,
      "ĠÐ¿Ð¾Ð»ÑĥÑĩÐ¸ÑĤÑĮ": 3424,
      "ĠÑĥÑģÐ¿ÐµÐ»": 3425,
      "ĠÑĤÑĢÐ¸Ð´ÑĨ": 3426,
      "ĠÐ²Ð»Ð°Ð¶": 3427,
      "ĠÐĲÑĢÑĤÑĥÑĢ": 3428,
      "Ð¨ÐĲ": 3429,
      "ÑĢÐµÑģÑģ": 3430,
      "ĠÐ»Ð¸ÑĨÐ°": 3431,
      "ĠÑĥÑħÐ¾Ð´": 3432,
      "ĠÐ¿Ð¾Ð¶Ð°Ð»ÑĥÐ¹": 3433,
      "ĠÐ¼Ð¾Ð¶ÐµÑĪÑĮ": 3434,
      "ĠÑģÐµÐºÑĢÐµÑĤ": 3435,
      "Ð°Ð½ÑĤÐ°": 3436,
      "Ð¾Ð¿ÑĭÑĤ": 3437,
      "ĠÑģÑĤÐ¾ÑĢÐ¾Ð½": 3438,
      "Ð½ÑĥÐ¶": 3439,
      "ĠÐ³Ð°Ð»": 3440,
      "ĠÐ²Ð»Ð°ÑģÑĤÐ¸": 3441,
      "ĠÐ½Ð¾Ð²ÑĭÐ¹": 3442,
      "ĠÐ±Ð»Ð¸Ð¶": 3443,
      "ĠÐ¢ÐµÐ±": 3444,
      "ĠÑĨÐµÐ»Ð¸": 3445,
      "ÐµÑĢÐ¿": 3446,
      "ĠÐ²ÑĭÑĤÐ°Ñī": 3447,
      "Ð°ÑģÑĤÐ»Ð¸Ð²": 3448,
      "ĠÑģÑĤÐ¾Ð»ÑĮÐºÐ¾": 3449,
      "ĠÐ½Ð¾Ð¼": 3450,
      "ĠÐ·Ð°Ð¼ÐµÑĢ": 3451,
      "ĠÑģÐ¾ÑģÐº": 3452,
      "ĠÐ¤Ðµ": 3453,
      "Ð§ÑĤÐ¾": 3454,
      "Ð°Ð»Ñĭ": 3455,
      "ĠÐ±ÑĥÑĤ": 3456,
      "ÑĪÐ¸ÐµÑģÑı": 3457,
      "ĠÐ¡Ð¨ÐĲ": 3458,
      "ĠÑģÐ¾Ð·Ð´Ð°Ð²": 3459,
      "ĠÐ°ÐºÐºÑĥ": 3460,
      "ĠÐ°Ð³": 3461,
      "ĠÐ¸Ð·Ð¼": 3462,
      "ÑĢÐµÐ¼Ñı": 3463,
      "ĠÐ½ÐµÐ¾Ð¶Ð¸Ð´Ð°Ð½Ð½Ð¾": 3464,
      "Ð°Ð½Ð½ÑĭÑħ": 3465,
      "ĠÐ·Ð°Ð²Ð¸Ñģ": 3466,
      "ĠÐ·ÑĥÐ±": 3467,
      "ÑĪÐ°": 3468,
      "ĠÐĸÐµÐ½": 3469,
      "Ð»ÐµÑĢ": 3470,
      "Ð³Ð»Ð¸": 3471,
      "ĠÐ½ÐµÑģÐºÐ¾Ð»ÑĮ": 3472,
      "ĠÑĥÐ´Ð¾Ð²Ð»ÐµÑĤÐ²Ð¾ÑĢ": 3473,
      "Ð¾Ð¶Ð´ÐµÐ½Ð¸Ñı": 3474,
      "ĠÐŀÐ¿": 3475,
      "ĠÐ³Ð»ÑĥÐ±Ð¾Ðº": 3476,
      "ht": 3477,
      "ĠÑģÑĤÐµÐº": 3478,
      "ĠÐ²ÑĭÐ¶": 3479,
      "ĠÑĥÑĩÐµÐ½": 3480,
      "ĠÐµÐ´Ð¸": 3481,
      "ĠÐ¿Ð¾Ð´Ð±": 3482,
      "Ġcolor": 3483,
      "ÐµÐ»ÑģÑı": 3484,
      "ĠÑģÑĤÐ°ÑĢÑĥ": 3485,
      "ÐµÑĩÐµÑģÐº": 3486,
      "ĠÐ´ÐµÐ¹ÑģÑĤÐ²Ð¸Ñı": 3487,
      "ĠÐ¼ÐµÑĢ": 3488,
      "Ð¸Ð½Ð³": 3489,
      "ÑıÑīÐ¸Ð¹": 3490,
      "ĠA": 3491,
      "ĠÐºÐ¾Ðµ": 3492,
      "ĠÑģÐ¼Ð¾ÑĤÑĢÐµÐ»Ð°": 3493,
      "ÑĮÐµ": 3494,
      "ÐĿÐµ": 3495,
      "ĠÐºÐ°Ð±Ð¸Ð½": 3496,
      "ĠÑģÐ¸Ð»Ñĥ": 3497,
      "ĠÑģÐ¸Ð»Ð¾Ð¹": 3498,
      "ĠÐĲÐ½Ð´ÑĢ": 3499,
      "ĠÐ±ÑĥÐ¼": 3500,
      "Ð¢Ñĭ": 3501,
      "ĠÐ²ÑĭÐ²Ð¾Ð´": 3502,
      "ĠÑĤÐ²Ð¾Ð¹": 3503,
      "ÑĢÐ¾Ð·": 3504,
      "ÑĩÐ°Ð»Ð°": 3505,
      "ĠÑĪÐ»Ñİ": 3506,
      "ĠÐ¾ÐºÐ°Ð·Ð°Ð»Ð¾ÑģÑĮ": 3507,
      "ĠÑĢÐ¾Ð·": 3508,
      "ĠÐĴÐ°Ð»": 3509,
      "ĠÐ°ÑĤ": 3510,
      "ĠÐ¿ÑıÑĤÐ¸": 3511,
      "ĠÑĢÐ°Ð·ÑĢÐµÑĪ": 3512,
      "ĠÐ°ÑĤÐ°Ðº": 3513,
      "ĠÐĶÐ¾": 3514,
      "Ð¿Ð¾Ð´": 3515,
      "ĠÐ½ÐµÐ²ÐµÑĢÐ¾": 3516,
      "ĠÐ¿ÑĢÐ°ÐºÑĤÐ¸ÑĩÐµÑģÐºÐ¸": 3517,
      "ĠÐ¼Ð¸Ð½ÑĥÑĤÑĥ": 3518,
      "ĠÐĲÐ»": 3519,
      "ĠÐ¿Ð¾ÑģÑĤÐµÐ¿ÐµÐ½Ð½Ð¾": 3520,
      "ĠÐ²Ð½Ð¸Ð¼Ð°Ð½Ð¸Ñı": 3521,
      "ĠÐĿÐ°Ð²": 3522,
      "ĠÐ´Ð²ÑĥÐ¼": 3523,
      "ĠÐ³Ð»Ð°Ð²Ð½Ð¾Ðµ": 3524,
      "ĠÐ²Ð¾ÑģÐ¿ÑĢÐ¸": 3525,
      "ĠÐ·Ð°ÑıÐ²": 3526,
      "ÑĥÐ¶Ð´Ð°": 3527,
      "Ð»ÐµÐ½Ð°": 3528,
      "ĠÐ¾Ð±ÑĢÐ°ÑĤÐ½Ð¾": 3529,
      "ĠÐ´Ð²Ð¾ÑĢ": 3530,
      "ĠÐ¿ÐµÑĢÐµÐ±": 3531,
      "ĠÑģÐ¾ÑģÐºÐ¸": 3532,
      "ĠÐ¼ÐµÑħ": 3533,
      "ĠÐ²ÑĭÑĢ": 3534,
      "ÑĩÐ¸ÑģÐ»": 3535,
      "ĠÑĥÑĢÐ¾Ð²Ð½Ñı": 3536,
      "ĠÐ²ÐµÐ»Ð¸Ñĩ": 3537,
      "ĠÐ´Ð¾Ð»Ð»Ð°ÑĢÐ¾Ð²": 3538,
      "ĠÐ¾Ð±Ð¾ÑĢ": 3539,
      "ĠÐ²Ñĩ": 3540,
      "ĠÐ¼Ð°Ð½": 3541,
      "ĠÐ¼Ð°Ð¼Ð¸": 3542,
      "ĠÑĥÑģÑĤÐ°Ð½Ð¾Ð²": 3543,
      "ĠÐ´ÐµÐ²ÑĥÑĪÐºÐ¸": 3544,
      "ÑĥÐ»Ð¸": 3545,
      "ĠÐĹÐ´ÐµÑģÑĮ": 3546,
      "ĠÐ½ÐµÐ²Ð¾Ð·Ð¼Ð¾Ð¶Ð½Ð¾": 3547,
      "ĠÐ¾Ð±ÑħÐ²Ð°ÑĤ": 3548,
      "Ð½ÐµÐ·Ð°Ð¿": 3549,
      "Ð°Ð»Ð¾Ð²": 3550,
      "Ġm": 3551,
      "Ã¢": 3552,
      "ĠÑıÐ¹": 3553,
      "ĠÐĿÐ¸Ñĩ": 3554,
      "ÐµÐ½Ð¸ÑıÑħ": 3555,
      "ĠÐ¿Ð»Ð°ÑĤÑĮ": 3556,
      "ĠÑĩÑĥÐ²ÑģÑĤÐ²Ð¾Ð²Ð°Ð»": 3557,
      "ĠÐĴÐµÑĢ": 3558,
      "ÑĪÑĳÐ»": 3559,
      "ĠÐ¿Ð¾ÑĪÐ»Ð°": 3560,
      "ĠÐ²Ð¸Ð´Ñĥ": 3561,
      "ĠÐ¸ÑģÐ¿ÑĥÐ³": 3562,
      "Ð¾Ð²ÐµÑĢ": 3563,
      "Ð°ÑĤÐµÐ»Ð¸": 3564,
      "ĠÑĢÑĥÐºÐ¾Ð²Ð¾Ð´": 3565,
      "ĠÐ¿Ð¾Ð´Ð¾ÑĪÐµÐ»": 3566,
      "ĠÑģÐ»ÑĥÑĩÐ¸Ð»Ð¾ÑģÑĮ": 3567,
      "ĠÐ´Ð¾Ð³Ð°Ð´": 3568,
      "ĠÐ½Ð°ÑģÑĤÑĥÐ¿": 3569,
      "Ð´Ð°ÑĢ": 3570,
      "ÑĤÐ¾ÑĢÑĭ": 3571,
      "Ð¾Ð²ÑĭÑħ": 3572,
      "ĠÐ²ÐµÑĢÐ¾": 3573,
      "ĠÑĤÐ²ÐµÑĢÐ´": 3574,
      "ĠÑģÐ»Ð¾Ð²Ð°Ð¼Ð¸": 3575,
      "ĠÑĩÑĥÐ¶": 3576,
      "ĠÐ´Ð¾ÑĩÑĮ": 3577,
      "ĠÐ¸ÑĤ": 3578,
      "ĠÐ³ÑĢÑı": 3579,
      "Ð°Ð¼Ð¿": 3580,
      "ÑģÑĤÐ²ÐµÐ½Ð½Ð¾Ð¹": 3581,
      "ĠÐ¿ÑĢÐµÐ²ÑĢÐ°ÑĤ": 3582,
      "Ð°Ð´Ð¸Ð¼": 3583,
      "ĠÐ´ÐµÑĤÐµÐ¹": 3584,
      "ĠÐ¿Ð¾ÑĪÐµÐ»": 3585,
      "ĠÐ²Ð·Ð°": 3586,
      "ĠÐ§ÑĤÐ¾Ð±Ñĭ": 3587,
      "ĠÐ¿Ð¾ÑħÐ¾Ð¶Ðµ": 3588,
      "ÑĢÐ°Ð»Ð¸": 3589,
      "ĠÐ¾Ð±ÐµÑī": 3590,
      "ĠÐļÐ°ÑĤÑı": 3591,
      "ĠÐ¾ÑĩÐµÑĢÐµÐ´ÑĮ": 3592,
      "ĠÐľÐ¾": 3593,
      "ĠÐ¿Ð»ÐµÐ¼": 3594,
      "Ð»ÑıÐµÑĤ": 3595,
      "ÐµÑĪÐ½Ð¾": 3596,
      "ĠÑĢÐ¾ÑģÑĤ": 3597,
      "ĠÐ´Ð¾ÑģÑĤÐ°Ð²": 3598,
      "Ð¾Ð²Ð°ÑĤÑĮÑģÑı": 3599,
      "ĠÑĢÐµÐ³": 3600,
      "ĠÐºÐ¾Ð¼Ñĥ": 3601,
      "ĠÐ±Ñĥ": 3602,
      "Ð½Ð¸Ñİ": 3603,
      "ĠÐ»Ð¾Ð³": 3604,
      "ĠÐĴÑģÑĳ": 3605,
      "ĠÐ²Ð¾Ð¹Ð½Ñĭ": 3606,
      "Ð¾ÑĢÑĥÐ¶": 3607,
      "Ð½Ð¸ÐºÑĥ": 3608,
      "ĠÐĴÐ·": 3609,
      "Ð¸Ð½ÑĥÐ²": 3610,
      "Ð²ÐµÑĢÑģ": 3611,
      "ĠÑĢÐ¾Ð±Ð¾ÑĤ": 3612,
      "ĠÑĤÐ°ÐºÐ¾Ð¼": 3613,
      "ĠÑĢÑĥÑģ": 3614,
      "ĠÐ½Ð°Ð¸Ð±": 3615,
      "ĠÑįÐ½ÐµÑĢÐ³Ð¸Ð¸": 3616,
      "ÐµÐ½Ñģ": 3617,
      "ĠÐ°Ð´": 3618,
      "ĠÑįÐºÐ¾Ð½Ð¾Ð¼": 3619,
      "ĠÐ¾Ð´Ð½Ð°ÐºÐ¾": 3620,
      "ĠÐ¼ÑĭÑģÐ»": 3621,
      "Ð°Ð°": 3622,
      "ĠÐºÐ¾Ð½ÐµÑĨ": 3623,
      "ĠÐŀÐ»ÑĮ": 3624,
      "ĠÐ¿Ð¾Ð¹Ð´": 3625,
      "ĠÐĽÐµÐ½Ð°": 3626,
      "ĠÐ´ÐµÐ²Ð¾ÑĩÐºÐ¸": 3627,
      "ÑİÑīÐ¸Ñħ": 3628,
      "âĢĵâī¤âĢĶ": 3629,
      "Ð¸Ð½ÑģÑĤÐ²Ð¾": 3630,
      "ÑĭÐ³": 3631,
      "ĠÐ¿Ð°Ð¿Ð°": 3632,
      "ĠÐ½Ð°Ð·Ð²": 3633,
      "ĠÐ´Ð°ÑĤÑĮ": 3634,
      "ÑĤÑĥÑĢÐ°": 3635,
      "ĠÐ²Ð¾Ð·Ð´": 3636,
      "ĠÑĢÐ°Ð±Ð¾Ñĩ": 3637,
      "Ð°ÐºÐ°": 3638,
      "ĠÑĢÐ°ÑģÑģÐ»Ð°Ð±": 3639,
      "ĠÑĥÐ»ÑĭÐ±Ð½ÑĥÐ»Ð°ÑģÑĮ": 3640,
      "ĠÐ¼ÐµÑĩÑĤ": 3641,
      "ĠÐ·Ð°ÑħÐ¾ÑĤ": 3642,
      "ĠÑģÐ¿Ð¾ÐºÐ¾Ð¹Ð½Ð¾": 3643,
      "Ð¾Ð»Ð³Ð¾": 3644,
      "ĠÐ¿Ð¾Ð¼Ð¾ÑīÑĮÑİ": 3645,
      "Ð¾ÑĢÐ³": 3646,
      "Ð°Ð»ÑĮÐ½ÑĥÑİ": 3647,
      "ĠÐ»ÑİÐ±Ð»Ñİ": 3648,
      "Ð¸ÑĢÐ¾Ð²Ð°Ð»": 3649,
      "ĠÐ¼Ð¸ÑĢÐ¾Ð²": 3650,
      "ĠÑģÐ¾ÑģÑĤÐ°Ð²": 3651,
      "Ð¾ÑĢÑĭ": 3652,
      "ĠÐŁÐµÑĤ": 3653,
      "ĠÐ¾Ð´ÐµÐ¶": 3654,
      "ĠÐŃÑĤÐ¾ÑĤ": 3655,
      "ĠÐ¾Ð±ÐµÑģÐ¿ÐµÑĩ": 3656,
      "ĠÑĤÑĢÐ¾": 3657,
      "ĠÐŁÑĢÐ°Ð²Ð´Ð°": 3658,
      "ĠÐ¼Ð¸Ðº": 3659,
      "Ð½Ð¸ÑĨÐµ": 3660,
      "ĠÐ¸Ð½Ð´Ð¸Ð²": 3661,
      "Ð¸ÑĩÐµÑģÐºÐ°Ñı": 3662,
      "Ð¸Ð»ÐµÑĤ": 3663,
      "ĠÐ´ÑĢÑĥÐ³Ð¸Ð¼": 3664,
      "ĠÐ¿ÑĢÐ¾Ð¸Ð·Ð½ÐµÑģ": 3665,
      "ĠÐ¸Ð·Ð¾Ð±ÑĢÐµÑĤ": 3666,
      "ĠÑģÑĤÑĥÐ¿": 3667,
      "ĠÑįÐ»ÐµÐ¼": 3668,
      "ĠÐ³ÑĢÐ°Ð½Ð¸": 3669,
      "ĠÐ½ÐµÐ¾Ð±Ñĭ": 3670,
      "Ð¾ÑģÑĤÐ°Ð²": 3671,
      "ĠÐ½Ð°ÑĪÐ°": 3672,
      "Ð¾Ð»Ð¾Ð²": 3673,
      "Ð¸Ð²Ð°ÑİÑĤ": 3674,
      "ĠÐŁÐ°ÑĢ": 3675,
      "ÑĤÐ¾ÑĢÐ¸Ð¸": 3676,
      "ĠÐ¿ÐµÑĢÐ²Ð¾Ð³Ð¾": 3677,
      "ĠÐ·Ð²ÐµÐ·Ð´": 3678,
      "Ð°Ð¶Ñĥ": 3679,
      "ĠÐ±ÐµÑģÐº": 3680,
      "ĠÐ²ÑĭÑģÐº": 3681,
      "ĠÐ²Ð·ÑıÑĤÑĮ": 3682,
      "ĠÐ¾Ð´Ð½Ð¾Ð¼": 3683,
      "ĠÐ»ÐµÐ¶Ð°Ð»Ð°": 3684,
      "ÑģÑĤÑĢÐµÐ»": 3685,
      "Ð¼Ð°Ñħ": 3686,
      "ÑĪÐµÐ¼": 3687,
      "Ð½Ð¸ÑĩÐµÑģÐº": 3688,
      "ĠÐ³Ð»ÑĥÐ±Ð¶Ðµ": 3689,
      "ĠÑĤÑĢÐ°Ð½": 3690,
      "ĠÐ´ÐµÐ½ÐµÐ³": 3691,
      "ĠÑĦÐ¾ÑĤ": 3692,
      "ÐµÐ¶Ð°Ð»": 3693,
      "ĠÐ²Ð·ÑĢÑĭÐ²": 3694,
      "ĠÐ¿Ð»Ð°ÑĤ": 3695,
      "ĠÑĪÑĥÐ¼": 3696,
      "ÐŃÑĤÐ¾": 3697,
      "ĠÐľÐ°ÑĢÐ¸Ð½Ð°": 3698,
      "ĠÐ·Ð°Ð¿Ð°Ñħ": 3699,
      "ĠÑĢÐ°Ð·Ð²ÐµÑĢ": 3700,
      "ĠÐ´ÐµÐ»Ð°ÐµÑĤ": 3701,
      "ĠÐ¿ÑĢÐ¸Ð´ÑĥÐ¼": 3702,
      "ĠÐ²Ðµ": 3703,
      "Ð´ÑĢÑĥÐ³": 3704,
      "âĢĵÂ¥âĢĶ": 3705,
      "Ð¾Ð³Ðµ": 3706,
      "ĠÐľÐ¸ÑĪ": 3707,
      "ĠÐ´ÑĥÐ¼Ð°ÑĤÑĮ": 3708,
      "ĠÑĤÐ°ÐºÑĥÑİ": 3709,
      "ĠÐ¿Ð¾Ð²Ð¾Ð´": 3710,
      "ĠÑģÐ¾ÑģÑĤÐ¾ÑıÐ½Ð¸Ð¸": 3711,
      "ĠÐ¿ÑĢÐ¸Ð¿Ð¾Ð´Ð½Ñı": 3712,
      "ĠÐ¿ÑĢÐµÑģÑĤ": 3713,
      "ĠÐ²ÑĭÐ´": 3714,
      "ÑħÐ¾Ð¶": 3715,
      "].": 3716,
      "Ġ17": 3717,
      "ĠÐºÐ°Ð¿Ð¸ÑĤ": 3718,
      "ÑĥÐ¶Ðµ": 3719,
      "ĠÐ¿Ð¾Ð´Ð¾Ð·": 3720,
      "ĠÐ¸Ð³ÑĢÑĭ": 3721,
      "ĠÐ¾ÑĤÐºÑĢÑĭÐ»": 3722,
      "ÑģÑİ": 3723,
      "ĠÐ¿ÑĢÐ¾ÑĪÐ»Ð¾": 3724,
      "ĠÑģÐ²ÑıÐ·Ð¸": 3725,
      "ĠÐ½ÐµÐ½Ð°Ð²": 3726,
      "ĠÐ¿ÑĢÐ¸Ð¼ÐµÑĢÐ½Ð¾": 3727,
      "ĠÑĩÐµÐ¼Ñĥ": 3728,
      "ĠÐ¸Ð½ÑĤÐµÑĢ": 3729,
      "ĠÐ¿Ð¾Ð¹Ð¼": 3730,
      "ĠM": 3731,
      "ĠÐ¾ÐºÐ°Ð·Ð°Ð»Ð°ÑģÑĮ": 3732,
      "ĠÐ·Ð°ÑģÑĤÐ¾Ð½": 3733,
      "ÑĳÐ³": 3734,
      "Ð¸Ð´Ñĥ": 3735,
      "ĠÐ²Ð¾ÑĪÐµÐ»": 3736,
      "ĠÐ¿ÑĢÐ¸Ð´ÐµÑĤÑģÑı": 3737,
      "Ð½ÐµÐ½Ð¸Ðµ": 3738,
      "ĠÐ¿ÑĢÐµÐ¿": 3739,
      "ĠÐ¿ÐµÑĢÐµÑģ": 3740,
      "ĠÐŁÑĢÐ¾ÑģÑĤÐ¾": 3741,
      "ÑĪÑĤ": 3742,
      "ĠÐ¾Ð±ÑĥÑĩ": 3743,
      "ĠÐºÐ¾ÑĢÐ¸Ð´": 3744,
      "Ð¾Ð²Ð°ÑĤÐµÐ»ÑĮ": 3745,
      "ĠÑģÐ¼Ð¾Ð¶": 3746,
      "ĠÑĢÐµÐ¼": 3747,
      "ĠÑĢÐµÐ»Ð¸": 3748,
      "ĠÐŁÐ°Ð¿": 3749,
      "ĠÐ·Ð²Ñĥ": 3750,
      "ÐµÐ»Ð¸ÑģÑĮ": 3751,
      "ĠÐ®Ð»Ñı": 3752,
      "ĠÑĤÑıÐ¶ÐµÐ»": 3753,
      "ĠÑģÐ¿ÑĢÐ°ÑĪ": 3754,
      "ÑıÑĤÐ¸Ñı": 3755,
      "ĠÐ¾ÑģÑĤÑĢÐ¾Ð²": 3756,
      "ĠÐ¾ÐºÐ°Ð·ÑĭÐ²": 3757,
      "ĠÐ±ÐµÑĢÐµÐ³": 3758,
      "ĠÑĪÐµÑģÑĤÑĮ": 3759,
      "ĠÑģÐ¼Ð°Ð·": 3760,
      "ĠÐľÐ¾Ñı": 3761,
      "ÑĳÐ´": 3762,
      "ĠÑĥÐ²ÐµÑĢÐµÐ½": 3763,
      "Ð¡Ð¡Ðł": 3764,
      "Ġ...": 3765,
      "ÑĢÑĭÐ·": 3766,
      "ĠÑģÑĤÐ²Ð¾Ð»": 3767,
      "ÑĪÐµÐ¼Ñĥ": 3768,
      "ĠÑĢÐ°ÑģÑģÑĤÐµÐ³": 3769,
      "ĠÐ½Ð°ÑĩÐ¸Ð½": 3770,
      "Ð¼Ð¾Ð¼": 3771,
      "ĠÐºÐ°ÐºÑĥÑİ": 3772,
      "ĠÑģÑĦ": 3773,
      "ĠÐ¼Ð¾Ð·Ð³": 3774,
      "Ġw": 3775,
      "ic": 3776,
      "ĠÐ¡Ð¡Ð¡Ðł": 3777,
      "ĠÐ´Ð¾ÑģÑĤÑĥÐ¿": 3778,
      "ĠÐ±Ð¾Ð³Ð°ÑĤ": 3779,
      "ĠÐ¾Ð¶Ð¸Ð´": 3780,
      "ĠÑĤÑĢÐµÑħ": 3781,
      "ÑĤÐ¸Ð¹": 3782,
      "ĠÐ²Ð¾Ð·Ð¼Ð¾Ð¶Ð½Ð¾ÑģÑĤÐ¸": 3783,
      "ĠÐ½Ð°ÑĪÐµ": 3784,
      "ĠÐ±ÐµÐ·Ð¾Ð¿Ð°Ñģ": 3785,
      "ĠÑĢÐµÐ±ÐµÐ½": 3786,
      "ĠÑģÐ¼ÑĭÑģÐ»Ðµ": 3787,
      "Ð¾Ð³Ð°": 3788,
      "ĠÐ¶Ð¾Ð¿": 3789,
      "ĠÐ¿Ð¾Ð»Ð°Ð³": 3790,
      "ĠÑĢÑĥÑĩ": 3791,
      "ĠÐ²Ð¾ÑģÑħ": 3792,
      "ĠÐ¾ÑīÑĥÑĤ": 3793,
      "Ð°Ð±Ð°ÑĤ": 3794,
      "ĠÐ¾ÑĤÑģÑĥÑĤ": 3795,
      "ĠÐ½Ð°ÑģÐºÐ¾Ð»ÑĮÐºÐ¾": 3796,
      "ĠÐ´ÐµÐ»Ð°Ð»": 3797,
      "ĠÐ¿ÑĢÐ¸Ð±Ð»Ð¸Ð¶": 3798,
      "ĠÐ²Ð°ÑĢÐ¸": 3799,
      "ĠÑģÑĩÐ°ÑģÑĤÐ»Ð¸Ð²": 3800,
      "ĠÑģÐ¿Ð°Ð»ÑĮ": 3801,
      "ĠÐºÐ¸Ð»Ð¾Ð¼ÐµÑĤÑĢÐ¾Ð²": 3802,
      "Ð»Ð°ÑĪ": 3803,
      "ĠÐ¿Ð¾Ð´Ð¾ÑĪÐ»Ð°": 3804,
      "ĠÑıÐ³Ð¾Ð´Ð¸ÑĨÑĭ": 3805,
      "Ð¸Ð½ÐºÑĥ": 3806,
      "ÐµÐ»Ð°ÑģÑĮ": 3807,
      "ĠÐłÐ°Ñģ": 3808,
      "Ð°ÑĤÐ¾ÑĢ": 3809,
      "ĠÐ´ÑĢÑĥÐ³Ð¾Ðµ": 3810,
      "ĠÐ½Ð°ÑģÐµÐ»": 3811,
      "ĠÑģÐ¾ÑģÐ°ÑĤÑĮ": 3812,
      "ĠâĢĵÂ¥âĢĵ": 3813,
      "ĠÐĺÑħ": 3814,
      "ĠÑģÑĤÑĢÐ°ÑģÑĤ": 3815,
      "ĠÐ²ÑģÐºÐ¾ÑĢÐµ": 3816,
      "ĠÑģÐ»ÐµÐ´ÑĥÑİÑīÐ¸Ð¹": 3817,
      "ĠÑģÐµÑĢÐ´ÑĨÐµ": 3818,
      "ĠÐŁÐ¾Ð¼": 3819,
      "ÐºÐ½ÑĥÐ»Ð°": 3820,
      "Ð°Ð´ÑĨÐ°ÑĤÐ¸": 3821,
      "ĠâĢĵÂ±": 3822,
      "Ð°Ð½Ð½Ð°Ñı": 3823,
      "ĠÐ¡ÑĤÐ¾": 3824,
      "ĠÐ´ÐµÐ¹": 3825,
      "ĠÐ¿Ð¾Ð·Ð½Ð°": 3826,
      "ĠÐ¿ÑĢÐ¸ÑĪÐ»Ð°": 3827,
      "ĠÑģÐ¼ÐµÑĢÑĤÐ¸": 3828,
      "ĠÐ·Ð¾Ð»Ð¾ÑĤ": 3829,
      "ĠÐ·Ð°ÑħÐ²Ð°ÑĤ": 3830,
      "ÑĥÐ»ÑĮÑģ": 3831,
      "el": 3832,
      "ÐºÐ¾ÑģÑĤÑĮ": 3833,
      "ĠÐ´ÑĥÑĢ": 3834,
      "Ð¾ÑĤÑĥ": 3835,
      "ĠÐŃÐ¹Ð»Ð¸Ð½": 3836,
      "ĠÑĥÐ±ÐµÐ´": 3837,
      ".\"": 3838,
      "ĠÐ¶Ð¸Ð·Ð½": 3839,
      "ĠÐ²Ð¾Ð·Ð±ÑĥÐ´": 3840,
      "ĠÐ¸Ð´Ð¸": 3841,
      "ĠP": 3842,
      "ĠÐ½ÐµÐ³": 3843,
      "Ð¾Ð´Ñĭ": 3844,
      "ĠÐ²Ð¸Ð´ÐµÐ»Ð°": 3845,
      "ÑĥÑĪÐºÐ¸": 3846,
      "ĠÑĥÑĢÐ¾Ðº": 3847,
      "Ð°Ð¶Ð¸": 3848,
      "ĠÑģÐ¾Ð·Ð´Ð°ÑĤÑĮ": 3849,
      "ĠÐ¿Ð¾Ð²ÐµÐ´": 3850,
      "ĠÐ´ÑĢÑĥÐ¶": 3851,
      "ĠÑģÐºÐ»Ð°Ð´": 3852,
      "ĠÑĥÐ´Ð¾Ð±": 3853,
      "ÑģÑĤÐ²ÐµÐ½Ð½ÑĭÐ¼": 3854,
      "ĠÑģÑĩÐµÑĤ": 3855,
      "ĠÐ²Ð·Ð³Ð»ÑıÐ´Ð¾Ð¼": 3856,
      "Ġ14": 3857,
      "ĠÐºÐ¾Ð»Ð¸ÑĩÐµÑģÑĤÐ²Ð¾": 3858,
      "ÐµÐ½Ð¸ÑıÐ¼Ð¸": 3859,
      "ĠÑĤÑĥÐ¿": 3860,
      "ĠÑĤÐ¾Ð²Ð°ÑĢ": 3861,
      "ĠÐ¿ÐµÑĢÐ¸": 3862,
      "ĠÐ¿ÑĢÐ¾ÑĪÐµÐ¿ÑĤ": 3863,
      "ĠÐ·Ð½Ð°Ð»Ð°": 3864,
      "ÐµÐ¶Ð°ÑĤÑĮ": 3865,
      "ĠÐ¿Ð¾Ð´ÑĤ": 3866,
      "Ð°Ð²Ð½Ð¾": 3867,
      "Ð¸ÐºÐ°Ð½": 3868,
      "ĠÐ¾Ð±Ð»Ð°ÑģÑĤÐ¸": 3869,
      "ĠÑģÑĥÑī": 3870,
      "ĠÐ¶ÐµÐ»ÐµÐ·": 3871,
      "ĠÐ¾ÑĢÐ³Ð°Ð·Ð¼Ð°": 3872,
      "ĠÐ¿Ð¾ÑģÑĢÐµÐ´": 3873,
      "ĠÐ±Ð°Ð»": 3874,
      "ĠÐ¿Ð¾Ð³Ð¾Ð²Ð¾ÑĢ": 3875,
      "ĠÐ²ÑģÐµÐ¼Ð¸": 3876,
      "ĠÑģÐºÑĢÑĭÐ²": 3877,
      "ĠÑģÐ¸ÑģÑĤÐµÐ¼Ð°": 3878,
      "Ġb": 3879,
      "ĠÐ½ÐµÐºÐ¾ÑĤÐ¾ÑĢÑĭÐµ": 3880,
      "ĠÑģÑĬ": 3881,
      "ĠÐ½ÐµÑģÐ¼": 3882,
      "ÐĿÐµÑĤ": 3883,
      "ĠÐ¿Ð¾ÑģÐ»ÐµÐ´Ð½Ð¸Ðµ": 3884,
      "ĠÐºÑĢÐµÐ¿ÐºÐ¾": 3885,
      "ĠÐ²Ð¾ÑģÐº": 3886,
      "ĠÐ´ÑĢÑĥÐ³Ñĥ": 3887,
      "ÐµÐ²Ð¸Ñĩ": 3888,
      "ĠÑģÐ¸Ð½": 3889,
      "ĠÑģÑĥÑīÐµÑģÑĤÐ²ÑĥÐµÑĤ": 3890,
      "Ð¾ÑĩÐµÐº": 3891,
      "ĠÐ²Ð·ÑĢÐ¾ÑģÐ»": 3892,
      "ÑģÑĤÑĭ": 3893,
      "ĠÐ¿Ð¾Ð»Ð¾Ð¶Ð¸Ð»": 3894,
      "ĠÐ´Ð¾ÑĩÐµÑĢÐ¸": 3895,
      "ĠÐ½Ð¾Ð²ÑĭÑħ": 3896,
      "10": 3897,
      "ĠÑĤÐ¸Ð¿Ð°": 3898,
      "ĠÐĺÑĢÐ¸": 3899,
      "Ð¾ÑģÐ½Ð¾Ð²": 3900,
      "ÑĩÐ¸ÐºÐ¸": 3901,
      "ĠÐ¼ÐµÑĤÑĢÐ¾Ð²": 3902,
      "Ð¾ÑĢÐ¾Ð¼": 3903,
      "ĠÑģÐ»ÐµÐ·": 3904,
      "ĠÐ¿Ð¾ÑĤÐ¾Ðº": 3905,
      "ĠÐ¾ÑĨÐµÐ½": 3906,
      "ĠÐ´ÑĭÑĪ": 3907,
      "ĠÐ¿ÑĢÐ¸ÑĪÐµÐ»": 3908,
      "ĠÐ½Ð¾Ð³Ð°Ð¼Ð¸": 3909,
      "ĠÐ¶Ð¸Ð´": 3910,
      "ĠÐ¿Ð¾ÑģÐ¼Ð¾ÑĤÑĢÐµÑĤÑĮ": 3911,
      "ĠÑĤÐµÐ¼Ð½Ð¾": 3912,
      "ĠÐ²Ð·Ð°Ð¸Ð¼": 3913,
      "ÑĩÐ°": 3914,
      "ĠÐ¿Ð¾Ð¸ÑģÐº": 3915,
      "ĠÐºÐ°ÑĢÑĤÐ¸": 3916,
      "Ð´ÑĢÐ°Ð²": 3917,
      "ĠÐ¾Ð±Ð°": 3918,
      "ĠÐ¶ÐµÐ»Ð°Ð½Ð¸Ðµ": 3919,
      "ĠÐ»ÐµÐ³Ð»Ð°": 3920,
      "ĠâĢĵâĪĳ": 3921,
      "ĠÐ·ÑĢÐµÐ½Ð¸Ñı": 3922,
      "am": 3923,
      "ÐµÐµÑĤÑģÑı": 3924,
      "ĠÑĪÐ°ÑĢ": 3925,
      "ĠÑģÐ¼Ð¾Ð¶ÐµÑĤ": 3926,
      "ĠÐĳÐµÑĢ": 3927,
      "ĠÐ·Ð°Ð²ÑĤÑĢÐ°": 3928,
      "ĠÐ¿ÑĭÑĤÐ°ÑıÑģÑĮ": 3929,
      "ÑĥÐ±Ð»Ð¸": 3930,
      "ĠÐ´ÑĢÑĥÐ³Ð¾Ð³Ð¾": 3931,
      "ĠÐ½Ð¸ÐºÐ¾Ð³Ð¾": 3932,
      "ĠÐ¡Ð¾": 3933,
      "ĠÐ¿ÑĢÐ¸ÑģÑĥÑĤ": 3934,
      "Ð¾Ð½Ñĥ": 3935,
      "ĠÐ³Ð¸Ð±": 3936,
      "ĠÑĤÑĢÐ°Ð³": 3937,
      "ĠÐ·Ð°Ð¹": 3938,
      "ĠÐ²ÑĭÑģÑĤÑĥÐ¿": 3939,
      "ĠÐ²Ð¿ÐµÑĩÐ°ÑĤ": 3940,
      "Ð´ÑĥÑī": 3941,
      "ÑĥÑģÑĤÐ¸Ð»": 3942,
      "ĠÑģÐµÐ»Ð°": 3943,
      "ĠÐ¾ÑĤÐ´ÑĭÑħ": 3944,
      "ĠÐ³ÑĥÐ±ÐºÐ¸": 3945,
      "ĠÐ±ÑĥÐºÐ²Ð°Ð»ÑĮÐ½Ð¾": 3946,
      "ĠÐ½ÐµÐ¾Ð±ÑħÐ¾Ð´Ð¸Ð¼Ð¾": 3947,
      "ĠÐºÐ¸Ð²Ð½ÑĥÐ»": 3948,
      "Ð¸Ð²Ð¾": 3949,
      "ĠÑĪÑĥÑĤ": 3950,
      "ĠÑĤÐ¾ÑĩÐºÐ¸": 3951,
      "Ð½Ð°Ð¼": 3952,
      "ĠÐŀÑģÑĤ": 3953,
      "ĠÑĥÑģÐ¿ÐµÑħ": 3954,
      "ĠÐ±ÑĢÐ°ÑĤÐ°": 3955,
      "Ð¾ÑĤÐº": 3956,
      "ĠÑĨÐµÐ½ÑĤÑĢ": 3957,
      "Ð°Ð½Ð½Ð¾Ðµ": 3958,
      "ÐºÐ°Ðº": 3959,
      "ĠÐ±Ð¾Ð»ÑĮÑĪÐ¸Ðµ": 3960,
      "ĠÐ¸ÑģÑĤÐ¾Ñĩ": 3961,
      "ĠÑģÐ²Ð¾Ñĳ": 3962,
      "ĠÐ½Ð°Ð¹Ð´": 3963,
      "ĠÐºÐµÐ¼": 3964,
      "ĠÐ¼Ð¸Ð¼Ð¾": 3965,
      "ĠÑīÐµÐ»": 3966,
      "ĠÐ½ÐµÐºÐ¾ÑĤÐ¾ÑĢÐ¾Ðµ": 3967,
      "ĠÐ¶Ð´Ð°ÑĤÑĮ": 3968,
      "ĠÐ½Ð¸ÐºÐ°ÐºÐ¾Ð³Ð¾": 3969,
      "Ð¸Ð²Ð°Ñİ": 3970,
      "ĠÐ¼Ð¾Ð³Ð»Ð¾": 3971,
      "ĠÑĢÐ°ÑģÑģÐ¼Ð°ÑĤÑĢ": 3972,
      "ĠÐ¿Ð¾Ð´Ð¿": 3973,
      "ĠÐ¾ÑĤÐºÑĢÑĭÑĤ": 3974,
      "ĠÑĤÐ²Ð¾Ñı": 3975,
      "ÐµÐ¼ÑĮ": 3976,
      "ĠÐ£Ð¶Ðµ": 3977,
      "ĠÐŃÑĤÐ°": 3978,
      "ĠÐºÐ¾ÑĢÐ°Ð±Ð»Ð¸": 3979,
      "ĠÐ¼Ð°Ð»ÐµÐ½ÑĮÐºÐ¸Ð¹": 3980,
      "ĠÐ³Ð¾ÑģÐ¿Ð¾Ð´": 3981,
      "ĠÑĥÑģÐºÐ¾ÑĢ": 3982,
      "ÑĭÐ²Ð°ÑİÑĤ": 3983,
      "ĠÐ¿Ð¾Ð¿Ð°Ð´": 3984,
      "ĠÐ»Ð°ÑģÐºÐ°ÑĤÑĮ": 3985,
      "ÐµÐ½Ð½Ð¾Ð¼": 3986,
      "ĠÐ¾ÑĤÐºÑĥÐ´Ð°": 3987,
      "ĠÑĥÐ¼ÐµÑĢ": 3988,
      "ĠÐ±ÑĢÑİ": 3989,
      "ÐµÐ´Ð»ÐµÐ½Ð½Ð¾": 3990,
      "Ð¾Ð±Ð¾ÑĢÐ¾ÑĤ": 3991,
      "ĠÐ¿ÐµÑĢÐµÐ³": 3992,
      "ĠÐ¿Ð¾Ð½Ð¸Ð¼Ð°Ð»": 3993,
      "ĠÐ¿Ð¾Ð¼Ð¾ÑĩÑĮ": 3994,
      "ĠÐºÐ°Ð½": 3995,
      "ĠÐ¾ÑģÑĤÐ°Ð»Ð¾ÑģÑĮ": 3996,
      "ĠÐºÑĢÐ°Ð¹Ð½ÐµÐ¹": 3997,
      "ĠÐ´ÑĥÑĪÐ¸": 3998,
      "ÐµÐ»Ðµ": 3999,
      "Ð¾ÑĢÑĥ": 4000,
      "Ð½Ð¸Ð²": 4001,
      "ĠÑĤÑĥÐ°Ð»": 4002,
      "ĠÐ¼Ð½Ð¾Ð³Ð¸Ñħ": 4003,
      "ĠÑĤÑĢÑĥÐ´Ð¾Ð¼": 4004,
      "ĠÐ¼Ð°ÐºÑģÐ¸Ð¼": 4005,
      "ĠÑĥÑģÐ¿Ð¾ÐºÐ¾": 4006,
      "ĠÐ°Ð±ÑģÐ¾Ð»ÑİÑĤÐ½Ð¾": 4007,
      "Ġf": 4008,
      "Ġ13": 4009,
      "Ð¾Ð²ÑĭÐ¹": 4010,
      "ĠÐ²Ð¾ÑģÐ¿Ð¸ÑĤ": 4011,
      "Ð¸Ð½ÐºÐ¸": 4012,
      "ĠÑįÐºÑģÐ¿ÐµÑĢ": 4013,
      "ĠÐ¿ÑĢÐ¾ÑĢ": 4014,
      "ĠâĢľ": 4015,
      "ĠÐ²Ð¼ÐµÑģÑĤÐ¾": 4016,
      "ĠÐ¼Ð°ÑĪÐ¸Ð½Ñĭ": 4017,
      "?Â»": 4018,
      "ĠÐ²Ð°Ð¼Ð¸": 4019,
      "Ð¸Ð²Ð°Ð»ÑģÑı": 4020,
      ".).": 4021,
      "ĠÐ¿Ð¾ÑıÑģ": 4022,
      "ĠÑĥÑĢÐ¾Ð²ÐµÐ½ÑĮ": 4023,
      "19": 4024,
      "et": 4025,
      "Ð½Ð¸ÐµÐ¼": 4026,
      "ĠÐ¿ÑĢÐ¸Ð²ÑĭÐº": 4027,
      "ĠÐ²Ð»Ð°Ð´": 4028,
      "ÐµÑģÐ½Ñı": 4029,
      "ÐµÑĤÐ¾": 4030,
      "ĠÐ±Ð¾Ð»ÑĮÑĪÐ¸Ð¼": 4031,
      "ĠÐ¼ÑĥÑĩ": 4032,
      "ĠÑĥÑģÑĤÐ°Ð²": 4033,
      "ÑģÑĤÑĮÑİ": 4034,
      "ĠÑĪÐµÑģÑĤ": 4035,
      "ĠÐ»ÑİÐ±Ð²Ð¸": 4036,
      "ĠÐ¸ÑģÐ¿Ð¾Ð»": 4037,
      "ÑĤÐ¾ÑĢÐ¾Ð²": 4038,
      "as": 4039,
      "ĠÐ±Ð¾Ð»ÐµÐ·": 4040,
      "ĠÑĥÐ²Ð¸Ð´ÐµÐ»Ð°": 4041,
      "ÑĭÐ»Ð°": 4042,
      "ĠÐ¾Ð³ÑĢÐ°Ð½Ð¸Ñĩ": 4043,
      "ĠÑĪÑĤ": 4044,
      "ĠÐ¿ÑĢÐ¾ÑĪÐ»": 4045,
      "ĠÐľÐ¾Ð¶Ð½Ð¾": 4046,
      "ĠÐ¼Ð¸Ð½Ð¸Ð¼": 4047,
      "ÑĪÐ¸Ð¼Ð¸": 4048,
      "ĠÐ²ÑĭÐ³Ð»Ñı": 4049,
      "ĠÑĨÐµÐ½": 4050,
      "ĠÐ¿ÐµÑĢÐ²Ð¾Ð¹": 4051,
      "ĠÐ´Ð²Ð¸Ð¶ÐµÐ½Ð¸Ðµ": 4052,
      "ĠÐºÑĥÑģ": 4053,
      "ĠÑĤÑĢÐ°Ð²": 4054,
      "ĠÑĤÐµÑĢÐ¼": 4055,
      "ĠÑĥÑģÑĤÑĢÐ¾Ð¹": 4056,
      "Ð°ÐºÐ¸": 4057,
      "ĠÑĩÑĥÐ²ÑģÑĤÐ²Ð°": 4058,
      "ĠÐ¿ÑĭÑĤÐ°Ð»ÑģÑı": 4059,
      "ĠÑĤÐµÐ»Ð¾Ð¼": 4060,
      "ĠÑĥÑģÐ»ÑĭÑĪÐ°Ð»": 4061,
      "ĠÐŀÑĩÐµÐ½ÑĮ": 4062,
      "ĠÑģÐ¾Ð´ÐµÑĢÐ¶": 4063,
      "ĠÐ§ÐµÐ»Ð¾Ð²": 4064,
      "Ð²Ð¸Ð¶": 4065,
      "ĠÑĥÑħ": 4066,
      "ĠÐ¿ÐµÑĩ": 4067,
      "ĠÐ³Ð¾Ð´Ñĭ": 4068,
      "ĠÐ½ÐµÐ¼ÐµÑĨ": 4069,
      "ÑĢÐµÐ¹": 4070,
      "ĠÐ¼ÑĥÐ´": 4071,
      "Ð¾Ð¿Ð¾Ð»Ð¾Ð¶": 4072,
      "ĠÐ¿Ð¸Ð·Ð´Ñĥ": 4073,
      "ĠÐ¿Ð¾Ð´Ð°ÑĢ": 4074,
      "ĠÐ´Ð¾ÐºÐ°Ð·": 4075,
      "ÑıÑı": 4076,
      "ĠÐºÐ°Ð¶Ð´Ð¾Ð³Ð¾": 4077,
      "ĠâĢĵâī¤âĢĶ": 4078,
      "ĠÑģÑħÐ¾Ð´": 4079,
      "ĠÐ¾ÑĤÐ´ÐµÐ»": 4080,
      "ĠÐ½Ð°Ð¸Ð±Ð¾Ð»ÐµÐµ": 4081,
      "ĠÐĲÐ½Ð´ÑĢÐµÐ¹": 4082,
      "ĠÐ¿ÑĢÐ¾Ð±Ð»ÐµÐ¼Ñĭ": 4083,
      "Ð¾Ð²Ð°Ð»Ð¾": 4084,
      "ĠÐºÐ¾Ð»ÐµÐ½": 4085,
      "ĠÐ²ÑĭÑĪÐ»Ð°": 4086,
      "ĠÐ¿ÑĢÐ¾ÐµÐº": 4087,
      "ĠÑĢÐ°ÐºÐµÑĤ": 4088,
      "ĠÐĿÐ¸ÑĩÐµÐ³Ð¾": 4089,
      ".)": 4090,
      "ÐµÐ´Ñĥ": 4091,
      "ĠÑĦÐ¸Ð»ÑĮ": 4092,
      "Ð°Ð»Ñĥ": 4093,
      "ĠÐĴÐ°Ð³": 4094,
      "âĢĿ": 4095,
      "ĠÐ¸Ð¼ÐµÐ»": 4096,
      "ĠÑģÐ²ÐµÑĤÐ°": 4097,
      "ÑĪÐ¸ÑħÑģÑı": 4098,
      "ÑĢÐ¸ÑģÑĤÐ¸Ð°Ð½": 4099,
      "ĠÐ³Ð»Ð¾ÑĤ": 4100,
      "ĠÑıÐ´": 4101,
      "ÑģÑĤÐ²Ð¸Ð¸": 4102,
      "Ð¾Ð½ÐµÑĩ": 4103,
      "ĠÐ¿Ð°Ð»ÑĮÑĨÐµÐ¼": 4104,
      "ĠÐ·Ð´Ð°": 4105,
      "Ð¾ÑĩÐ½Ð¾": 4106,
      "ÑıÑĤÐ°": 4107,
      "ĠT": 4108,
      "Ð¸Ð¼Ð¾ÑģÑĤÐ¸": 4109,
      "ĠÐ¼Ð°Ð¼Ðµ": 4110,
      "ÑĨÐµÐ¼": 4111,
      "ac": 4112,
      "ĠÐĴÐ°Ð´Ð¸Ð¼": 4113,
      "ĠÐĺÑĢÐ°": 4114,
      "ĠÐ¸Ð±Ð¾": 4115,
      "ĠÐ²ÐµÑĢÐ½ÑĥÐ»ÑģÑı": 4116,
      "ĠĠĊ": 4117,
      "ĠÑģÑĤÐ°Ð½Ð¾Ð²Ð¸ÑĤÑģÑı": 4118,
      "ĠÐķÐ²ÑĢÐ¾Ð¿": 4119,
      "ĠÐĶÐ¸": 4120,
      "ĠÐĽÐ°Ð´Ð½Ð¾": 4121,
      "ĠÑĥÐ½Ð¸Ð²ÐµÑĢÑģ": 4122,
      "ĠÐ¡Ð½Ð°ÑĩÐ°Ð»Ð°": 4123,
      "ĠÐ¼Ð¸Ð½Ð¸": 4124,
      "ĠÐ¼Ð¸Ð³": 4125,
      "ÑĪÐºÐ¸": 4126,
      "ĠÑĢÐ°Ð·ÑĢÑĥÑĪ": 4127,
      "ĠÑįÑĤÐ¸Ð¼Ð¸": 4128,
      "Ð¸Ð½Ð°Ð½": 4129,
      "ĠÐ½Ð°Ð¿ÑĢÐ¾ÑĤÐ¸Ð²": 4130,
      "ĠÐ¾ÑĤÐ¾ÑĢ": 4131,
      "ĠÐŀÐ´Ð¸Ð½": 4132,
      "Ð½ÑĥÐ»Ð¾": 4133,
      "Ð°ÑĢÐ°ÑĤÑĥ": 4134,
      "ĠÐ½Ð°Ð¿ÑĢÑıÐ³": 4135,
      "ÐµÐ´Ð»Ð¸Ð²": 4136,
      "ĠÐłÐ¾ÑģÑģ": 4137,
      "Ãľ": 4138,
      "ĠÑĢÐ°Ð·Ð°": 4139,
      "ÐļÐ°Ðº": 4140,
      "ĠÐ±ÑĭÐ²Ð°ÐµÑĤ": 4141,
      "ÑĢÐ¾ÑĤ": 4142,
      "ĠÑĢÐµÑĪÐµÐ½Ð¸Ðµ": 4143,
      "ĠÑģÑĤÐ°Ð½ÐµÑĤ": 4144,
      "Ð°Ð·Ð²": 4145,
      "ĠÐľÐ°Ð¼": 4146,
      "ĠÐ¿ÑĢÐµÐ´Ð¼ÐµÑĤ": 4147,
      "ĠÐ½ÐµÑĢÐ²": 4148,
      "ĠÐ¸Ð´ÐµÑĤ": 4149,
      "Ð¸Ð½Ð°Ð¼Ð¸": 4150,
      "ĠÐ¢ÐµÐ±Ðµ": 4151,
      "ĠÐ½ÐµÑĢ": 4152,
      "ĠÐ¿Ð¾Ð»ÑĥÑĩÐ¸Ð»": 4153,
      "18": 4154,
      "ĠÐ²Ð¸Ð´Ð¸Ð¼Ð¾": 4155,
      "ĠÐ³ÐµÐ½ÐµÑĢ": 4156,
      "ĠÐºÐ¾ÑĢÐ°Ð±Ð»ÐµÐ¹": 4157,
      "ĠÑĤÐµÐ»ÐµÑĦ": 4158,
      "ĠÐ¿ÑĢÐ¸Ð²Ð»ÐµÐº": 4159,
      "ÑĤÐµÐº": 4160,
      "ĠÐ»Ð°Ð±": 4161,
      "ÐµÐ»ÑĮÐ½Ð¾": 4162,
      "ÑĤÐ¸ÑĩÐµÑģÐº": 4163,
      "ÑıÑīÐµÐ³Ð¾": 4164,
      "Ġ16": 4165,
      "ÑĥÑģÑĮ": 4166,
      "ĠÐ³ÑĢÐ¾Ð¼ÐºÐ¾": 4167,
      "Ð±Ð¾Ð»": 4168,
      "ÑĢÑıÐ¼": 4169,
      "ĠÑĤÑĭÑģÑıÑĩÐ¸": 4170,
      "ĠÐ½ÐµÑģÐºÐ¾Ð»ÑĮÐºÐ¸Ñħ": 4171,
      "ĠÐ²Ð¸ÑĢ": 4172,
      "ĠÐ·Ð²ÐµÐ·": 4173,
      "ĠÐ½Ð°ÐºÐ»Ð¾Ð½Ð¸": 4174,
      "ĠÐºÐ°ÑĩÐµÑģÑĤÐ²Ðµ": 4175,
      "ĠÑĢÐ°Ð·Ð²Ðµ": 4176,
      "ĠÐ¼ÐµÑģÑıÑĨ": 4177,
      "ĠÐ±Ð»Ð°Ð³Ð¾Ð´Ð°ÑĢÑı": 4178,
      "Ð¾Ð½Ð´": 4179,
      "ĠÐ´Ð¾Ð±ÑĢÐ¾Ð´": 4180,
      "ĠÐ´Ð²ÑĥÐ¼Ñı": 4181,
      "ĠÑĥÐ¼Ð°": 4182,
      "Ð¶ÐµÐ½": 4183,
      "ĠÐ½Ð¾ÑĩÑĮÑİ": 4184,
      "ÑĤÐ¾Ðµ": 4185,
      "Ð»ÐµÐ½Ð½ÑĭÐ¹": 4186,
      "ĠÑĢÐµÑĪÐ¸Ð»Ð°": 4187,
      "ĠÐ¿Ð»Ð°Ð½": 4188,
      "ĠÐ²Ð°Ð¶Ð½Ð¾": 4189,
      "ĠÐ¼ÑĥÐ¶ÑĩÐ¸Ð½Ñĭ": 4190,
      "ĠÑĤÐµÐ»Ñĥ": 4191,
      "ĠÐ±Ð¾ÐµÐ²": 4192,
      "ĠÐ²Ð²": 4193,
      "ÑģÑĤÐµÐ¹": 4194,
      "ÐµÐ½Ð¸ÑĤ": 4195,
      "ĠÑģÐ½": 4196,
      "ĠÑĩÑĥÐ²ÑģÑĤÐ²Ñĥ": 4197,
      "Ġn": 4198,
      "ĠÐºÐ¾Ð»ÑĮ": 4199,
      "ĠÐ¿ÑĢÐ°Ð²Ð¸Ð»ÑĮÐ½Ð¾": 4200,
      "ĠÑĢÐ°Ð·Ð²ÐµÐ´": 4201,
      "ĠÐ²ÐµÑĩÐµÑĢÐ¾Ð¼": 4202,
      "ĠÑĢÐ°ÑģÑģÑĤÐ¾Ñı": 4203,
      "12": 4204,
      "ĠÐ³Ð¸Ð³": 4205,
      "ÑĥÑĤÑģÑı": 4206,
      "ĠÐ¿ÐµÑī": 4207,
      "ĠÐŃÑĤÐ¸": 4208,
      "ĠÐĴÐ¾Ð·": 4209,
      "ĠÐľÑĥÐ¶": 4210,
      "Ð°Ð´ÑĨÐ°ÑĤ": 4211,
      "ĠÐķÑģÑĤÑĮ": 4212,
      "ÑĢÐ°Ð½Ñı": 4213,
      "ĠÐ¿ÐµÑĢÐµÐ½": 4214,
      "ĠÐ¾ÑĩÐµÐ²Ð¸Ð´": 4215,
      "Ð¸ÑĤÐµÑĤ": 4216,
      "ĠÐ¿Ð¾ÑģÐ»ÑĥÑĪ": 4217,
      "ĠÐ½Ð°ÑĥÐºÐ¸": 4218,
      "ĠÐ¡ÐµÑĢÐ³ÐµÐ¹": 4219,
      "Ð°ÑģÐ¸Ð±Ð¾": 4220,
      "ĠÐ¼Ð¸Ð»Ð»Ð¸Ð¾Ð½Ð¾Ð²": 4221,
      "ĠÑĢÐ¸ÑģÐº": 4222,
      "ĠÑĦÑĥÑĤ": 4223,
      "13": 4224,
      "ÐµÑĤÐ¸": 4225,
      "ĠÐ¼Ð°ÑĤÐµÑĢ": 4226,
      "ĠÐ¿Ð¾Ð´Ð½ÑıÐ»": 4227,
      "Ð°ÑĢÐ°ÑĤ": 4228,
      "ĠÐ´Ð¾Ð¶Ð´": 4229,
      "ĠÑıÑī": 4230,
      "ĠÐ²ÑĤÐ¾": 4231,
      "ĠÐºÐ°ÐºÐ¾Ð³Ð¾": 4232,
      "ÐµÑĪÑĮÑģÑı": 4233,
      "ĠÐºÐ¾ÑĢÐ¿": 4234,
      "ĠÐ®Ð»ÑĮ": 4235,
      "ĠÑĤÑıÐ¶ÐµÐ»Ð¾": 4236,
      "ĠÑĤÐµÐ¼Ð¿ÐµÑĢÐ°ÑĤÑĥ": 4237,
      "ÑĤÐ¸Ð¸": 4238,
      "ÑģÐ»Ð¾Ð²": 4239,
      "ed": 4240,
      "ĠÑĢÐ°ÑģÑĪÐ¸": 4241,
      "Ð°ÑİÑīÐ°Ñı": 4242,
      ",âĢĶ": 4243,
      "âĢĵÂ±âĢĵ": 4244,
      "ĠÐ±Ð»Ð¸Ð¶Ðµ": 4245,
      "ĠÑĥÐ»ÑĭÐ±Ð½ÑĥÐ»ÑģÑı": 4246,
      "ĠÐ¼Ð¾Ð»ÑĩÐ°": 4247,
      "ĠÑħÐ¾ÑĢÐ¾": 4248,
      "ÐĿÐ¾": 4249,
      "ĠÐ¿ÑĢÐ¸Ð·Ð½Ð°": 4250,
      "Ġo": 4251,
      "Ð¾Ð»ÐµÐ¿": 4252,
      "Ð»ÐµÐ·": 4253,
      "Ð½Ð¾Ð¶": 4254,
      "ĠÑĢÑĤÐ°": 4255,
      "ĠÐ´Ð¾Ð²ÐµÑĢ": 4256,
      "ĠÐĴÐ¸ÐºÐ°": 4257,
      "ĠÐ¿ÑĢÐ¸Ð½ÐµÑģ": 4258,
      "ĠÐ½Ð°Ð±Ð»ÑİÐ´": 4259,
      "ĠÑĢÐ°ÑģÐ¿Ð¾Ð»Ð¾Ð¶": 4260,
      "ĠÐ¿Ð»Ð¾Ñħ": 4261,
      "ĠÐ²Ð»Ð°Ð³Ð°Ð»Ð¸ÑīÐ°": 4262,
      "ĠÑģÐ´ÐµÐ»Ð°Ð»Ð°": 4263,
      "ĠÐ½Ð°Ð¶": 4264,
      "ĠÐ¿ÑĢÐ¸Ð²ÑĭÑĩ": 4265,
      "Ġ\\\\\\": 4266,
      "Ð²Ð°Ð½": 4267,
      "Ð»Ð¸ÑĩÐµÑģÐº": 4268,
      "ĠÐ½Ð°Ð´Ðµ": 4269,
      "ĠÑģÐ»ÑĭÑĪÐ°Ð»": 4270,
      "ĠâĢĵâī¤âĢĵ": 4271,
      "ĠÐ²Ð¾Ð½": 4272,
      "Ð°Ð´Ð»ÐµÐ¶": 4273,
      "ĠÐºÐ¾Ð½ÑģÑĤ": 4274,
      "ÑģÑĤÑĢÐµÑĩ": 4275,
      "ÐµÑĢÑĭÐ²": 4276,
      "Ð»ÑıÑĤÑĮÑģÑı": 4277,
      "ĠÑĢÐ¾Ð´Ð°": 4278,
      "ĠÑįÐ¿Ð¾Ñħ": 4279,
      "Ð»Ð°ÑģÑģ": 4280,
      "ÐµÑĢÐ½Ð¾Ðµ": 4281,
      "ĠÐĲÐ²": 4282,
      "ÑĨÐ¾Ð¼": 4283,
      "ĠÑĪÐµÐ»": 4284,
      "Ð½Ð¸ÑĢÐ¾Ð²": 4285,
      "ĠÐĵÐ´Ðµ": 4286,
      "ĠÐ¿Ð»ÐµÑĩÐ¸": 4287,
      "ĠÐĳÑĭÐ»Ð¾": 4288,
      "ĠÐ¿Ð¾Ð»Ñı": 4289,
      "ĠÐ¢Ð°Ð½Ñı": 4290,
      "Ð¼ÐµÑĪ": 4291,
      "ĠÐ·Ð°ÐºÑĢÑĭÐ²": 4292,
      "ĠÑĤÐ¾ÑĢÑĩ": 4293,
      "ĠÑĤÐ²Ð°ÑĢ": 4294,
      "Ð¸ÑĤÑĥÑĤ": 4295,
      "ÑĢÑĭÐ³": 4296,
      "Ð¸ÑĤÐµÐ»ÑĮÐ½ÑĭÐ¹": 4297,
      "Ð°ÑİÑīÑĥÑİ": 4298,
      "ĠÐ°Ð½ÑĥÑģ": 4299,
      "ĠÐ±Ð»Ð¸Ð¶Ð°Ð¹": 4300,
      "ĠÐ³ÐµÑĢ": 4301,
      "ĠÑĪÑĤÐ°": 4302,
      "ĠÐ»ÑİÐ´ÑıÐ¼": 4303,
      "ĠÐ±ÑĥÑĤÑĭÐ»": 4304,
      "ĠÑĢÐ°Ð·Ð½ÑĭÑħ": 4305,
      "ĠÐ¿ÑĢÐ¸ÑĩÐ¸Ð½": 4306,
      "ĠÐºÑĢÑĥÐ¶": 4307,
      "ĠÑĢÐµÑĩÑĮ": 4308,
      "ÑģÑĤÐ²ÐµÐ½Ð½ÑĭÐµ": 4309,
      "ĠÐ´ÑĭÑħÐ°Ð½Ð¸Ðµ": 4310,
      "ĠÐ²Ð¸Ð¶Ñĥ": 4311,
      "ĠÑĨÐ°ÑĢ": 4312,
      "ĠÐ±Ð¾Ð»ÑĮÑĪÐ°Ñı": 4313,
      "ĠÐĹÐ½Ð°ÑĩÐ¸ÑĤ": 4314,
      "ĠÐ´ÐµÐ´": 4315,
      "Ð°Ð»ÑĮÐ½Ð¾Ð¼": 4316,
      "ĠÐ±Ð¾ÑĢÑĮ": 4317,
      "Ð½ÐµÐ·Ð°Ð¿Ð½Ð¾": 4318,
      "ĠN": 4319,
      "Ð±Ðµ": 4320,
      "ĠÐ¿Ð°ÑĢÐ½Ñı": 4321,
      "ĠÐŀÐ»ÐµÐ³": 4322,
      "ĠÐĵÐµÑĢ": 4323,
      "ÑĥÑĢÐ±": 4324,
      "ÑĩÐ¸Ð²Ð¾": 4325,
      "ÑĤÐµÐ¼": 4326,
      "ĠÐ´Ð°ÑĢ": 4327,
      "ĠÐ¿Ð¾ÑģÐ¿": 4328,
      "Ġ0": 4329,
      "ĠÑĢÑĤÑĥ": 4330,
      "Ð°Ð·Ð´": 4331,
      "Ð¸Ð¼Ð¾ÑģÑĤÑĮ": 4332,
      "ĠÐ´ÑĢÑĥÐ·ÑĮÑı": 4333,
      "ÑģÐ¾ÑĤ": 4334,
      "ĠÐĿÐ°Ñĩ": 4335,
      "ĠÐ¼Ð³Ð½Ð¾Ð²ÐµÐ½Ð¸Ðµ": 4336,
      "ĠÐ¿Ð¾Ð·Ð´Ð½Ð¾": 4337,
      "ĠÑĩÐµÐ»Ð¾Ð²ÐµÑĩÐµÑģÑĤÐ²Ð°": 4338,
      "ĠÐ½ÐµÑģÐ¼Ð¾ÑĤÑĢÑı": 4339,
      "ĠÐ¾Ð³Ð¾": 4340,
      "ĠÐ¸ÑģÑĤÐ¸Ð½": 4341,
      "Ð°Ð²ÑĪÐ¸Ð¹": 4342,
      "ÑģÑĤÐ²ÐµÐ½Ð½ÑĭÑħ": 4343,
      "ĠÐ¾Ð±ÑĬÑıÐ²": 4344,
      "Ð»ÑİÐ±": 4345,
      "ĠÐ¿ÑĢÐ¸Ð½Ð°Ð´Ð»ÐµÐ¶": 4346,
      "ĠÐ¿ÑĢÐµÐºÑĢÐ°ÑģÐ½Ð¾": 4347,
      "Ð»ÐµÐ½Ð¸Ð¹": 4348,
      "ĠÐ²ÑĭÐ³": 4349,
      "ĠÐ»ÑİÐ´ÑĮÐ¼Ð¸": 4350,
      "ĠÐĺÐ³Ð¾ÑĢÑĮ": 4351,
      "ĠÐļÑĢÐ¸": 4352,
      "ĠÐ¸ÑģÑħÐ¾Ð´": 4353,
      "ĠÑĩÑĤÐ¾Ð±": 4354,
      "ĠD": 4355,
      "ÑĨÐ°Ð¼Ð¸": 4356,
      "ĠÐ¿ÐµÑģ": 4357,
      "ĠÐ·ÐµÑĢÐº": 4358,
      "Ð¸ÑĩÐµÑģÐºÐ¸Ð¼": 4359,
      "ÐµÐ·Ð¶": 4360,
      "ĠÐ±Ð»ÐµÑģÑĤ": 4361,
      "ĠÐ¾ÑģÐ¾Ð±Ð¾": 4362,
      "ĠÑģÐ´ÐµÐ»Ð°": 4363,
      "ÑĢÐµÐ»": 4364,
      "Ð±ÐµÐ»": 4365,
      "ĠÐ½Ð¾Ð²Ð¾Ð³Ð¾": 4366,
      "ĠÐ¿ÑĢÐ¾Ð´Ð¾Ð»Ð¶Ð°Ð»Ð°": 4367,
      "ĠÑįÐ»ÑĮÑĦ": 4368,
      "ĠÑĢÑĥÐºÐµ": 4369,
      "ĠÐ²Ð¾Ð´Ñĥ": 4370,
      "ĠÑģÑĤÑĢÐ¾Ð¹": 4371,
      "ĠÐ¸Ð½ÑĦÐ¾ÑĢÐ¼Ð°ÑĨÐ¸Ð¸": 4372,
      "ĠÑģÐ²ÐµÑĢÑħÑĥ": 4373,
      "ĠÐ´Ð¸Ð²Ð°Ð½": 4374,
      "ÐµÐºÐ°": 4375,
      "ĠÐľÐ°ÑĪÐ°": 4376,
      "ĠÐ½Ð°ÑĪÑĥ": 4377,
      "ĠÑģÑĤÑĢÐµÐ»": 4378,
      "ĠÐ¢Ð¾Ð¼": 4379,
      "ĠÐĶÑĥÐ¼": 4380,
      "ĠÐŁÑĥ": 4381,
      "ÑĢÐ°Ð½ÑĨÑĥ": 4382,
      "ĠÐ½ÐµÐ±Ð¾Ð»ÑĮÑĪÐ¾Ð¹": 4383,
      "ĠÐĸÐµÐ½Ñī": 4384,
      "Ð¤": 4385,
      "ĠÐ¿ÑĢÐ°Ð²Ð¾": 4386,
      "ĠÐ½Ð°Ð¼Ð½Ð¾Ð³Ð¾": 4387,
      "Ð¸ÑĢÐ°ÑĤÑĮ": 4388,
      "ÑĢÐ°Ð»ÑģÑı": 4389,
      "ĠÐ½Ð¸Ð¶": 4390,
      "Ð»Ð°Ð½ÐµÑĤ": 4391,
      "ĠÐķÑĳ": 4392,
      "ĠÐ¿Ð¾Ð½ÑıÑĤÐ½Ð¾": 4393,
      "ĠÐ¶ÐµÐ»Ð°Ð½Ð¸Ñı": 4394,
      "ĠÐ¿ÑĢÐ¾Ð¼ÑĭÑĪ": 4395,
      "ĠÑĢÐ°Ð±Ð¾ÑĤÐµ": 4396,
      "ĠÑģÐ¸ÑģÑĤÐµÐ¼Ñĥ": 4397,
      "ĠH": 4398,
      "ĠÐ²Ð½Ñĥ": 4399,
      "ĠÐ¿Ð»Ð¾Ñī": 4400,
      "Ð¾ÑģÑĦ": 4401,
      "ĠÐ¿ÐµÑĢÐ²ÑĭÐ¼": 4402,
      "ĠÐ¾Ð·Ð½Ð°Ñĩ": 4403,
      "Ð»ÑıÐµÑĤÑģÑı": 4404,
      "ĠÐ½Ð¾Ð²Ð¾Ð¹": 4405,
      "Ð¼ÐµÑĢÐ¸ÐºÐ°Ð½": 4406,
      "ĠÐĽÑİÐ±": 4407,
      "ĠÐ²ÑĢÐ°Ð³Ð°": 4408,
      "ĠÑĤÑī": 4409,
      "ĠÐ½Ð¾Ð³Ñĥ": 4410,
      "ĠÑģÐ¾Ð·Ð½Ð°Ð½Ð¸Ðµ": 4411,
      "Ð°ÑĩÐµÐ¼": 4412,
      "ĠÑģÐ¾ÑģÑĤÐ¾ÑıÐ½Ð¸Ðµ": 4413,
      "ĠÑĦÐ¾ÑĢÐ¼Ñĥ": 4414,
      "Ð°ÑĤÐ°": 4415,
      "ĠÐ¸Ð·Ð²ÐµÑģÑĤÐ½Ð¾": 4416,
      "ÑĢÐ°Ðº": 4417,
      "ĠÐ¸Ð½ÑģÑĤÑĢÑĥ": 4418,
      "ĠÐ¶ÑĥÑĢ": 4419,
      "ĠÑĢÐµÑĪÐ¸Ð»Ð¸": 4420,
      "ĠÑıÐ·ÑĭÑĩ": 4421,
      "ĠÐ´ÐµÑıÑĤÐµÐ»ÑĮ": 4422,
      "ĠÑģÑĥÐ¿ÐµÑĢ": 4423,
      "ĠÐ¸ÑģÑĤÐ¸": 4424,
      "ĠÑĪÐµÑİ": 4425,
      "Ð½Ð¾ÑĪ": 4426,
      "ÑģÐ»ÑĥÑĪ": 4427,
      "ÑįÑĤÐ¾": 4428,
      "ĠÐºÐ¾Ð¼Ð¿Ð°Ð½Ð¸Ð¸": 4429,
      "Ð»Ð°Ðº": 4430,
      "Ð¼Ð¾Ð²": 4431,
      "ĠÐ¾ÑīÑĥÑīÐµÐ½Ð¸Ñı": 4432,
      "ĠÐ²Ð°Ð½Ð½Ð¾Ð¹": 4433,
      "ÐµÐ²Ð¸Ð·": 4434,
      "ĠÑģÐ¿ÑĥÑģÐº": 4435,
      "ĠÐ¸Ð½ÑĤÐµÑĢÐµÑģÐ½Ð¾": 4436,
      "ĠÐĳÐµÐ·": 4437,
      "Ð½Ð¸ÐºÐµ": 4438,
      "ĠÐ¿ÑĢÐ¸Ð±Ð»Ð¸Ð·": 4439,
      "ĠÐļÐ¾Ð¼": 4440,
      "ĠÑģÐ¸Ð´ÐµÐ»Ð°": 4441,
      "ĠÑĩÐ¸Ñģ": 4442,
      "ĠÐ·Ð°Ð³Ð¾": 4443,
      "ĠÐ²Ð°Ð»": 4444,
      "Ð¸ÑĤÐµÑĢ": 4445,
      "ĠÑģÐ¿ÐµÑĢÐ¼Ñĥ": 4446,
      "ĠÐ¼Ð¸ÑģÑģ": 4447,
      "ĠÐ·ÐµÐ¼Ð»Ñİ": 4448,
      "ĠÑĢÐ¾Ð´Ð¸ÑĤÐµÐ»Ð¸": 4449,
      "ÐµÑĤÐµÐ»ÑĮ": 4450,
      "ĠÑĢÐ°Ð¹": 4451,
      "ĠÐ´Ð¸ÑģÐº": 4452,
      "ĠÐ·Ð¾Ð²": 4453,
      "ĠÐ°Ð½Ð°Ð»": 4454,
      "ĠÑĤÐ¸": 4455,
      "ĠÑĥÑģÐ¼": 4456,
      "ĠÐ½Ð°ÑĩÐ°Ð»Ð¾": 4457,
      "ĠÑįÐºÑģÐ¿ÐµÑĢÐ¸Ð¼": 4458,
      "ĠÐ´Ð²ÐµÑĢ": 4459,
      "ĠÑģÑĤÐ¾Ñı": 4460,
      "ĠÐŁÑĢÐ¸Ñĩ": 4461,
      "ĠB": 4462,
      "ĠÐ½Ð°ÑģÑĤÑĢÐ¾": 4463,
      "ĠÐĿÐ°Ð¼": 4464,
      "Ð¾ÑĤÐµÐ½": 4465,
      "ĠÐ³Ð¾Ð²Ð¾ÑĢÑİ": 4466,
      "ĠÑģÐºÐ¾ÑĢÐ¾ÑģÑĤÑĮ": 4467,
      "ĠÐ¿Ð¾Ð¼ÐµÑī": 4468,
      "000": 4469,
      "ÑĳÐ·Ð´": 4470,
      "Ð¾Ð³Ð¸": 4471,
      "ĠÑĤÐ¾ÑĢÐ¾Ð¿": 4472,
      "ĠÑıÐ¹ÑĨÐ°": 4473,
      "ĠÐ¿ÑĢÐµÑģ": 4474,
      "ĠÐĿÐ¸": 4475,
      "ĠÑģÐ¼ÑĥÑī": 4476,
      "ĠÐ¢ÑĢÐ¸": 4477,
      "ĠÐ¾ÐºÐ°Ð·Ð°Ð»Ð¸ÑģÑĮ": 4478,
      "ĠÐ¿ÑĢÐµÑģÑĤÑĥÐ¿": 4479,
      "ĠÐ½ÐµÑĥÐ´": 4480,
      "Ð°ÑĢÑĤ": 4481,
      "Ð¸Ð²Ð°Ð»Ð¸ÑģÑĮ": 4482,
      "Ð°Ð½ÑĤÐ°Ð·": 4483,
      "ĠÐ¼Ð½Ð¾Ð¶ÐµÑģÑĤÐ²Ð¾": 4484,
      "us": 4485,
      "ÐµÐ½ÑĮÐºÐ°": 4486,
      "ÑĢÐ°ÑĤÐµÐ³": 4487,
      "Ð°ÑİÑīÐ¸Ð¼": 4488,
      "ĠÐ¿Ð¾ÑģÑĤÐ¾ÑıÐ½": 4489,
      "Ð»ÐµÐ½Ð¸Ñİ": 4490,
      "ÑĢÐµÑģÑĤ": 4491,
      "ĠÐŁÐ¾ÑģÑĤ": 4492,
      "Ð¸ÑĢÐµÐº": 4493,
      "ĠÑĥÑĤÐ²ÐµÑĢÐ¶": 4494,
      "ĠÐ¾ÑīÑĥÑīÐµÐ½Ð¸Ðµ": 4495,
      "Ð·ÐµÐ¼": 4496,
      "Ð°Ð½Ñĥ": 4497,
      "ĠÑģÐ¾Ð½": 4498,
      "ĠÐ±Ð¾Ð»ÑĮÑĪÑĥÑİ": 4499,
      "ĠÑĤÐ¾Ð»Ð¿": 4500,
      "ĠÐ¾ÑĤÐ½Ð¾ÑĪÐµÐ½Ð¸Ñı": 4501,
      "ĠÑıÑģÐ½Ð¾": 4502,
      "Î¿": 4503,
      "Ð¾ÑĤÐ¾": 4504,
      "ĠÐ»Ð¸ÑĨÐµ": 4505,
      "ĠÑĩÐµÐ»Ð¾Ð²ÐµÐºÐ¾Ð¼": 4506,
      "ĠÑĦÐ¸Ð½Ð°Ð½": 4507,
      "ĠÐ´ÐµÑĤÐ¸": 4508,
      "ĠÐ·Ð°Ð¿Ð°Ñģ": 4509,
      "ÑĥÐ¶ÐµÐ»Ð¸": 4510,
      "ĠÐĲÐ»ÐµÐºÑģÐ°Ð½Ð´": 4511,
      "ĠÐ¿Ð¾Ð»Ð½Ð¾Ð¹": 4512,
      "ÑĩÑĤÐ¾": 4513,
      "ĠÐ¡Ð°ÑĪÐ°": 4514,
      "ĠÐºÐ½Ð¸Ð³": 4515,
      "ĠÐ³Ð»Ñı": 4516,
      "ĠÐĶÐ¶Ð¾Ð½": 4517,
      "Ð¸Ð»Ñı": 4518,
      "Ð¾Ð¶Ð´Ð°": 4519,
      "Ð°ÑĤÐºÐ¸": 4520,
      "Ð¸Ð²Ð°Ð»Ð°ÑģÑĮ": 4521,
      "ĠÑģÑĤÐµÐ¿ÐµÐ½Ð¸": 4522,
      "ÑĥÑĢÐ°": 4523,
      "ĠÐ¿Ð¾ÐºÐ¾Ð»": 4524,
      "ĠÐ¿Ð¾Ð¿ÑĭÑĤÐ°Ð»ÑģÑı": 4525,
      "ÐµÐ½Ð¸Ð²": 4526,
      "ĠÐ¡Ð»ÐµÐ´": 4527,
      "ĠÐĳÑĥÐ´": 4528,
      "ĠÐ·Ð°Ð²Ð¾Ð´": 4529,
      "ĠÐ¾ÑĢÐ±": 4530,
      "ĠÑģÑĥÑīÐµÑģÑĤÐ²": 4531,
      "ĠÐ¼Ð¸Ð½ÑĥÑĤÑĭ": 4532,
      "ÑĢÐ°Ð¼Ð¸": 4533,
      "Ð´Ð¶": 4534,
      "ĠÐ¿ÑĢÐµÐ´Ð¿Ð¾Ð»Ð°Ð³": 4535,
      "ĠÐºÐ¾ÑĢÐ¾Ð»ÐµÐ²": 4536,
      "Ð²Ñĥ": 4537,
      "ĠÐºÐ¾Ð½ÑĦ": 4538,
      "ĠÐ½Ð¾ÑĩÐ¸": 4539,
      "ĠÑħÐ¾ÑĩÐµÑĤÑģÑı": 4540,
      "ĠÐ»Ð°Ð´Ð½Ð¾": 4541,
      "ĠÐ³Ð¾Ð»Ð¾Ð²Ð°": 4542,
      "ÑģÑĤÐ²ÐµÐ½Ð½Ð¾ÑģÑĤÐ¸": 4543,
      "ĠÑħÑĥÐ´Ð¾Ð¶": 4544,
      "ĠÐ²ÑĩÐµÑĢÐ°": 4545,
      "Ð»ÐµÐ½Ñĭ": 4546,
      "ĠÐ¾ÑģÑĤÐ°Ð»ÑĮÐ½ÑĭÐµ": 4547,
      "ĠÐ²Ð¾Ð¿ÑĢÐ¾ÑģÑĭ": 4548,
      "ĠÑħÐ²Ð°ÑĤÐ¸ÑĤ": 4549,
      "ÑĢÐ¸ÑĤ": 4550,
      "ĠÑĤÐµÐ»ÐµÐ²Ð¸Ð·": 4551,
      "ĠÐ½ÐµÐ¾Ð¶Ð¸Ð´Ð°Ð½": 4552,
      "ĠÐŁÐ¾Ð½": 4553,
      "ÐµÐ²ÐµÐ»": 4554,
      "Ð¸ÑĤÐµÐ»ÑĮÐ½ÑĭÐµ": 4555,
      "ĠÐ·ÐµÐ¼Ð»Ð¸": 4556,
      "Ð°ÑĤÑĭ": 4557,
      "ĠÐ¿ÑĢÐ¸Ð½ÑıÐ»ÑģÑı": 4558,
      "ĠÐ´ÐµÐ¼Ð¾Ð½": 4559,
      "le": 4560,
      "ĠÐĹÐ°Ðº": 4561,
      "ĠÐ¼Ð°Ð¼Ð¾Ð¹": 4562,
      "ĠÐ½ÑĥÐ¶Ð½Ñĭ": 4563,
      "âĢĵÂ±âĢĶ": 4564,
      "ĠÑĨÐµÐ»Ð¾Ð²Ð°ÑĤÑĮ": 4565,
      "Ð½ÑıÐºÐ°": 4566,
      "ĠÐ½ÐµÐ´ÐµÐ»Ñİ": 4567,
      "ĠÐ¶ÐµÐ½ÑīÐ¸Ð½Ñĥ": 4568,
      "ĠÐ»ÑİÐ±Ð¾Ð²ÑĮ": 4569,
      "ĠÐ²Ð»Ð¸Ñı": 4570,
      "ÑĪÐ»Ð¾": 4571,
      "ĠÑĦÑĥÐ½Ðº": 4572,
      "ĠÐ½ÑĥÐ¶ÐµÐ½": 4573,
      "Ð¾Ð²Ð¾Ð³Ð¾": 4574,
      "ĠÐ±Ð°ÑĢ": 4575,
      "ÑĢÐ¸ÑĨ": 4576,
      "ĠÑĪÐ°Ñħ": 4577,
      "ĠÑĨÐµÐ¿": 4578,
      "ĠÐ§ÑįÐ½": 4579,
      "ĠÐ¼Ð°ÑĪÐ¸Ð½": 4580,
      "ĠÐ¡Ð²": 4581,
      "ĠÐ½Ð°ÑħÐ¾Ð´Ð¸ÑĤÑģÑı": 4582,
      "ĠÐ´Ð¾Ð³Ð¾Ð²Ð¾ÑĢ": 4583,
      "ĠÐ¿Ð¾Ð½ÑĢÐ°Ð²Ð¸Ð»Ð¾ÑģÑĮ": 4584,
      "ĠÐ¿ÑĢÐ¾Ð·": 4585,
      "ĠÑĥÑĤÑĢÐ¾Ð¼": 4586,
      "ĠÐ²ÐµÑīÐµ": 4587,
      "li": 4588,
      "ÑĢÐµÑĩ": 4589,
      "ÐºÐ°ÑĦ": 4590,
      "ĠÐ½Ð°ÐºÐ°Ð·": 4591,
      "ĠÑģÑĥÐ±": 4592,
      "ĠÐ²Ð¾ÑĢÐ¾ÑĤ": 4593,
      "ÐµÐ½ÑĮÐºÐ¾": 4594,
      "ĠÐ¾Ð´ÐµÐ¶Ð´Ñĥ": 4595,
      "ĠÐ½ÐµÐ¾Ð±ÑĭÑĩ": 4596,
      "ĠÐ½Ð°Ð¾Ð±Ð¾ÑĢÐ¾ÑĤ": 4597,
      "ĠÐºÐ¸ÑģÐºÑĥ": 4598,
      "ĠÐ¼Ð°ÑĤÐµÐ¼Ð°ÑĤ": 4599,
      "ĠÐŀÐ»Ñı": 4600,
      "Ð¸ÑģÑĤÐ¸": 4601,
      "Ð¸Ð½ÑĥÐ»": 4602,
      "ĠÐ½Ð¾Ð¶ÐºÐ¸": 4603,
      "Ð»ÑıÐ»": 4604,
      "ĠÐľÐ¾ÑģÐº": 4605,
      "ĠÐĹÐ°ÑĢÐ°ÑĤÑĥ": 4606,
      "ÑĩÐ¸ÐºÐ°": 4607,
      "ĠÐ¿Ð¾ÑĢÑĤ": 4608,
      "ĠÐ¸Ð·Ð¾Ð±ÑĢÐ°Ð¶": 4609,
      "ĠÐ½Ð°ÑĤ": 4610,
      "ĠÐ¿ÑĢÐ¾ÑĤÐ¸Ð²Ð¾Ð¿Ð¾Ð»Ð¾Ð¶": 4611,
      "ĠÐ´Ð°Ð½Ð½ÑĭÑħ": 4612,
      "ĠÐĴÐ¾Ð·Ð¼Ð¾Ð¶Ð½Ð¾": 4613,
      "ĠÐŁÐ¾ÑģÐ»ÐµÐ´": 4614,
      "ĠÐ»ÐµÐ¶Ð°Ð»": 4615,
      "ÑĥÐ»ÑıÑĢ": 4616,
      "ĠÐ¿ÐµÑĢÐ¸Ð¾Ð´": 4617,
      "ĠÐ²ÐµÑīÐµÐ¹": 4618,
      "ĠÐ¿Ð¾ÑĢÐ°": 4619,
      "ĠÑĥÐ·Ð½Ð°ÑĤÑĮ": 4620,
      "ÑĭÐ»Ð¸": 4621,
      "ĠÑĢÐ¾Ð²": 4622,
      "ĠÐ±ÑĥÐ¼Ð°Ð³": 4623,
      "ĠÐļÐ¾ÑģÑĤ": 4624,
      "âĢĵâĪĤâĢĵ": 4625,
      "ĠÑĦÐ¾ÑĤÐ¾Ð³ÑĢÐ°ÑĦ": 4626,
      "ĠÑģÐ²ÐµÑĤÐµ": 4627,
      "ÑĥÑĪÐºÑĥ": 4628,
      "ĠÐ¡Ð²ÐµÑĤÐ°": 4629,
      "ĠÐ±ÑĢÐ°ÑĤÑĮ": 4630,
      "ĠÐ³ÑĢÑıÐ·": 4631,
      "ĠÐ¿Ð»Ñİ": 4632,
      "Ð¾ÑĤÐµ": 4633,
      "Ð°Ð»ÑĮÑĪÐµ": 4634,
      "ĠÑģÐ½ÑıÐ»": 4635,
      "ĠÑĤÑĢÐ¸Ð´ÑĨÐ°ÑĤÑĮ": 4636,
      "ĠÐ¿Ð¾Ð»Ðµ": 4637,
      "ĠÑĥÐ·Ð½Ð°": 4638,
      "ĠÐ¶ÐµÐ½Ð°": 4639,
      "âĢĵâĪ«âĢĶ": 4640,
      "ĠÐłÐ¸Ð¼": 4641,
      "ĠÑĩÐµÑĢÑĤ": 4642,
      "ĠÐ¿Ð¾ÑħÐ¾Ð´": 4643,
      "ĠÐ³Ð¾Ð»Ð¾ÑģÐ¾Ð¼": 4644,
      "ĠÐ¿ÐµÑĢÐµÑħÐ¾Ð´": 4645,
      "Ð¾ÑĩÐºÐµ": 4646,
      "ĠÐ³Ð¾ÑģÑĤÐ¸": 4647,
      "ĠÐ¾ÑĤÐºÑĢÑĭÐ»Ð°": 4648,
      "ĠÐ¿Ð°Ñħ": 4649,
      "ĠÑģÑĤÑĢÐ°ÑĤÐµÐ³": 4650,
      "ĠÐ·Ð°Ð¼ÐµÑĤÐ¸Ð»Ð°": 4651,
      "Ð¸Ð·Ð¼": 4652,
      "ĠÑģÐ»Ð¾Ð¶Ð½Ð¾": 4653,
      "ĠÐ´Ð¾Ð¿Ð¾Ð»": 4654,
      "ÑİÑīÐµÐ¹": 4655,
      "ĠÐºÑĥÑĩ": 4656,
      "Ð¾Ð¶Ð¸Ð»": 4657,
      "ĠÐŁÐµÑĢÐµÐ´": 4658,
      "Ð´ÐµÑĤÑĮ": 4659,
      "ĠÐ´ÑıÐ´": 4660,
      "ĠÐºÐ°ÐºÐ¸Ñħ": 4661,
      "ĠÑįÐ»ÐµÐºÑĤÑĢÐ¾Ð½": 4662,
      "ĠÐ³Ð¾Ð»Ð¾Ð²Ñĭ": 4663,
      "ĠÐ·Ð°ÑģÑĥ": 4664,
      "ĠÐ´Ð²Ð¸Ð³Ð°ÑĤÑĮÑģÑı": 4665,
      "ĠÐ¿Ð»Ð°Ð½ÐµÑĤÐµ": 4666,
      "ÑİÐ·": 4667,
      "ĠÐ¸ÑģÐºÑĥÑģÑģÑĤÐ²Ð°": 4668,
      "ĠÐ¿ÑĢÐ¸Ð¶Ð¸Ð¼": 4669,
      "ÑħÑĥ": 4670,
      "ĠÑĪÐºÐ¾Ð»Ðµ": 4671,
      "ĠÐ°ÐºÐºÑĥÑĢÐ°ÑĤÐ½Ð¾": 4672,
      "ĠÐ¼Ð¸Ð½": 4673,
      "ĠÑĥÐ²Ð°Ð¶": 4674,
      "ĠÐ¢Ð¾ÑĤ": 4675,
      "ĠÐºÐ½Ð¸Ð³Ð¸": 4676,
      "ĠÐ²ÑĭÑĢÐ²": 4677,
      "ru": 4678,
      "ÑģÑĤÐ²ÐµÐ½Ð½Ð¾ÑģÑĤÑĮ": 4679,
      "ĠÐ¸ÑģÑĤÐ¾ÑĢÐ¸Ñı": 4680,
      "ĠÑĢÐ°Ð·Ð²Ð¸ÑĤÐ¸Ñı": 4681,
      "ÑĢÑıÑĤ": 4682,
      "ĠÑģÐ°Ð¼Ð¾Ð¼Ñĥ": 4683,
      "ĠÐ½Ð°Ð¿Ð¾Ð¼": 4684,
      "ĠÐ»Ð°Ð´Ð¾Ð½": 4685,
      "ĠÐ¿ÐµÑĢÐµÑĪ": 4686,
      "ĠÐ·Ð½Ð°Ð½Ð¸Ñı": 4687,
      "ing": 4688,
      "ĠÐ³Ð°Ð»Ð°ÐºÑĤÐ¸": 4689,
      "ĠÐ¡Ð¸Ð½ÑĮ": 4690,
      "ĠÐ´ÑĢÑĥÐ³ÑĥÑİ": 4691,
      "ĠÑĩÐ°": 4692,
      "Ð¸Ð½ÐºÐ°": 4693,
      "ĠÑħÑĥÐ¶Ðµ": 4694,
      "ÐµÐ½ÑĤÐ¸": 4695,
      "Ð½Ð¸ÐºÐ°Ð¼Ð¸": 4696,
      "ÐµÑħÐ°Ð»": 4697,
      "ĠÐ±ÐµÐ·ÑĥÐ¼": 4698,
      "ĠÑĤÐ°Ð±": 4699,
      "ĠÐ°Ð½ÑĤÐ¸": 4700,
      "ĠÑĤÐµÐ¼Ð¿": 4701,
      "ĠÐ¿Ð¾ÑĢÐ°Ð¶": 4702,
      "ĠÑģÐ¿ÑĥÑĤ": 4703,
      "ĠÑĦÐ°Ð½ÑĤÐ°Ð·": 4704,
      "ĠÑĤÐµÑĢÑĢÐ¸": 4705,
      "ĠÐ¿Ð¾Ð´ÑĩÐ¸Ð½": 4706,
      "ÑİÑīÐµÐ³Ð¾": 4707,
      "ÑĳÑĪÑĮ": 4708,
      "ÑĪÐµÐ¹ÑģÑı": 4709,
      "Ð»ÐµÐ¿": 4710,
      "ÑıÐ»Ð¸ÑģÑĮ": 4711,
      "ĠÑĢÐ°Ð·Ð½ÑĭÐµ": 4712,
      "ĠÐ¸Ð·Ð¾": 4713,
      "ÐµÑĪÐµ": 4714,
      "ĠÐ¿ÑĢÐ°Ð²Ð°": 4715,
      "ĠÐ¸Ð½Ð´Ð¸Ð²Ð¸Ð´Ñĥ": 4716,
      "ĠÐ»Ð°Ð±Ð¾ÑĢÐ°": 4717,
      "ĠÑģÑĥÑĤ": 4718,
      "Ð±ÐµÐ¶": 4719,
      "ĠÐĽÑĥ": 4720,
      "ĠĠĠĠĠĠĠĠ": 4721,
      "ĠÐ¾Ð±ÑģÑĤÐ¾": 4722,
      "ÑĢÐ¸ÑĩÐµÑģÐº": 4723,
      "ĠÐ¿Ð¾Ð´Ð½ÑıÐ»ÑģÑı": 4724,
      "ÑĢÐ°Ð½ÑĨÑĥÐ·": 4725,
      "Ð¸ÑĤÐµÐ»ÑĮÐ½Ð¾Ð¹": 4726,
      "ĠÑĤÑĥÐ¼": 4727,
      "Ð¸ÑĤÐµÐ»ÑĮÐ½Ð¾Ðµ": 4728,
      "Ð°Ð´Ð¾Ð±": 4729,
      "ĠÑĥÑģÐ¸Ð»Ð¸": 4730,
      "ĠÐ¸Ð¼Ñı": 4731,
      "ĠÑĤÐµÑĩÐµÐ½Ð¸Ðµ": 4732,
      "ĠÑģÐ¾ÑĤÑĢÑĥÐ´": 4733,
      "ĠÑģÐ¿ÑĥÑģÑĤÑı": 4734,
      "ĠÐ¿Ð°Ð¼ÑıÑĤÐ¸": 4735,
      "ĠÐ²ÑĭÑıÑģ": 4736,
      "ĠÐ¾Ð´Ð¸Ð½Ð¾": 4737,
      "ĠÐ¿Ð¾Ð¶Ð¸Ð»": 4738,
      "ĠÑģÐ¼ÐµÑĪ": 4739,
      "Ð¹Ð´": 4740,
      "Ð¸ÑĤÐµÐ»ÑĮÐ½Ð¾ÑģÑĤÐ¸": 4741,
      "Ð¾Ð¶Ð´ÐµÐ½Ð¸Ðµ": 4742,
      "ĠÐ³Ð¾ÑĢÐ´": 4743,
      "ĠÐ²Ð¾Ð»Ð¸": 4744,
      "Ð¾Ð»Ð¾Ñģ": 4745,
      "ĠÐµÐ²": 4746,
      "Ð°Ð½Ð½Ð¾Ð³Ð¾": 4747,
      "ĠÑģÐºÑĢÑĭ": 4748,
      "ĠÐ²ÑĭÐ¿ÑĥÑģÐº": 4749,
      "ĠÐºÑĢÐ¾Ð²Ð¸": 4750,
      "ĠÐ¼ÐµÑĤÐ¾Ð´": 4751,
      "ĠÐ½Ð°Ð¼ÐµÑĢ": 4752,
      "ĠÑĥÐ¿ÑĢÑĥÐ³": 4753,
      "ĠÐ¿Ð¾Ð´Ð¾ÑĪÑĳÐ»": 4754,
      "âĢĵâĪŀâĢĵâĪĳ": 4755,
      "ĠÐ¾ÑģÑĤÐ°Ð»ÑģÑı": 4756,
      "ĠÐ¿Ð¾Ð·Ð¶Ðµ": 4757,
      "ĠÑĢÐµÑĩ": 4758,
      "15": 4759,
      "ÑĤÐ¾Ð½Ð°": 4760,
      "ĠÐ³ÑĢÐ°Ð¶": 4761,
      "ĠÐ¿ÑĢÐ¸Ð½ÑıÑĤÑĮ": 4762,
      "ĠÐºÐ¾Ð½ÑĤÑĢÐ¾Ð»": 4763,
      "Ð¼Ð¾ÑģÑĦ": 4764,
      "ĠÑĤÐµÑģ": 4765,
      "ÑĳÐ¶": 4766,
      "ĠÐ¾Ð±Ð¼": 4767,
      "ĠÐ¿Ð¾ÐºÐ°Ñĩ": 4768,
      "ĠÐ´Ð¾ÑģÑĤÐ°Ð»": 4769,
      "ĠÑĢÐ°Ð±Ð¾ÑĤÐ°": 4770,
      "Ð»Ð°Ñı": 4771,
      "ĠÐºÐ¾Ð»ÐµÐ½Ñı": 4772,
      "ĠÐ¶ÐµÑĢÑĤÐ²": 4773,
      "ĠÐ¤ÐµÐ¾Ð»Ð°": 4774,
      "ĠÐ±Ð»Ð°Ð¶": 4775,
      "ĠÐºÐ¾Ð¼Ð°Ð½Ð´": 4776,
      "ĠÐ¾ÑģÐ¾Ð·": 4777,
      "ĠÐ¼Ð¾Ð»Ð¾Ð´Ð¾Ð¹": 4778,
      "ĠÐ¾Ð´Ð½Ð°Ð¶Ð´Ñĭ": 4779,
      "ĠÐ¿ÑĢÐµÐ´Ð»Ð°Ð³": 4780,
      "ĠÐ¿ÑĢÐ¸Ð³Ð¾ÑĤÐ¾Ð²": 4781,
      "ĠÐ²Ð°Ð½Ð½ÑĥÑİ": 4782,
      "ĠÐ¾ÑĢÐ³Ð°Ð·Ð¼": 4783,
      "ĠÐ¿ÑģÐ¸ÑħÐ¾Ð»Ð¾Ð³": 4784,
      "ĠÑĤÑİ": 4785,
      "ĠÐ¾ÑĤÑģÑĤ": 4786,
      "Ð¸ÑĤÐµÐ»ÑĮÐ½ÑĭÐ¼": 4787,
      "ĠÐĵÐ¾ÑģÐ¿": 4788,
      "Ð¸ÑĩÐµÑģÐºÑĥÑİ": 4789,
      "ĠÑĢÐ°ÑģÑģÑĩÐ¸ÑĤ": 4790,
      "ĠÐķÐ¹": 4791,
      "//": 4792,
      "ĠÐ²ÐµÐ·": 4793,
      "ÑĢÐ°ÑĤÐ¸ÑĤÑĮ": 4794,
      "Ð»Ð¸ÑĤ": 4795,
      "ĠÑĥÐ´Ð¾Ð²Ð¾Ð»ÑĮÑģÑĤÐ²Ð¸ÐµÐ¼": 4796,
      "ĠÐ¿ÑĢÐµÐ´Ð»Ð¾Ð¶Ð¸Ð»": 4797,
      "ĠÐ²Ð¸ÑĢÑĤÑĥ": 4798,
      "ĠÐ·Ð°Ð½Ð¸Ð¼Ð°ÑĤÑĮÑģÑı": 4799,
      "ĠÐ·Ð²ÐµÑĢ": 4800,
      "ĠÐĴÐ¸ÑĤ": 4801,
      "ĠÐ½Ð°ÑĪÐµÐ»": 4802,
      "ĠÐĶÐ¸Ð¼Ð°": 4803,
      "ĠÐ¼Ð»Ð°Ð´": 4804,
      "ÑĤÐ¸Ð¼": 4805,
      "ĠÑħÑĢÐ¸ÑģÑĤÐ¸Ð°Ð½": 4806,
      "ÑıÑīÐ¸Ðµ": 4807,
      "ĠÑģÑĤÐµÑģÐ½Ñı": 4808,
      "ĠÑħÐ¸Ð¼": 4809,
      "ĠÐ¿ÑĢÐ¸ÑħÐ¾Ð´Ð¸Ð»Ð¾ÑģÑĮ": 4810,
      "Ġthe": 4811,
      "ĠÐ¿ÑĥÐ³": 4812,
      "Ð°Ð½Ð½Ð¾": 4813,
      "ÐµÐ»ÑĮÐµ": 4814,
      "ĠÐ¿ÐµÑĢÐ²ÑĥÑİ": 4815,
      "ĠÐ°Ð²ÑĤÐ¾Ð¼Ð°ÑĤ": 4816,
      "ĠÑĢÐµÑģ": 4817,
      "ĠÑģÐ¿Ð¸Ð½Ðµ": 4818,
      "ĠÐ³Ð¾Ð²Ð¾ÑĢÑıÑĤ": 4819,
      "ĠÐ¸Ð³ÑĢÐ°ÑĤÑĮ": 4820,
      "ĠÑĩÑĳÑĢ": 4821,
      "ĠÑģÐ°Ð¼Ð°Ñı": 4822,
      "ĠÐ¾Ð¿ÑĢÐ°Ð²": 4823,
      "ĠÐ¿ÑĢÐ¾Ð¼ÐµÐ¶Ð½Ð¾ÑģÑĤÑĮ": 4824,
      "ĠÐĴÑģÐºÐ¾ÑĢÐµ": 4825,
      "ĠÑĤÐµÑħÐ½Ð¾Ð»Ð¾Ð³Ð¸Ð¸": 4826,
      "ĠÐ¿ÑĢÐµÐ´Ð¿Ð¾Ñĩ": 4827,
      "ÑĨÐµÐ»": 4828,
      "ĠÐ¸Ð¼Ð¿": 4829,
      "ĠÑģÐ¾ÑĨÐ¸": 4830,
      "ĠÐ¸Ð½ÑģÑĤÑĢÑĥÐ¼ÐµÐ½ÑĤ": 4831,
      "ĠÐ·Ð°Ð¿Ð¸Ñģ": 4832,
      "ĠÑĩÑĥÐ´ÐµÑģ": 4833,
      "Ð¸ÐºÐ°Ð¼Ð¸": 4834,
      "ÐµÐ²ÐµÑĢ": 4835,
      "ĠÐłÑĥ": 4836,
      "ĠÐ¾Ð±Ð»ÐµÐ³": 4837,
      "ĠÐĹÐ°Ð¿": 4838,
      "ĠÐ¿ÐµÑĢÐ²ÑĭÐµ": 4839,
      "ĠÐ·ÐµÐ¼Ð»Ðµ": 4840,
      "Ð»Ð»Ñİ": 4841,
      "ĠÐ»ÐµÑģÑĤ": 4842,
      "ĠÑĤÐ¾Ð»Ñĩ": 4843,
      "ÐµÐ»ÑıÐ¼": 4844,
      "ÐµÑĤÑĥ": 4845,
      "ĠÐ¿ÑĢÐµÐ²Ð¾Ñģ": 4846,
      "ĠÑģÐ³": 4847,
      "ĠÑĤÐ²Ð¾ÐµÐ¹": 4848,
      "Ð´Ð¾Ð¹": 4849,
      "ĠÐ¾Ð±ÐµÑĢ": 4850,
      "ĠÐ¡Ð°ÑĪ": 4851,
      "Ð¾ÑĩÐ¸Ð»": 4852,
      "Ġ22": 4853,
      "ĠÐ¿ÑĢÐ¾Ð´ÑĥÐº": 4854,
      "ĠÐ·Ð°Ð±Ð»": 4855,
      "ĠÑĢÐ°Ð·Ð´ÐµÐ²": 4856,
      "ĠÐļÐ°Ð¶Ð´": 4857,
      "ĠÐ¿ÑĢÐ¾Ð¸Ð³": 4858,
      "ĠÐ¾ÑĤÑģÑİÐ´Ð°": 4859,
      "Ġ.": 4860,
      "Ð¾Ð¹Ð´Ñı": 4861,
      "Ð»ÑĭÐµ": 4862,
      "ĠÑįÐºÑĢÐ°": 4863,
      "ÑĢÐ¾Ð¶": 4864,
      "ĠÐ¼Ð¾ÐµÐ¼": 4865,
      "ĠÑĥÑĤÑĢÐ°": 4866,
      "ĠÐ¿Ð¾Ð³ÑĢÑĥÐ¶": 4867,
      "ĠÐ¿Ð»Ð°ÑĤÑĮÐµ": 4868,
      "ĠÐºÑĥ": 4869,
      "Ð»Ð¸ÑĩÐ½Ð¾": 4870,
      "ĠÐºÐ¾ÑĤÐ¾ÑĢÐ¾Ð¼Ñĥ": 4871,
      "ĠÑĤÑĢÐ¾Ð³": 4872,
      "ĠÑģÐ¼Ð¾Ð³Ñĥ": 4873,
      "Ð°Ð½Ð½ÑĭÐ¼": 4874,
      "ĠÐ¥Ð¾Ñĩ": 4875,
      "ĠÐ¿Ð¾Ð³ÑĢÑĥÐ·": 4876,
      "ĠÐ¾Ð±ÑĬÐµÐº": 4877,
      "ÑĪÐµÐ³Ð¾ÑģÑı": 4878,
      "ĠÑĥÑĢÐ¾Ð²Ð½Ðµ": 4879,
      "ĠÑģÑĤÐ°ÑĢÐ°ÑıÑģÑĮ": 4880,
      "ĠÐºÐ¾Ð½ÑĩÐ¸Ð»Ð°": 4881,
      "ĠÐ¿ÑĢÐ¸Ð½ÑĨÐ¸Ð¿Ðµ": 4882,
      "ĠÐ½Ð¾Ð²Ð¾Ðµ": 4883,
      "ĠÑģÐ¾ÑħÑĢÐ°Ð½Ð¸": 4884,
      "ĠÑĤÑĢÑĥÐ´Ð½Ð¾": 4885,
      "ĠÐ½Ð°ÑĩÐ¸Ð½Ð°ÐµÑĤ": 4886,
      "ĠÐ·Ð°ÑģÑĤÐ¾Ð½Ð°Ð»Ð°": 4887,
      "Ð°ÑĪÐµ": 4888,
      "ĠÐ¸Ð¼Ð¸": 4889,
      "ĠÐ¿Ð¾Ð´ÑĢÐ¾Ð±": 4890,
      "ĠÐ¿Ð¾Ð³Ð»Ð°Ð¶": 4891,
      "ĠÑģÐ¾ÑģÑĤÐ°Ð²Ð»Ñı": 4892,
      "ri": 4893,
      "ĠÑģÑħ": 4894,
      "Ð¾Ð½ÑĤ": 4895,
      "ĠÐ¿ÑĢÐ¸ÑģÑĤÑĥÐ¿": 4896,
      "ĠÐ¿Ð¾Ð»Ð¾ÑĤÐµÐ½": 4897,
      "ÐĴÑĭ": 4898,
      "ĠÑģÐ¾ÑĤÐ½Ð¸": 4899,
      "ĠÐ¿Ð¾Ð²ÐµÑĢÐ½ÑĥÐ»ÑģÑı": 4900,
      "and": 4901,
      "ĠÐ½Ð¸ÐºÐ¾Ð¼Ñĥ": 4902,
      "ĠÐ¿Ð¾Ð¼Ð½Ñİ": 4903,
      "ĠÐ±Ð»Ð¾Ðº": 4904,
      "ĠÐ¿Ð¾Ð»Ð¾Ð¶ÐµÐ½Ð¸Ðµ": 4905,
      "ĠÐ´Ð°Ð»ÑĮÐ½ÐµÐ¹": 4906,
      "ĠÐĹÐµÐ¼Ð»Ð¸": 4907,
      "ĠÐ±ÑĭÑģÑĤÑĢ": 4908,
      "ĠÐ»ÑİÐ±Ð¾Ð¿ÑĭÑĤ": 4909,
      "ĠÐ¾ÑģÑĤÐ°Ð½Ð¾Ð²Ð¸Ð»ÑģÑı": 4910,
      "tp": 4911,
      "ĠÐ¡ÐµÐ¹": 4912,
      "ÑĤÑĢÐ¾": 4913,
      "Ð½Ð¾Ð¿": 4914,
      "ÑĪÑĤÐ°Ð±": 4915,
      "ĠÐĿÐµÑģ": 4916,
      "ĠÐļÑĢÐ¾Ð¼Ðµ": 4917,
      "Ð°ÑĨÐ¸ÐµÐ¹": 4918,
      "ÐµÐ»ÐµÐ¿": 4919,
      "ĠÐĿÐµÐ¼": 4920,
      "ĠÐ²Ð½Ð¸Ð¼Ð°ÑĤÐµÐ»ÑĮÐ½Ð¾": 4921,
      "ĠÐ¸ÑģÐºÐ°ÑĤÑĮ": 4922,
      "ĠÑħÐ¾Ð·ÑıÐ¹": 4923,
      "Ð¾Ð´Ð¾Ð»": 4924,
      "ĠÑģÐµÐºÑģ": 4925,
      "ĠÐ°ÑĤÐ¼Ð¾ÑģÑĦ": 4926,
      "ĠÑģÑĤÑĥÐ´": 4927,
      "ĠÐľÐ°ÐºÑģÐ¸Ð¼": 4928,
      "ÑĭÐ²Ð°Ñİ": 4929,
      "ĠÐĴÐ°Ñģ": 4930,
      "ĠÐºÐ¾ÑĤÐ¾ÑĢÑĭÐ¼Ð¸": 4931,
      "ĠÐ¿Ð¾Ð·Ð¸": 4932,
      "ĠÑģÐµÑģÑĤÑĢÑĥ": 4933,
      "ÑĭÑĤÐ°": 4934,
      "Ð°ÐºÑĥ": 4935,
      "ĠÐļÐ¾Ð»": 4936,
      "ĠÐĽÐ¾": 4937,
      "ÑģÑĤÑĢÐµÑĩÑĥ": 4938,
      "Ð¾ÑĢÐ¾Ð½": 4939,
      "ĠÐĽÐ¸": 4940,
      "Ð¿ÐµÑĢÐ²": 4941,
      "ĠÐ´ÑĥÑħÐ¾Ð²": 4942,
      "ÑĥÑīÐµÑģÑĤÐ²": 4943,
      "ĠÐ²Ðº": 4944,
      "ĠÑģÐ¿ÐµÑĪ": 4945,
      "ÑĢÑĭÐ¼": 4946,
      "ĠÐ¿Ð¾ÐºÐ¾ÑĢ": 4947,
      "ĠÐĽÐ¸Ð·": 4948,
      "ĠÐ¿ÑĢÐ¸Ð²Ð¾Ð´": 4949,
      "ÑĭÑĤÑĮ": 4950,
      "ĠÐ¼ÐµÐ¶": 4951,
      "ÑĭÐ²Ð°ÑĤÑĮÑģÑı": 4952,
      "ĠÐ¡Ð¿Ð°ÑģÐ¸Ð±Ð¾": 4953,
      "17": 4954,
      "ĠÐºÐ¾Ð´": 4955,
      "ĠÐ±Ð¸ÑĤ": 4956,
      "Ð¸ÐºÐ¾Ð¹": 4957,
      "ÑĢÐ¾ÑģÐ¸Ð»": 4958,
      "ÑıÑīÐµÐ¹": 4959,
      "Ð°Ð½ÑĤÐ¸Ð¼": 4960,
      "://": 4961,
      "ÐµÐ½Ð½Ð¸": 4962,
      "ĠÐ¿ÑĢÐµÐ´ÑģÑĤ": 4963,
      "ĠÐºÐ¾Ð½ÑĩÐ¸ÑĤÑĮ": 4964,
      "ĠÐ¿Ð¾Ð¿Ñĥ": 4965,
      "ĠÐ¾Ð±ÑıÐ·Ð°ÑĤÐµÐ»ÑĮÐ½Ð¾": 4966,
      "ĠÐ§Ð°ÑģÑĤÑĮ": 4967,
      "ĠÐ»Ð°Ð´Ð¾Ð½ÑĮ": 4968,
      "ĠÑĤÑĢÐ°ÑħÐ°ÑĤÑĮ": 4969,
      "ĠÐ³Ð¾Ð²Ð¾ÑĢÐ¸Ð»Ð¸": 4970,
      "ÑıÑīÐ¸Ñħ": 4971,
      "ĠÐ¾ÑħÐ²Ð°ÑĤ": 4972,
      "Ð»Ð¾Ñĩ": 4973,
      "ĠÐ¿Ð¾ÐºÐ°Ð·Ð°Ð»Ð¾ÑģÑĮ": 4974,
      "ĠÑģÐ½Ð°": 4975,
      "ĠÐ²ÐµÐ»Ð¸ÐºÐ¾Ð»ÐµÐ¿": 4976,
      "II": 4977,
      "ĠÐŃÐ½": 4978,
      "ĠÐĺÐ¼ÐµÐ½Ð½Ð¾": 4979,
      "Ð¾Ð¾": 4980,
      "ĠÑĢÐ°ÑģÐ¿ÑĢÐ¾ÑģÑĤ": 4981,
      "ĠÐ¸Ð¼ÐµÑİÑĤ": 4982,
      "ĠÑĤÐº": 4983,
      "Ð½Ð¸ÑĤÐµ": 4984,
      "ĠÐ±ÑĥÐ´ÑĥÑīÐµÐ¼": 4985,
      "Ġ+": 4986,
      "ÑĢÐµÑī": 4987,
      "ĠÐ½Ð°ÑĢÑĥÑĪ": 4988,
      "ĠÐ°Ð¿": 4989,
      "ĠÑģÑĤÐ¾Ð»Ð°": 4990,
      "ĠÐĳÐ°ÑĢ": 4991,
      "ĠÐĵÐµÐ½": 4992,
      "Ð¸Ð½Ð¾Ð¼": 4993,
      "ÐµÐ²Ð°": 4994,
      "ĠÐ·Ð°Ð´ÐµÑĢÐ¶": 4995,
      "ĠÐ¼ÑĥÐ¶ÑĩÐ¸Ð½": 4996,
      "ĠÐ¿Ð¾Ð½Ð°Ð´Ð¾Ð±": 4997,
      "ĠÐ¾ÑĤÐºÐ¸": 4998,
      "ĠÐ²Ð¾Ð·Ð±ÑĥÐ¶Ð´ÐµÐ½Ð¸Ñı": 4999,
      ".\\\\\\": 5000,
      "ĠÐ½Ð°ÑĢÑĥÐ¶": 5001,
      "ĠÑĢÐ°Ð±Ð¾ÑĤÐ°ÐµÑĤ": 5002,
      "ĠÑĩÑĥÐ²ÑģÑĤÐ²Ð¾Ð²Ð°Ð»Ð°": 5003,
      "ĠÑĢÐ°Ð·Ð¼ÑĭÑĪ": 5004,
      "ĠÐºÐ»ÑİÑĩ": 5005,
      "ĠÐ¿ÑĢÐµÐ»": 5006,
      "ĠÐ¾ÑĤÐºÑĢÐ¾Ð²": 5007,
      "ĠÐ°Ð¼ÐµÑĢÐ¸ÐºÐ°Ð½": 5008,
      "Ð»ÐµÐ½Ð½ÑĭÐµ": 5009,
      "ĠÐ¼Ð¾Ð¶ÐµÑĤÐµ": 5010,
      "ĠÑĨÐµÐ»Ð¾Ð¼": 5011,
      "ĠÐĿÐ°ÑĤÐ°ÑĪÐ°": 5012,
      "Ð²ÑĪÐ¸ÑģÑĮ": 5013,
      "ÑģÑĤÐ²ÐµÐ½Ð½Ð°Ñı": 5014,
      "ĠÑĤÐ²Ð¾Ð¸": 5015,
      "ĠÐ³ÑĥÑģÑĤ": 5016,
      "ĠÑħÐ¸ÑĤ": 5017,
      "ĠÐ¿ÑĢÐµÐ´Ð¿Ð¾Ð»Ð¾Ð¶": 5018,
      "ĠÐ½Ð°Ð²ÑģÑĤÑĢÐµÑĩÑĥ": 5019,
      "ĠÑģÐ¾Ð±ÑģÑĤÐ²ÐµÐ½Ð½Ð¾Ð¹": 5020,
      "ĠÐ²ÑģÐºÑĢÐ¸Ðº": 5021,
      "ĠÐłÐ¾Ð±": 5022,
      "ĠÐ¿Ð¾Ð¶Ð°Ð»ÑĥÐ¹ÑģÑĤÐ°": 5023,
      "ĠÐ¿Ð¾Ð´Ð°Ð²": 5024,
      "ĠÑģÑĤÐ¾ÑıÐ»Ð¸": 5025,
      "ĠÐ¸Ð´ÐµÑı": 5026,
      "ĠÑĥÐ¿ÑĢÐ°Ð²Ð»ÐµÐ½Ð¸Ñı": 5027,
      "Ð¸Ð²Ð°Ð½Ð¸Ñı": 5028,
      "Ð¾ÐºÑĢÐ°": 5029,
      "ĠÐºÑĢÐ¾Ð²ÑĮ": 5030,
      "ĠÐ²ÑģÑĤÑĥÐ¿": 5031,
      "ÐºÐ½Ð¾Ð²": 5032,
      "ĠÑĩÑĳÐ¼": 5033,
      "ĠÐ²ÑĭÐ½ÑĥÐ¶": 5034,
      "ĠÑĥÑĩÑĳ": 5035,
      "ĠÐľÐ°Ð¹": 5036,
      "ĠÐ¿Ð¾Ð¼Ð¾ÑīÑĮ": 5037,
      "ĠÐ¤ÑĢÐ°Ð½": 5038,
      "ĠÑģÐ¾Ð»Ð´Ð°ÑĤ": 5039,
      "ĠÐºÐ°ÑģÐ°ÐµÑĤÑģÑı": 5040,
      "ÑĪÐµÐ´": 5041,
      "ĠÑĪÑĤÑĥ": 5042,
      "Ð¸Ð»Ð»Ð¸": 5043,
      "ĠÐ¿Ð¾ÑıÐ²Ð¸Ð»Ð°ÑģÑĮ": 5044,
      "ĠÐ·Ð°ÑīÐ¸ÑĤ": 5045,
      "ĠÐ¼Ð¸Ð½Ð¸Ð¼ÑĥÐ¼": 5046,
      "ĠÐ¡Ð°Ð´": 5047,
      "ÑĭÐ²Ð°ÐµÑĤÑģÑı": 5048,
      "ĠÐ»Ð¸ÑĨÑĥ": 5049,
      "ĠÐ¾Ð¿ÑĥÑģÐº": 5050,
      "ĠÑĥÐ³Ð¾Ð´Ð½Ð¾": 5051,
      "ĠÐ²Ð¾Ð¹Ð½Ð°": 5052,
      "ĠÐ·Ð°Ð±Ð¾ÑĤ": 5053,
      "ĠÐ»Ð¾Ðº": 5054,
      "Ġ200": 5055,
      "ĠÐ³Ð¾Ð²Ð¾ÑĢÐ¸Ð»Ð°": 5056,
      "ĠL": 5057,
      "ĠÐ¿Ð¾Ð»ÑĥÑĩÐ¸Ð»Ð¾ÑģÑĮ": 5058,
      "ĠÐ¿Ð°Ð»ÑĮÑĩÐ¸Ðº": 5059,
      "ĠÐłÐ°Ð·Ð²Ðµ": 5060,
      "ĠÑĦÐ°ÐºÑĤ": 5061,
      "ĠÐ´Ð¸ÑĢÐµÐº": 5062,
      "ĠÐĽÑİÐ´Ð¸": 5063,
      "ch": 5064,
      "ÑģÑģ": 5065,
      "ĠÐ²Ð¾ÑģÐµÐ¼ÑĮ": 5066,
      "ĠÐ½Ð°Ð·Ð½Ð°Ñĩ": 5067,
      "ĠÐ¿ÑĢÐµÐ´Ð¿ÑĢÐ¸": 5068,
      "ĠÐ¿ÑĢÐ°Ð·Ð´": 5069,
      "ÑģÐºÐ°": 5070,
      "ĠÐ»ÑĳÐ³": 5071,
      "ĠÑĤÐ°Ð»Ð¸": 5072,
      "ĠÐ²ÑĢÐµÐ´": 5073,
      "ÑıÑĩ": 5074,
      "ĠÐ¿ÑĮÑı": 5075,
      "ĠÐ±Ð¾Ð¶Ðµ": 5076,
      "ĠÐ·Ð°ÐºÐ»Ð¸Ð½Ð°": 5077,
      "ĠÐ½ÑĥÐ¶Ð½Ð°": 5078,
      "ĠÐľÐ¾Ð¸": 5079,
      "ĠÐ´Ð¾ÑģÑĤÐ¸Ð¶": 5080,
      "ĠÑĪÐºÐ¾Ð»Ñĭ": 5081,
      "ĠÑģÑĤÑĢÑĥÐº": 5082,
      "ÑĤÐ¾ÑĢÐ¾Ð¼": 5083,
      "Ġg": 5084,
      "ĠÑĪÐµÐ¿": 5085,
      "ĠÑĥÑĩÐ¸ÑĤÐµÐ»ÑĮ": 5086,
      "ÑĥÐ¶Ð´ÐµÐ½Ð¸Ñı": 5087,
      "ĠÑģÐ¸Ð¼Ð¿": 5088,
      "Ð°Ð»Ð¾Ð¼": 5089,
      "ĠÑĥÐ±Ð¸ÑĤÑĮ": 5090,
      "ĠÐ´ÑĥÐ¼Ð°Ð»Ð°": 5091,
      "ĠÑĢÐ¾Ð¼": 5092,
      "ĠÐŁÑĢÐ¸Ð¼": 5093,
      "ĠÐºÑĥÑħÐ½Ñİ": 5094,
      "ĠÐ²Ð¸Ð´Ð°": 5095,
      "ĠÐķÐ¼Ñĥ": 5096,
      "ĠÑĦÐ¾ÑĢÐ¼Ñĭ": 5097,
      "ĠÐ²Ð¾Ð·Ð´ÐµÐ¹ÑģÑĤÐ²": 5098,
      "ĠÑĢÐ¾Ð»ÑĮ": 5099,
      "ĠÐ¾Ð±ÐµÐ´": 5100,
      "ÑĥÑģÐ°": 5101,
      "ent": 5102,
      "ĠÑĤÐµÑĤÑı": 5103,
      "ĠÐ±Ð¸Ð¾Ð»Ð¾Ð³": 5104,
      "ĠÐ¿Ð¾Ð´ÑĬ": 5105,
      "ĠÐĶÐµÐ½Ð¸Ñģ": 5106,
      "ÑĨÐ¸ÐµÐ¹": 5107,
      "ĠÐ¸Ð»Ð»Ñİ": 5108,
      "ĠÐ²ÑĭÑĪÐ»Ð¸": 5109,
      "ĠÐ¾ÑģÑĤÐ°Ð²Ð°Ð»Ð¾ÑģÑĮ": 5110,
      "ĠÐ³Ð¾ÑĢÐ¾Ð´Ðµ": 5111,
      "ÐµÐºÑĥ": 5112,
      "ĠÐ¿Ð¾ÐºÑĥÐ¿": 5113,
      "ĠÑģÑĤÐµÐ½Ñĭ": 5114,
      "ĠÐ·Ð°ÐºÑĢÐ¸": 5115,
      "ĠÐ·Ð°Ð¿Ð¾Ð»": 5116,
      "ĠÑĪÑĤÐ°Ð½Ñĭ": 5117,
      "ÑĤÐ¾Ð¹": 5118,
      "ĠÐ¿Ð¸ÑĤ": 5119,
      "Ð½Ð¾Ñĩ": 5120,
      "ĠÐ¿Ð¾Ð´Ñģ": 5121,
      "ĠÑħÐ¾Ð»": 5122,
      "ÑĢÐ¾Ð¸Ð·": 5123,
      "ĠÐ½ÐµÐ´Ð°Ð²Ð½Ð¾": 5124,
      "ĠÐ¼ÐµÑģÑıÑĨÐ°": 5125,
      "ÐµÐ³Ð¾ÑĢÐ¸Ñı": 5126,
      "ĠÐ¿Ð¾ÑĢÑıÐ´ÐºÐµ": 5127,
      "ĠÑĤÐ°ÐºÐ¸Ð¼Ð¸": 5128,
      "ĠÐ·Ð°Ð»ÐµÐ·": 5129,
      "ĠÐļÐ°ÑĥÐ¿ÐµÑĢÐ²ÑĥÐ´Ð°": 5130,
      "ĠÐ¿ÑĢÐµÐ´ÑĥÐ¿": 5131,
      "ĠÐ»Ð¸ÑĦÑĩÐ¸Ðº": 5132,
      "ĠÐĴÑĤÐ¾ÑĢ": 5133,
      "ĠÐ¿ÑĢÐ¸Ð¼ÐµÐ½": 5134,
      "ĠÑĥÑĤÑĢÐ¾": 5135,
      "ĠÐ½Ð°Ð¿Ð°Ð´": 5136,
      "ĠÐ´ÐµÑģÑıÑĤÐ¸": 5137,
      "ĠÐ²Ð¾Ð¾ÑĢÑĥÐ¶": 5138,
      "ĠÑģÐ¼ÐµÑĢÑĤÑĮ": 5139,
      "Ð¾ÑĢÐµ": 5140,
      "ÐµÐ¹Ð½": 5141,
      "ĠÑĥÐ·Ð½Ð°Ð»": 5142,
      "ĠÑĥÐ¼Ð¸": 5143,
      "ĠÐ¿ÑĢÐµÐ´ÐµÐ»": 5144,
      "ÐµÑıÐ»Ð°ÑģÑĮ": 5145,
      "ĠÐŁÑĢÐ¾ÑĪ": 5146,
      "ĠÐ¢Ð°Ð½": 5147,
      "ĠÐŃÐ»": 5148,
      "ĠÐ¼Ð¾Ñĳ": 5149,
      "ĠÂł": 5150,
      "ÑĤÑĢÐ°Ðº": 5151,
      "Ð¾ÑĢÑıÐ´": 5152,
      "ĠÐ¡Ð¾Ð»": 5153,
      "ĠÐ¡ÐµÐ¹Ð±ÐµÐ»": 5154,
      "Ð¸Ð¼Ð°": 5155,
      "ÑĳÑĤÐµ": 5156,
      "Ð¸ÑıÐ¼Ð¸": 5157,
      "ĠÑĩÐ»ÐµÐ½Ñĥ": 5158,
      "ĠÐ¿ÑĢÐ¸Ð½ÑıÐ»Ð°ÑģÑĮ": 5159,
      "ĠÑģÐ»ÑĥÑĩÐ°Ð¹Ð½Ð¾": 5160,
      "Ð²Ð°Ð»Ð°": 5161,
      "ÐµÑĢÑĮÑİ": 5162,
      "ĠÐ¢Ð°ÐºÐ¸Ð¼": 5163,
      "ĠÐ¡ÐµÑĢÐµÐ¶": 5164,
      "ĠÑĤÐ¾Ð²Ð°ÑĢÐ¸Ñī": 5165,
      "Ð¸ÑĩÑĮ": 5166,
      "ĠÐ¿ÑĢÐµÐ´ÑģÑĤÐ°Ð²Ð¸ÑĤÑĮ": 5167,
      "ÑİÑĢ": 5168,
      "ĠÑģÐ½Ð¸": 5169,
      "ĠÐ·Ð²ÑĳÐ·Ð´": 5170,
      "ĠÑģÐ¸ÑĤÑĥÐ°ÑĨÐ¸Ð¸": 5171,
      "ĠÐĿÐ°Ð²ÐµÑĢÐ½Ð¾Ðµ": 5172,
      "Ð¾Ð±Ð½Ð¾": 5173,
      "ĠÐĿÐ°Ð·Ð²": 5174,
      "Ð¸ÑĤÐµÑģÑĮ": 5175,
      "ĠÐ¼Ð¾ÑĢÐ°Ð»Ð¸": 5176,
      "ĠÂłÂł": 5177,
      "ĠÐ¿Ð¾Ð²Ð¾ÑĢ": 5178,
      "ĠÑĥÐ±Ð¸Ð¹": 5179,
      "ĠÐ¾ÑĤÑĩÐ°Ñı": 5180,
      "Ð²Ð¸Ð½": 5181,
      "Ð¾Ð²Ð°Ð»Ð°ÑģÑĮ": 5182,
      "ĠÑģÐ´ÐµÐ»Ð°Ð»Ð¸": 5183,
      "ĠÑģÐ°Ð½ÑĤÐ¸Ð¼": 5184,
      "ĠÐĲÐ½Ð¶": 5185,
      "ĠÐ¿ÑĢÐ°Ð²Ð¸ÑĤÐµÐ»ÑĮ": 5186,
      "ĠÑģÐ½ÑıÐ»Ð°": 5187,
      "ĠÑĨÐ¸Ð²Ð¸Ð»Ð¸Ð·Ð°ÑĨÐ¸Ð¸": 5188,
      "ĠÐ¾ÑĤÑģÑĤÑĥÐ¿": 5189,
      "ĠÐ³Ð¾ÑģÑĤ": 5190,
      "ÑıÑĤÐ¸Ðµ": 5191,
      "ĠÑĦÑĥÑĤÐ±Ð¾Ð»": 5192,
      "ÑĥÑģÑĤÐ¸ÑĤÑĮ": 5193,
      "ĠÑħÐ¾ÑĤÐ¸ÑĤÐµ": 5194,
      "ĠÐĲÑĢÑĤÐµÐ¼": 5195,
      "ĠÐ²ÑĭÐº": 5196,
      "ĠÐ¼Ð¾ÑĢÐµ": 5197,
      "ĠÐ¼Ð°Ð³Ð°Ð·": 5198,
      "ĠÐ¸ÑĤÐ¾Ð³Ðµ": 5199,
      "ÑıÐº": 5200,
      "ĠÑĢÐ¸ÑĤ": 5201,
      "ĠÑĢÐ°Ð·Ð³Ð¾Ð²Ð°ÑĢ": 5202,
      "Ð¾Ð²Ð°Ñı": 5203,
      "Ð¿ÑĢÐµÐ¶": 5204,
      "Ð¾ÑĤÐ¾Ð¼": 5205,
      "ĠÐ¾ÑĩÐµÑĢÐµÐ´Ð½Ð¾Ð¹": 5206,
      "25": 5207,
      "Ð°ÑĤÑĥÑĢ": 5208,
      "ĠÐ¼Ð¸ÑģÑĤÐµÑĢ": 5209,
      "ĠÐ¿Ð¾Ð´ÑĥÐ¼Ð°Ð»Ð°": 5210,
      "ÑħÐ¸": 5211,
      "ĠÐ¿Ð¾ÑĤÑĢÑıÑģ": 5212,
      "ĠÐ¿Ð¾Ð²ÐµÑĢÐ½ÑĥÐ»Ð°ÑģÑĮ": 5213,
      "ĠÐ°ÑĢÐ¼Ð¸Ð¸": 5214,
      "Ð¿Ð¸": 5215,
      "Ð¸Ð²Ð°": 5216,
      "ĠÐĸÐµÐ½ÑīÐ¸Ð½Ð°": 5217,
      "ÑĢÐ¸Ð³": 5218,
      "ĠÐ¿ÑĢÐ¾Ð¸Ð·Ð²ÐµÐ´": 5219,
      "ĠÐºÐ°Ð¶": 5220,
      "ĠÑģÑĤÑı": 5221,
      "ĠÐĹÐ°Ð²": 5222,
      "ĠÑģÐ¿ÐµÑĢÐ¼Ð°": 5223,
      "Ð»Ð°Ð¼": 5224,
      "ĠÑįÐ¼Ð¾": 5225,
      "ĠÐ¿ÑĢÐ¸Ð¾ÑĤÐº": 5226,
      "ĠÐĲÐ¹": 5227,
      "ĠÐĺÑĤÐ°Ðº": 5228,
      "ĠÐ²ÑģÑıÐºÐ¸Ð¹": 5229,
      "ĠÐ³Ð½Ð¾Ð¼": 5230,
      "Ð°Ð´Ð°": 5231,
      "Ð½ÐµÑģÑĤÐ¸": 5232,
      "ÑĢÐ¸ÑĢÐ¾Ð²": 5233,
      "ĠÐ½Ð¸ÐºÐ°ÐºÐ¾Ð¹": 5234,
      "ĠÐ±ÑĥÐ´ÑĥÑīÐµÐµ": 5235,
      "ĠÐºÐ¾Ð»ÐµÐ½ÑıÑħ": 5236,
      "ĠÑĩÐµÑģÑĤÐ½Ð¾": 5237,
      "ĠÐ½Ð°ÑĩÐ°Ð»Ðµ": 5238,
      "ĠÐ·ÐµÐ¼Ð»Ñı": 5239,
      "ĠÐĹÐµÐ¼Ð»Ðµ": 5240,
      "ĠÐ¾ÑģÑĤÐ°Ð½Ð°Ð²Ð»Ð¸Ð²": 5241,
      "ĠÐ²Ð¾ÑģÐ¿ÑĢÐ¸Ð½Ð¸Ð¼": 5242,
      "Ð°ÑĢÐ°Ð½": 5243,
      "ĠÑĪÐ¾ÑĢ": 5244,
      "ĠÐ¾ÑģÐ²Ð¾Ð±Ð¾Ð´": 5245,
      "ĠÑĩÐ¸ÑģÐ»Ðµ": 5246,
      "ÑĢÑĥÑĤ": 5247,
      "Ð¸ÑģÐ°": 5248,
      "ĠÑĢÐ°Ð±Ð¾ÑĤÐ°Ð»": 5249,
      "ĠÑĥÐ³Ð¾Ð»": 5250,
      "ĠÐ²Ð»Ð°ÑģÑĤÑĮ": 5251,
      "ĠÐ½Ð¾ÑĢÐ¼Ð°Ð»ÑĮÐ½Ð¾": 5252,
      "ĠÐ¿ÑĢÐ¾ÑĪÐµÐ»": 5253,
      "ĠÐĳÐ¾Ð³": 5254,
      "ĠÐ½ÐµÐ¼ÐµÐ´Ð»ÐµÐ½Ð½Ð¾": 5255,
      "ĠÐŀÑħ": 5256,
      "ÑģÐ¿Ð¾ÑģÐ¾Ð±": 5257,
      "ÑĥÑģÑĤÐ¸Ð»Ð°": 5258,
      "ÐµÐ½Ð¸ÑĢÐ¾Ð²": 5259,
      "Ġ23": 5260,
      "ĠÑĢÐ¾Ð´Ð¸ÑĤÐµÐ»ÐµÐ¹": 5261,
      "ĠÐ¾ÑĤÑĢÐ°Ð¶": 5262,
      "ĠÐ¿Ð¾ÑıÐ²Ð¸Ð»ÑģÑı": 5263,
      "ĠÑĢÐ°Ð½Ð¾": 5264,
      "ĠÐ»Ð°Ð¿": 5265,
      "ĠÐŁÑĥÑģÑĤÑĮ": 5266,
      "ĠÐ²ÐµÑģÑĤÐ¸": 5267,
      "Ð»Ð¾Ñī": 5268,
      "ĠÐºÑĢÐ¸ÑĤ": 5269,
      "ĠÐ½ÑĢÐ°Ð²Ð¸Ð»Ð¾ÑģÑĮ": 5270,
      "ĠÐ´ÑĥÑĪÐµ": 5271,
      "il": 5272,
      "ĠÐ²Ð¸Ð½Ð¾Ð²": 5273,
      "ĠÐŁÐ¾Ð·": 5274,
      "ÑģÑĤÐ²Ð¾Ð²Ð°Ð»": 5275,
      "ĠÐ½ÐµÐ±Ð¾": 5276,
      "ÑĢÐµÐ¶Ð´": 5277,
      "Ð¸Ð´ÐµÐ½ÑĤ": 5278,
      "ĠÑĥÑģÑĤÐ°Ð»": 5279,
      "ÐľÑĭ": 5280,
      "ĠÐ½Ð¾Ð¼ÐµÑĢ": 5281,
      "ÐĻ": 5282,
      "ĠÐĶÑĢÑĥÐ³": 5283,
      "Ġ26": 5284,
      "ĠÐ¿ÑĢÐ¸ÑĪÐ»Ð¸": 5285,
      "ĠÐĿÐ°Ð·Ð²Ð°Ð½Ð¸Ðµ": 5286,
      "14": 5287,
      "Ġe": 5288,
      "Ð°ÑĨÐ¸Ð¹": 5289,
      "ĠÐ´Ð¶Ð¸Ð½": 5290,
      "ÐµÑħÐ°Ð»Ð¸": 5291,
      "Ð½Ð°Ð·": 5292,
      "ĠÐ½Ð°ÑĩÐ°Ð»ÑĮ": 5293,
      "ĠÐĽÑİÐ´": 5294,
      "Ð²Ð¾ÑģÑĤ": 5295,
      "ĠÐ§Ð»ÐµÐ½": 5296,
      "ĠÐŁÐ¾Ñħ": 5297,
      "ĠÐºÐ°Ð¶Ð´Ð¾Ð¹": 5298,
      "Ġ30": 5299,
      "ĠÑħÐ»Ð¾Ð¿": 5300,
      "ĠÐ·Ð½Ð°Ð»Ð¸": 5301,
      "ĠÑģÐ»Ð°Ð²": 5302,
      "ĠÐ´ÑĢÑĥÐ³Ð¸Ð¼Ð¸": 5303,
      "ĠÐ¿Ð¾Ð·Ð²Ð¾": 5304,
      "ĠÑıÐ·ÑĭÐºÐ°": 5305,
      "ĠÑģÑĢÐ°Ð²Ð½": 5306,
      "ĠÑģÑĨÐµÐ½": 5307,
      "ĠÐŁÐ¾Ð¿": 5308,
      "ĠÑħÐ¾ÑĤÑıÑĤ": 5309,
      "ĠÐ²Ð½Ð¸Ð·Ñĥ": 5310,
      "ĠÐ½ÐµÐ¿Ð¾Ð´": 5311,
      "ĠÐ¾ÑĦÐ¸ÑĨ": 5312,
      "ĠÐ²ÑģÐ»ÐµÐ´": 5313,
      "ĠÐ»ÐµÐ²": 5314,
      "ĠÐ±ÐµÑģÑģ": 5315,
      "ĠÐºÑĥÐ»": 5316,
      "ĠÐ»ÐµÐº": 5317,
      "ĠÑĪÐ»Ð¸": 5318,
      "ĠÑĥÐ»Ð¸ÑĨÐµ": 5319,
      "ĠÐ²ÐµÑĢÐ¾ÑıÑĤÐ½Ð¾": 5320,
      "];": 5321,
      "ĠÑģÑĢÐ°Ð¶": 5322,
      "ĠW": 5323,
      "Ð½Ð¸Ð»Ð¸": 5324,
      "Ð´Ð°ÐµÑĤ": 5325,
      "ĠÐ¿Ð¾ÑģÐ»ÐµÐ´Ð½ÐµÐµ": 5326,
      "ĠÐŀÐ»ÑĮÐ³Ð°": 5327,
      "Ð¿ÑĢÐµÐ¶Ð½ÐµÐ¼Ñĥ": 5328,
      "ĠÐ¿ÑĢÐµÐ²ÑĢÐ°Ñī": 5329,
      "ĠÐ²ÑĭÑģÑĤÐ°Ð²": 5330,
      "Ð¾Ð¿Ð»Ð°Ð½ÐµÑĤ": 5331,
      "ĠÑģÐ»ÑĥÑĩÐ°Ñı": 5332,
      "ĠÐ¿Ð¾Ð¿ÑĢÐ¾ÑģÐ¸Ð»Ð°": 5333,
      "ĠÑģÑĤÐ¾Ð½Ð°Ð»Ð°": 5334,
      "ĠÐ²ÑĢÐµÐ¼ÐµÐ½Ð°": 5335,
      "ĠÑģÐµÐºÑģÐ°": 5336,
      "ĠÐ¼Ð½Ð¾Ð³Ð¾Ðµ": 5337,
      "ĠÐ¿Ð¾Ð²ÐµÑĢÑħÐ½Ð¾ÑģÑĤÐ¸": 5338,
      "ĠÑĤÑĢÑĥÐ±": 5339,
      "ĠÐ´Ð°Ð½Ð½ÑĭÐµ": 5340,
      "ĠÐ²ÐµÐºÐ°": 5341,
      "ĠÐ¿Ð¾Ð´Ðº": 5342,
      "ĠÑĦÑĢÐ°Ð½ÑĨÑĥÐ·": 5343,
      "ĠÐ¿ÑĢÐ¾Ð±Ð»ÐµÐ¼Ð°": 5344,
      "ĠÐ¡ÑĤÐ°": 5345,
      "ĠÑģÐ¾Ð·Ð´Ð°Ð½Ð¸Ñı": 5346,
      "ĠÐ¿Ð¾Ð¼Ð¾ÑīÐ¸": 5347,
      "ĠÐ±ÑĥÐ´ÑĮ": 5348,
      "ĠÐ¾ÐºÐ¾Ð½ÑĩÐ°ÑĤÐµÐ»ÑĮÐ½Ð¾": 5349,
      "ĠÐĿÐ°Ð¿Ð¾Ð»ÐµÐ¾Ð½": 5350,
      "Ġ_": 5351,
      "ĠÐºÐ¾ÑĦ": 5352,
      "ĠÑģÐ¼ÑĥÑĤ": 5353,
      "ĠÐ¿ÑĢÐ¸ÐºÑĢÑĭ": 5354,
      "ĠG": 5355,
      "ĠÐľÐ°ÑĤÑĮ": 5356,
      "ĠÑĥÐ´Ð°Ð»": 5357,
      "ĠÐ½ÐµÐ±Ð¾Ð»ÑĮ": 5358,
      "ĠÑĤÐµÑģÑĤ": 5359,
      "Ð¸ÑĤÐ¸Ð²": 5360,
      "ĠÐ¡ÐµÐ³Ð¾Ð´Ð½Ñı": 5361,
      "ĠÐ·Ð°ÑĤÐ¾": 5362,
      "âĢĵâĪŀâĢĵâĪ«": 5363,
      "ĠÐ¶Ð¸Ð»": 5364,
      "ĠÐ¶Ð´Ð°Ð»": 5365,
      "ĠÐ²ÑĭÐ»Ð¸Ð·": 5366,
      "ĠÐ´Ð¾Ð¼Ðµ": 5367,
      "ĠÐ·Ð²ÑĥÑĩ": 5368,
      "ĠÑĢÐµÐ·ÑĥÐ»ÑĮÑĤÐ°ÑĤÐµ": 5369,
      "ĠÐ¾ÑĨ": 5370,
      "Ð°Ð»Ð»": 5371,
      "Ð°Ð½Ð½ÑĥÑİ": 5372,
      "ĠÐºÐ°ÐºÐ¾Ð¼": 5373,
      "ĠÐ¿ÑĢÐ¾Ñī": 5374,
      "ĠÑģÑĩÐ¸ÑĤÐ°ÑĤÑĮ": 5375,
      "ÐµÑģÑģÐ°": 5376,
      "ĠÐ¿Ð¸ÑĪ": 5377,
      "Ð¾Ð²ÑĭÐ¼": 5378,
      "ÐµÑĤÐ¸Ð¹": 5379,
      "ĠÐ¡ÑĤÐ°ÑĢ": 5380,
      "Ð¸ÑĪÑĮÑģÑı": 5381,
      "Ð¾ÑģÐ¿ÐµÑħ": 5382,
      "ĠÐ¿Ð»Ð¾ÑīÐ°Ð´": 5383,
      "ĠÐ½ÐµÐ¿Ð»Ð¾": 5384,
      "ĠÐ½Ð¾Ð²ÑĥÑİ": 5385,
      "ĠÑįÑĦÑĦÐµÐºÑĤÐ¸Ð²": 5386,
      "Ð»ÑĥÐ¶": 5387,
      "ĠÐ¼Ð°Ñħ": 5388,
      "ĠÐºÐ¾Ð½ÐµÑĩ": 5389,
      "ĠÑĢÐ¸Ñģ": 5390,
      "ĠÑĢÐµÐ¶": 5391,
      "ĠÐ°Ð»ÑĮ": 5392,
      "ĠÐ³ÑĢÑĥÐ·": 5393,
      "ÑĩÐ°ÑĤ": 5394,
      "ĠÐ¾Ð´ÐµÑı": 5395,
      "ĠÐ²Ð¾ÑģÑģÑĤÐ°Ð½Ð¾Ð²": 5396,
      "ĠÐ¿Ð»Ñı": 5397,
      "ÑİÐ¼": 5398,
      "Ð°ÐµÐ¼ÑģÑı": 5399,
      "ĠÐ¾ÑĢÑĥÐ¶Ð¸Ñı": 5400,
      "ĠÐ½Ð°Ð»Ð¸": 5401,
      "Ð¾ÑģÐ¼Ð¾ÑĤÑĢ": 5402,
      "ĠÐ·Ð°ÑīÐ¸Ñī": 5403,
      "ĠÐ¿ÑĢÐ¾Ð´Ð¾Ð»Ð¶Ð¸Ð»": 5404,
      "Ð»Ð¾Ð¹": 5405,
      "ĠÐĴÐ´ÑĢÑĥÐ³": 5406,
      "ĠÐļÐ°ÑĤÐµÐ³Ð¾ÑĢÐ¸Ñı": 5407,
      "ĠÐ½ÐµÑĩÐµÐ³Ð¾": 5408,
      "ĠÐ§ÐµÐ¼": 5409,
      "ĠÐĲÑħ": 5410,
      "ĠÐºÐ¾Ð¼Ð¿Ð»ÐµÐº": 5411,
      "ÑıÐ±": 5412,
      "ĠÐ¿ÐµÑĢÐµÐ´Ð¾": 5413,
      "ĠÐºÐ°Ð¶Ð´Ð¾Ð¼": 5414,
      "ĠÐ´ÑĥÑĪÐ°": 5415,
      "ĠÐĳÐµÑĤ": 5416,
      "ĠÐ¿Ð¾ÑģÑĤÐµÐ»Ð¸": 5417,
      "Ð°ÑĤÑĮÑı": 5418,
      "ĠÐłÐ¾Ð´": 5419,
      "ĠÑģÐºÐ°Ð¶Ñĥ": 5420,
      "ĠÐ´ÐµÐ»Ð°Ð»Ð°": 5421,
      "ĠÑģÑĤÑĢÐ°Ð½Ð½Ð¾": 5422,
      "ĠÐ¿ÑĢÐµÐ²Ð¾ÑģÑħÐ¾Ð´": 5423,
      "ĠÐ²ÑĭÑģÑĤÑĢÐµÐ»": 5424,
      "ÑĢÐ¾Ñħ": 5425,
      "ĠÐ·Ð°Ð´Ð½Ð¸ÑĨÑĥ": 5426,
      "ĠÐ¿ÑĥÑĤÐµÑĪÐµ": 5427,
      "ĠÐ¿ÑĢÐ°Ð²Ð¸Ð»ÑĮ": 5428,
      "ÑĥÐ¶Ð´ÐµÐ½Ð¸Ðµ": 5429,
      "ĠÐ¿Ð¸Ð»": 5430,
      "ĠÑĨÐµÐ»ÑĭÐ¹": 5431,
      "ĠÐ²ÑĭÐ²": 5432,
      "ÐµÐ½ÑĮÐºÐ°Ñı": 5433,
      "ĠÐ½Ð°ÑĪÐµÐ¼": 5434,
      "ĠÐ¿ÑĢÐ¾ÑĤÐ¸Ð²Ð½Ð¸ÐºÐ°": 5435,
      "ĠÐ²Ð´Ð¾Ð»ÑĮ": 5436,
      "ĠÑĤÑĥÐ°Ð»ÐµÑĤ": 5437,
      "ĠÐºÐ»ÐµÑĤ": 5438,
      "ĠÐ±ÐµÑģÑģÐ¼": 5439,
      "ÑĩÐ¸Ð½Ð°": 5440,
      "ĠÐ³Ð¾ÑĢÐ»Ð¾": 5441,
      "ĠÑģÐ¾Ð¼Ð½ÐµÐ²": 5442,
      "ĠÐ²Ð°ÑĪÐ¸": 5443,
      "ĠÐ³Ð¾ÑĤÐ¾Ð²Ð°": 5444,
      "ĠÑĩÑĥÐ´Ð¾Ð²": 5445,
      "ÑĤÐ¾Ð³Ð¾": 5446,
      "ÑİÐ½": 5447,
      "Ð°Ð²ÑĪÐ¸Ðµ": 5448,
      "ÑĳÐ²": 5449,
      "ĠÐ¥Ð¾Ð·Ñı": 5450,
      "ĠÐ³ÑĢÐ¾Ð·": 5451,
      "ĠÐ¾Ð³Ð¾Ð½ÑĮ": 5452,
      "ĠE": 5453,
      "ĠÐ²Ð°Ð³": 5454,
      "ĠÐµÐ´": 5455,
      "ĠÐĿÐµÑģÐº": 5456,
      "ÑİÑīÐ°Ñı": 5457,
      "ĠÐ¼Ð³Ð½Ð¾Ð²ÐµÐ½Ð½Ð¾": 5458,
      "Ð¼Ð°ÑĢ": 5459,
      "Ð¾Ð²Ð°Ð»Ð¾ÑģÑĮ": 5460,
      "ĠÑĩÐµÑģÑĤ": 5461,
      "ĠÑĩÑĢÐµÐ·": 5462,
      "ĠÐ¼Ð¾Ð¼ÐµÐ½ÑĤÐ°": 5463,
      "ĠâĢĵâĪ«âĢĵ": 5464,
      "ĠÐ¿ÑĢÐ¸ÑĢÐ¾Ð´Ñĭ": 5465,
      "ÐµÐ»ÐµÐ½Ð½Ð¾Ð¹": 5466,
      "ĠÐ¿Ð¾Ñį": 5467,
      "ĠÐ¾ÑĢÑĥÐ´": 5468,
      "ĠÐĴÑģÑı": 5469,
      "ĠÐ¼Ð°ÑģÑĤÐµÑĢ": 5470,
      "ĠÐ½Ð°ÑģÑĤÐ¾ÑıÑīÐ¸Ð¹": 5471,
      "ad": 5472,
      "un": 5473,
      "Ð°Ð»Ðº": 5474,
      "ĠÐ·Ð²Ð¾Ð½": 5475,
      "ĠÐ¿Ð¾Ð¹ÑĤÐ¸": 5476,
      "Ð¸Ð½Ð°Ñı": 5477,
      "ĠÐ²Ð²Ð¾Ð´": 5478,
      "ÑĢÑĥÐ±": 5479,
      "ÑĳÐ¿": 5480,
      "ĠÐ¡Ð¾Ð»Ð½": 5481,
      "ÑĢÐ¾ÑĦ": 5482,
      "ĠÐ±Ð¾Ð»ÑĮÑĪÐ¸Ð½ÑģÑĤÐ²Ð¾": 5483,
      "ĠÑĩÐ°ÑīÐµ": 5484,
      "ĠÐ¿Ð°ÑĤ": 5485,
      "ĠÑģÐ»Ð¾": 5486,
      "ĠâĢĵâī¥": 5487,
      "ĠÐ±ÑĢÐ¾Ð½": 5488,
      "'.": 5489,
      "ĠÐ¿ÑĢÐ¾Ð¶": 5490,
      "ĠÑģÐ¿ÑĢÑıÑĤ": 5491,
      "ĠÐ²Ð¾Ð·Ð±ÑĥÐ¶Ð´Ð°": 5492,
      "Ð¾ÑĩÐºÐ¾Ð¹": 5493,
      "Ð°Ð»ÑĮÐ½ÑĭÐ¼Ð¸": 5494,
      "ĠÑģÑĤÐ¾Ð»Ð¸": 5495,
      "ĠÐºÑģÑĤÐ°ÑĤÐ¸": 5496,
      "Ð°ÑİÑīÐµÐµ": 5497,
      "ĠÑģÑĤÐ¾ÑĢÐ¾Ð½Ðµ": 5498,
      "ĠÐ½ÐµÐ¿Ð¾Ð½": 5499,
      "ĠÑĢÐ¾ÑĤÐ¸Ðº": 5500,
      "ÑĭÑģÐº": 5501,
      "ĠÐ¿ÑĢÐ¸ÐºÑĢÑĭÐ²": 5502,
      "ĠÐ¿ÑĢÐ¾Ð³ÑĢÐ°Ð¼Ð¼Ñĭ": 5503,
      "ion": 5504,
      "ĠÐ¿ÑĢÐ¾Ð»": 5505,
      "ĠÑĤÑıÐ¶ÑĳÐ»": 5506,
      "ĠÐ³Ð¸Ð³Ð°Ð½ÑĤ": 5507,
      "ĠÑģÑĤÐ²": 5508,
      "ĠÐ²Ð¾Ð·Ð»Ðµ": 5509,
      "ĠÐ¼Ð°Ð»ÐµÐ½ÑĮÐºÐ°Ñı": 5510,
      "ĠÐ¾Ð±ÑīÐµÑģÑĤÐ²Ð°": 5511,
      "ĠÐ½Ð°ÑģÐ»Ð°Ð¶Ð´ÐµÐ½Ð¸Ñı": 5512,
      "Ð¸ÑĤÐµÐ»ÑĮÐ½Ð¾ÑģÑĤÑĮ": 5513,
      "Ġ29": 5514,
      "ĠÐ¿Ð¾Ð¿ÑĢÐ¾Ð±Ð¾Ð²Ð°ÑĤÑĮ": 5515,
      "ĠÐ²Ð¸Ð´ÐµÐ»Ð¸": 5516,
      "ĠÐ¾ÑĤÐ´Ð°Ð»": 5517,
      "ĠÐ¿Ð¾Ð¿ÑĢÐ¾ÑģÐ¸Ð»": 5518,
      "ÑĤÑĢÐ¸": 5519,
      "ĠÐ±Ñİ": 5520,
      "ĠÐĹÐ°ÑĩÐµÐ¼": 5521,
      "ĠÑĢÐµÑĪÐµÐ½Ð¸Ñı": 5522,
      "ĠÐŁÑĢÐ¸Ð²": 5523,
      "ot": 5524,
      "ĠÐºÐ¾Ð½ÑĤÐ°Ðº": 5525,
      "ĠÐ¿Ð¾Ð´ÑģÑĤÐ°Ð²": 5526,
      "ĠÐ´ÐµÐ²ÑĥÑĪÐºÑĥ": 5527,
      "ĠÑģÐ¾ÑĢÐ¾Ðº": 5528,
      "Ð¸ÑĤÐ°Ð¹": 5529,
      "ĠÐ¿Ð¾Ð´ÑĢÑĥÐ¶": 5530,
      "ĠÐ¿Ð¾ÐºÑĢÐ°Ñģ": 5531,
      "ĠÐ¸Ð½Ð¾Ð¿Ð»Ð°Ð½ÐµÑĤ": 5532,
      "ĠÑĤÐµÐ¿Ð»Ð¾": 5533,
      "ĠÑģÐ¾Ð»Ð½ÑĨÐµ": 5534,
      "ĠÐ¿ÑĢÐ¸Ð¼ÐµÑĢÑĥ": 5535,
      "ĠÐ½Ð°ÑĢÑĥÐ¶Ñĥ": 5536,
      "ĠÐ²Ð¸Ð·": 5537,
      "ĠÐĴÐ¸Ðº": 5538,
      "ĠÐĵÐ°Ð»": 5539,
      "ĠÐ¾Ð±Ð¸Ð´": 5540,
      "ĠÑħÑĢÐ°Ð½Ð¸": 5541,
      "ĠÑĥÐ³ÑĢÐ¾Ð·": 5542,
      "Â°": 5543,
      "Ð¾Ð´ÑĥÑĪ": 5544,
      "ĠÐĺÐĺ": 5545,
      "Ð¸Ð½ÑĥÑĤÑĮ": 5546,
      "ÐµÐ½Ð´": 5547,
      "ĠÐ½ÐµÐ²ÐµÑĢÐ¾ÑıÑĤ": 5548,
      "ĠÐ¾Ð±Ð¾ÑĢÑĥÐ´": 5549,
      "ÑģÐ»ÑĥÐ¶": 5550,
      "ĠÑģÐ¸Ð³Ð½Ð°Ð»": 5551,
      "Ð»ÑĭÐ¹": 5552,
      "Ð½Ð¸Ð»Ð¾ÑģÑĮ": 5553,
      "ĠÐµÑħ": 5554,
      "ÐµÐ²Ð½Ð°": 5555,
      "ĠÐ¿Ð¾ÑĪÑĳÐ»": 5556,
      "ĠÐ½ÐµÑģÑĩ": 5557,
      "ĠÐ¼Ð°Ð»ÑĮÑĩÐ¸ÐºÐ°": 5558,
      "ĠÐ²ÑĭÑĤÐ°ÑīÐ¸Ð»": 5559,
      "ĠÐ¾Ð±Ð»ÐµÐ³Ñĩ": 5560,
      "Ð°ÑĤÐµÐ»ÑĮÐ½ÑĭÐ¹": 5561,
      "ĠÑĢÐ°ÑģÐºÑĢÑĭ": 5562,
      "ÐºÐ¾ÑģÑĤÐ¸": 5563,
      "ĠÑģÐ¼ÐµÑħ": 5564,
      "ĠÐ²ÐµÑĢÐ½ÑĥÑĤÑĮÑģÑı": 5565,
      "ĠÑģÐ¾Ð»Ð½ÐµÑĩ": 5566,
      "ĠÑĢÐ°ÑģÑĤÐµÑĢ": 5567,
      "Â«": 5568,
      "ĠÐ²Ð½ÐµÐ·Ð°Ð¿Ð½Ð¾": 5569,
      "Ð»ÐµÐ½Ð½ÑĭÑħ": 5570,
      "ĠÐ²Ð¾ÑĪÐ»Ð°": 5571,
      "ĠÑģÐ¿ÐµÑĨÐ¸Ð°Ð»Ð¸ÑģÑĤ": 5572,
      "ĠÐ¿ÑĢÐ¸ÑģÑĤ": 5573,
      "ĠÑģÐ»Ð¾Ð¼": 5574,
      "ĠÐ¿Ð¾Ð»ÐµÑĤ": 5575,
      "ĠÐ½ÐµÐ´ÐµÐ»Ð¸": 5576,
      "ĠÑģÐ¸Ð´ÐµÐ»Ð¸": 5577,
      "Ð²ÐµÑĢÐ³": 5578,
      "ĠÐ¿ÐµÑĢÐµÐ²ÐµÑĢ": 5579,
      "Ð¾Ð²Ñĭ": 5580,
      "ĠÐ´Ð¾ÑģÐ¿ÐµÑħ": 5581,
      "ĠÐĿÐ°Ñģ": 5582,
      "Ð°ÑĪÐºÑĥ": 5583,
      "ĠÑħÐ¾ÑĤÐµÐ»Ð¸": 5584,
      "ĠÐ¿Ð¾Ð½Ð¸Ð¼Ð°ÑĤÑĮ": 5585,
      "Ð¢Ð°Ðº": 5586,
      "--": 5587,
      "ĠÑģÐ¾Ð¶Ð°Ð»": 5588,
      "ĠÐ´ÐµÐº": 5589,
      "ĠÐ¸ÑģÑĤÐ¾ÑĢÐ¸Ñİ": 5590,
      "ĠÐ¿Ð¾ÑĨÐµÐ»Ñĥ": 5591,
      "ĠÐ¾Ð´Ð½Ð¾Ð¼Ñĥ": 5592,
      "ĠÐ¿Ð¾ÑĢÑıÐ´Ð¾Ðº": 5593,
      "Ð¾Ð²Ð¾ÑĢÐ¸Ð»": 5594,
      "ĠÐ¿ÐµÑĢÐ²Ð°Ñı": 5595,
      "ĠÐ·Ð°Ð²ÐµÑĢÑĪ": 5596,
      "ĠÐ½Ð°Ð²ÐµÑĢÐ½ÑıÐºÐ°": 5597,
      "ÑĤÐ¾ÑĢÑĥ": 5598,
      "ĠÐ¾Ð³ÑĢÐ¾Ð¼Ð½ÑĭÐ¹": 5599,
      "ĠÐ³ÑĢÑĥÐ±": 5600,
      "ĠÐ¼Ð°ÑĪÐ¸Ð½Ñĥ": 5601,
      "ĠÐ½ÐµÐ¸Ð·Ð²ÐµÑģÑĤ": 5602,
      "ĠÐ´ÑĢÑĥÐ·ÐµÐ¹": 5603,
      "ĠÐºÐ²": 5604,
      "ĠÑģÐ¿ÐµÑĨÐ¸Ð°Ð»ÑĮÐ½Ð¾": 5605,
      "ÑĪÑĥÑİÑģÑı": 5606,
      "ĠÑİÐ±ÐºÑĥ": 5607,
      "ĠÐ¼Ð°ÑģÑĪÑĤÐ°Ð±": 5608,
      "ĠÑĢÐµÑģÑĥÑĢ": 5609,
      "ÑĨÐ°Ð¼": 5610,
      "ĠÐļÐ¾": 5611,
      "ÑģÐ¿ÐµÐºÑĤÐ¸Ð²": 5612,
      "ĠÐ¿Ð¾Ð·Ð½Ð°ÐºÐ¾Ð¼": 5613,
      "ĠÐ²ÑĭÐ¹ÑĤÐ¸": 5614,
      "ĠÐ·Ð°Ð³Ð»Ñı": 5615,
      "Ð¥Ð¾ÑĢÐ¾ÑĪÐ¾": 5616,
      "Ð°Ð²ÑĪÐ¸Ñħ": 5617,
      "ĠÐ¿Ð¾Ð»Ð½Ð¾": 5618,
      "Ð»Ð°Ð³Ð¾Ð´Ð°ÑĢ": 5619,
      "ĠÑĢÐ°Ð·Ð´Ð²Ð¸Ð½ÑĥÐ»Ð°": 5620,
      "ĠÐ´Ð°ÐµÑĤ": 5621,
      "Ġin": 5622,
      "ĠÑģÐ½Ð¸Ð·": 5623,
      "ĠÑĢÐ°ÑģÑģÑĤÐ°Ð²": 5624,
      "ĠÐ²Ð¿ÐµÑĢÐµÐ´Ð¸": 5625,
      "ĠÐ´ÑĥÑħÐ°": 5626,
      "ÐµÐ½Ñĥ": 5627,
      "ĠÐĹÐ°ÑĤÐ¾": 5628,
      "ĠÑĥÐ¿Ð°Ð»": 5629,
      "ĠÑģÐ¾Ð·Ð½Ð°Ð½Ð¸Ñı": 5630,
      "ĠÐ¾ÑĤÐ¼": 5631,
      "ĠÐľÐ°Ð»ÑĮ": 5632,
      "Ð½ÑıÐ»": 5633,
      "ĠÐ²Ð¸Ñģ": 5634,
      "Ð¿Ð¾": 5635,
      "ĠÐ¶Ð¾Ð¿Ñĥ": 5636,
      "ĠÑģÐ¿ÐµÑĢÐ¼Ð¾Ð¹": 5637,
      "Ð¾Ð¹Ð´ÐµÑĤ": 5638,
      "ĠÐĿÐµÑģÐºÐ¾Ð»ÑĮÐºÐ¾": 5639,
      "ĠÐ´Ð½Ð¸": 5640,
      "ĠÐ´Ð°Ð¼": 5641,
      "Ð¾Ð¼Ð°": 5642,
      "ÑĥÑİÑīÐµÐµ": 5643,
      "ĠÐ¿ÑĢÐ¾Ð³ÑĢÐ°Ð¼Ð¼Ð¸": 5644,
      "ĠÐ¾ÑĤÐ¾": 5645,
      "ĠÑģÑĤÐ°ÑĢÐ°Ð»ÑģÑı": 5646,
      "ĠÐ´ÑĢÐ¾ÑĩÐ¸ÑĤÑĮ": 5647,
      "ow": 5648,
      "ĠÐ·Ð½Ð°Ñı": 5649,
      "ĠÐ¿ÑĢÐ¾ÑĤÑıÐ½ÑĥÐ»": 5650,
      "Ð»ÐµÐ±": 5651,
      "ĠÐ¾ÐºÐµ": 5652,
      "ĠÐ¼Ð°ÑģÑĤÑĥÑĢÐ±": 5653,
      "ĠÐ·Ð½Ð°ÐµÐ¼": 5654,
      "ĠÑĥÑĩÐµÐ±": 5655,
      "ĠÐ¿Ð»ÐµÑĩÐ¾": 5656,
      "Ð½Ð¸Ð¼Ð¸": 5657,
      "Ð°Ð¶Ð°": 5658,
      "ĠÐ±Ð¾Ð»ÑĤ": 5659,
      "Ð´ÐµÐ²": 5660,
      "ÑĳÑħ": 5661,
      "ĠÐ´Ð²Ð¸Ð³Ð°ÑĤÑĮ": 5662,
      "ĠÐ¼Ð¾Ð·Ð³Ð°": 5663,
      "Ð°ÐºÑĤ": 5664,
      "ĠÐ¿Ð¾ÑĨÐµÐ»Ð¾Ð²Ð°Ð»": 5665,
      "ĠÐ¾Ð±ÑģÑĤÐ¾ÑıÑĤÐµÐ»ÑĮ": 5666,
      "Ð¾ÑĢÐµÑĩ": 5667,
      "ĠÐ½Ð°ÑĤÑı": 5668,
      "ĠÐŁÐ¾Ð»ÑĥÑĩ": 5669,
      "Ð½Ð¸ÑĨÐµÐ¹": 5670,
      "ĠÑĨÐ¸ÑĦ": 5671,
      "Ġ27": 5672,
      "ĠÐºÐ¾Ð½ÑģÑĤÑĢÑĥÐº": 5673,
      "ÐµÐ½ÑĨÐ¸": 5674,
      "ĠÐ¿ÑĢÐ¸ÐµÐ¼": 5675,
      "ĠÐ¿Ð¾Ð²ÐµÐ·": 5676,
      "ĠÐ±ÑĥÐ´ÑĥÑīÐµÐ³Ð¾": 5677,
      "ĠÐłÐ¾ÑģÑģÐ¸Ð¸": 5678,
      "ÑĩÑĥ": 5679,
      "ĠÐ²Ð¾Ð·Ð½Ð¸ÐºÐ°": 5680,
      "ĠÐ¿ÑĢÐµÐ´ÐµÐ»Ð°": 5681,
      "ĠÐ¶Ð¸Ð²Ð¾ÑĤÐ°": 5682,
      "ĠÑĤÐ²Ð¾Ñİ": 5683,
      "ĠÑĤÐ¾Ð½Ð½": 5684,
      "ĠÐļÑģÑĤÐ°ÑĤÐ¸": 5685,
      "ĠÑĢÐ°ÑģÑĭ": 5686,
      "ĠÐ½Ð°ÑĩÐ°ÑĤÑĮ": 5687,
      "ĠÐ¿Ð¾Ð»ÑĮÐ·Ñĥ": 5688,
      "ĠÑģÑħÐ²Ð°ÑĤÐ¸Ð»": 5689,
      "ĠÑģÑĤÐ¾Ð¹": 5690,
      "ĠÐĴÐµÑĢÐ°": 5691,
      "ĠÐŁÐ°Ð²": 5692,
      "ĠÑĤÐ¾ÑĢÐ³Ð¾Ð²": 5693,
      "ĠÐ¼ÐµÐ»ÑĮ": 5694,
      "ĠÐ²ÑĭÐ´Ð°Ð²": 5695,
      "ĠÐ´ÐµÐ»Ð°ÑİÑĤ": 5696,
      "ĠÑģÐ¼Ð¾ÑĤÑĢÐµÐ»Ð¸": 5697,
      "ĠÐ¿Ð¾Ð´Ð½ÑıÐ»Ð°": 5698,
      "ĠÐĺÐ½Ð¾Ð³Ð´Ð°": 5699,
      "Ð¾ÑģÐ°": 5700,
      "ĠÐ·ÑĢÐµÐ»Ð¸": 5701,
      "ĠÑģÐ¼Ð¾Ð³Ð»Ð¸": 5702,
      "ĠÐ¿Ð¾Ð¿ÑĭÑĤÐ°Ð»Ð°ÑģÑĮ": 5703,
      "ĠR": 5704,
      "ĠÐ¾ÑģÐ½Ð¾Ð²Ð½Ð¾Ð¼": 5705,
      "ĠÐ½Ð°ÑĪÐ¸Ð¼": 5706,
      "ĠÐŀÑĤÐµÑĨ": 5707,
      "ĠÐ²ÑĢÐ°Ñĩ": 5708,
      "ĠÐ¿Ð¾ÑĤÐ¾Ð»": 5709,
      "ĠÑģÐ¼ÐµÑĢÑĤ": 5710,
      "ĠÑģÑĤÐ¾Ð½Ñĭ": 5711,
      "ĠÐ·Ð½Ð°ÐµÑĤÐµ": 5712,
      "ĠÐ¶ÐµÑģÑĤÐ¾Ðº": 5713,
      "ÑģÐµÐ³Ð´Ð°": 5714,
      "ĠÐ¶ÐµÑĢÑĤ": 5715,
      "ĠÐ¾ÑģÑĥÑīÐµÑģÑĤÐ²": 5716,
      "ĠÑģÑĤÐµÐ½Ðµ": 5717,
      "ÑĤÑģÑı": 5718,
      "Ð´Ñı": 5719,
      "ĠÐ¡Ð²ÐµÑĤÐºÐ°": 5720,
      "ĠÑģÑĥÑīÐ½Ð¾ÑģÑĤÐ¸": 5721,
      "ÐºÐ¸Ð½": 5722,
      "ĠÐ¢Ð¾Ð»": 5723,
      "ĠÐ´Ð¾ÑģÑĤÐ¾Ð¹": 5724,
      "ĠÑģÐ¾Ð³Ð»Ð°ÑģÐ¸Ð»ÑģÑı": 5725,
      "ĠÑģÑĢÐ¾Ðº": 5726,
      "ĠÐ½Ð°Ñħ": 5727,
      "ĠÑĥÑĩÐµÐ½Ð¸": 5728,
      "ĠÐ¸Ð³ÑĢÑĥ": 5729,
      "ĠÐ´ÑĭÑĢÐ¾ÑĩÐºÑĥ": 5730,
      "ÑĢÑįÐ½": 5731,
      "ÑıÐµÑĤÑģÑı": 5732,
      "Ð°Ð²Ð¸Ñģ": 5733,
      "ÑĨÐ¾": 5734,
      "ÐµÐ¶Ð°Ð»Ð°": 5735,
      "ĠÐ¿ÑĢÐµÐºÑĢÐ°ÑĤ": 5736,
      "ĠÐ¾ÑĦÐ¸ÑĨÐ¸": 5737,
      "ĠÐºÑĢÐµÐ¼": 5738,
      "ĠÑĢÑĤÐ¾Ð¼": 5739,
      "Ð¾ÑĩÐµ": 5740,
      "ĠÐ´Ð¾Ñģ": 5741,
      "ÑĳÑģ": 5742,
      "ĠÑħÐ°": 5743,
      "ÑĤÑĥÐ´Ð°": 5744,
      "ĠÑģÐ¾Ð²ÐµÑĢÑĪÐµÐ½": 5745,
      "ĠÑģÐµÑĢÐµÐ´": 5746,
      "Ġ100": 5747,
      "ĠÐ¾ÑģÑĤÐ°Ð»Ð°ÑģÑĮ": 5748,
      "ĠÑĩÐµÐ»Ð¾Ð²ÐµÐºÑĥ": 5749,
      "Ġ196": 5750,
      "Ð³Ð»Ð¸Ð¹": 5751,
      "ĠÑĩÑĥÐ²ÑģÑĤÐ²ÑĥÑı": 5752,
      "ÑĢÐµÐ½Ð¸Ðµ": 5753,
      "ĠÐ¾ÑģÐ»Ð°Ð±": 5754,
      "Ð¾Ð½ÐµÑĩÐ½Ð¾": 5755,
      "ĠÐĲÐ»ÑĮ": 5756,
      "ĠÑĤÑĢÐµÐ²": 5757,
      "ĠÐ±Ð¾Ð»ÑĮÑĪÐ¸Ñħ": 5758,
      "ĠÐ¸Ð½ÑĦÐ¾ÑĢÐ¼Ð°ÑĨÐ¸Ñİ": 5759,
      "ĠÐºÑĥÐ»ÑĮÑĤÑĥÑĢÑĭ": 5760,
      "ur": 5761,
      "ĠÐ¿ÑĢÐ¾Ð½": 5762,
      "ĠÐ¿ÐµÑĢÑģÐ¾Ð½": 5763,
      "ĠÑģÑĤÐ¾Ð½": 5764,
      "Ġ/": 5765,
      "Ð½ÐµÐ½Ð½Ð¾": 5766,
      "Ð°Ð¼ÐµÐ½": 5767,
      "ĠÑģÐ¼Ð¾ÑĤÑĢÑı": 5768,
      "Ð¸ÑĤÐµÐ»ÑĮÐ½ÑĭÑħ": 5769,
      "ĠÑĤÑĢÐ°Ð³ÐµÐ´": 5770,
      "ÑıÑīÐµÐµ": 5771,
      "ĠÐ²Ð°ÑĢ": 5772,
      "Ð°Ð½Ð¸ÑĩÐµÑģÐº": 5773,
      "ĠÐ¾Ð´ÐµÐ²": 5774,
      "ĠÐ²Ð·Ð´Ð¾ÑħÐ½ÑĥÐ»": 5775,
      "ÑĪÐºÑĥ": 5776,
      "Ð°ÐµÑĪÑĮÑģÑı": 5777,
      "ĠÐ½ÐµÐºÐ¾ÑĤÐ¾ÑĢÑĭÑħ": 5778,
      "ĠÐ¸ÑģÑģÐ»ÐµÐ´Ð¾Ð²": 5779,
      "ĠÑıÐ³Ð¾Ð´Ð¸ÑĨ": 5780,
      "ĠV": 5781,
      "ĠÐ·ÐµÐ»ÐµÐ½": 5782,
      "Ð¾ÑĤÐ¾Ñĩ": 5783,
      "ÑĭÐ»ÑĮ": 5784,
      "ÐºÐ¸Ð¿": 5785,
      "ĠÐ³Ð¾Ð»Ð¾Ð²ÐºÐ°": 5786,
      "ĠÑįÐºÐ·": 5787,
      "ĠÐ¿Ð¾ÑĨÐµÐ»Ð¾Ð²Ð°Ð»Ð°": 5788,
      "ĠÑĥÑģÐ¼ÐµÑħ": 5789,
      "ĠÑĢÐµÐ¿": 5790,
      "ĠÐ¾ÑĤÑĢÑĭÐ²": 5791,
      "Ġ24": 5792,
      "ĠÑģÐµÐºÑģÐ¾Ð¼": 5793,
      "ĠÑĪÐºÐ¾Ð»ÑĮ": 5794,
      "ĠÑģÐ»Ð¸Ð·": 5795,
      "Ð¸Ð»Ð»": 5796,
      "ÑĤÑĥÑĢÑĥ": 5797,
      "ĠÐ¿Ð¾Ð³Ð¾Ð²Ð¾ÑĢÐ¸ÑĤÑĮ": 5798,
      "ĠÐ³Ð°ÑĢ": 5799,
      "ĠÐ¾ÑĤÐ½Ð¾ÑĪÐµÐ½Ð¸Ð¸": 5800,
      "ĠÑģÐ¾Ð±Ð¸ÑĢÐ°Ð»ÑģÑı": 5801,
      "Ð°Ð²Ð°ÑĤÑĮ": 5802,
      "ĠÐĿÐ¸ÑĨ": 5803,
      "ĠÐĺÑģÐ¿": 5804,
      "ĠÐ¸Ñī": 5805,
      "ĠÐ±ÐµÐ·Ñĥ": 5806,
      "ĠÑĢÐµÐ»Ð¸Ð³": 5807,
      "ÑģÑĤÑĢÐµÐ±": 5808,
      "ĠÐ¿Ð¾Ð´Ð¾Ð±Ð½Ð¾": 5809,
      "ĠÐ¡Ð¸": 5810,
      "ĠÐ¾ÑģÑĤÐ°Ð»Ð¸ÑģÑĮ": 5811,
      "Ð»ÐµÐ²": 5812,
      "ĠÑĢÐ°Ð·Ð³Ð»ÑıÐ´": 5813,
      "Ġ35": 5814,
      "ĠÐ·Ð°ÑĢÐ°Ð±Ð¾ÑĤ": 5815,
      "ĠÐ·Ð¾Ð²ÑĥÑĤ": 5816,
      "Ð¸ÑīÐµ": 5817,
      "Ð¾ÑĤÐ°Ð»": 5818,
      "Ð¾Ð³ÑĢÐ°Ð¼": 5819,
      "ĠÐ¶Ð¸Ð»Ð¸": 5820,
      "ĠÐ³Ð»ÑĥÐ±Ð¸Ð½Ðµ": 5821,
      "ĠÐ±Ð»Ð¸Ð·ÐºÐ¾": 5822,
      "ĠÐ¾ÑĩÐµÐ²Ð¸Ð´Ð½Ð¾": 5823,
      "ĠÐ¿ÑĢÑĭÐ³": 5824,
      "ĠÑģÐ²Ð¸Ð´": 5825,
      "ĠÑģÐ¸ÑģÑĤÐµÐ¼Ðµ": 5826,
      "ĠÐ¿ÐµÑĢÐµÐ²Ð¾Ð´": 5827,
      "ĠÐ¾Ð±ÑıÐ·Ð°Ð½": 5828,
      "ĠÑģÐ¿ÑĢÐ°Ð²ÐµÐ´Ð»Ð¸Ð²": 5829,
      "ĠÐ¾ÑģÐ½Ð¾Ð²Ðµ": 5830,
      "ÑĪÐ°ÑıÑģÑı": 5831,
      "ĠÐ³Ð»Ð°Ð´Ð¸ÑĤÑĮ": 5832,
      "ĠÐ¼ÐµÑĤÐ°Ð»Ð»Ð¸ÑĩÐµÑģÐº": 5833,
      "ĠÑĢÐ°Ð·Ñĥ": 5834,
      "ÑĢÐ°Ð²Ð¸ÑĤ": 5835,
      "ĠÐ¿Ð¾ÐºÑĢÑĭÐ²": 5836,
      "ÑıÑīÐ¸Ð¼": 5837,
      "ĠÑĢÐµÐ´ÐºÐ¾": 5838,
      "ĠÐĲÐ½Ð´": 5839,
      "ĠÐŁÐ¾ÑģÐºÐ¾Ð»ÑĮÐºÑĥ": 5840,
      "ĠÐ¿Ð¾Ð»Ð¾Ð¶Ð¸Ð»Ð°": 5841,
      "ĠÐ´Ð°Ð¹": 5842,
      "ĠÐ°ÑģÑĤÑĢ": 5843,
      "ĠÑĢÐµÐ°Ð»ÑĮÐ½Ð¾ÑģÑĤÐ¸": 5844,
      "ĠÐŁÑĢÐ¾Ð´": 5845,
      "ĠÑģÐºÐ¾ÑĢÐ¾ÑģÑĤÐ¸": 5846,
      "Ġ50": 5847,
      "ĠÐ¼ÐµÑģÑıÑĨÐµÐ²": 5848,
      "ĠÐ±ÐµÑģÐºÐ¾Ð½ÐµÑĩ": 5849,
      "ÑĨÐ°ÑĢ": 5850,
      "ÑĨÐµÐ½ÑĤ": 5851,
      "ĠÐ¾ÑĤÑĢÐ¸ÑĨ": 5852,
      "ĠÑĪÐ»Ð°": 5853,
      "ĠÐ¿Ð¾Ð´ÑĥÐ¼Ð°ÑĤÑĮ": 5854,
      "ĠÐ»Ð¸Ð·Ð°ÑĤÑĮ": 5855,
      "Ð¾Ð²Ð°ÑĤÐµÐ»ÑĮÐ½Ð¾": 5856,
      "ĠÐľÐ°Ð³": 5857,
      "ĠÐ»ÐµÐ¶Ð°Ð»Ð¸": 5858,
      "ĠÐ¿ÑĢÐ¸ÑħÐ¾Ð´Ð¸ÑĤÑģÑı": 5859,
      "ĠÐ¾ÑĤÐ¼ÐµÑĤ": 5860,
      "ÑĤÐ¸Ðº": 5861,
      "ĠÐľÐ¸Ñħ": 5862,
      "ĠÐ£Ñĩ": 5863,
      "ĠÐ¸Ð³ÑĢÐµ": 5864,
      "ĠÐ¾Ð´ÐµÑıÐ»Ð¾": 5865,
      "ĠÑĥÑģÐ»Ð¾Ð²Ð¸ÑıÑħ": 5866,
      "ĠÐ¾ÑģÐ¼Ð¾ÑĤÑĢ": 5867,
      "ĠÐ¾ÑĤÐ¾ÑĢÐ²": 5868,
      "ĠÐºÐ½Ð¾Ð¿": 5869,
      "ĠÑĤÑĢÑı": 5870,
      "ĠÐ²ÑģÐ¿Ð¾Ð¼Ð½Ð¸Ð»": 5871,
      "ĠÐ¶ÑĥÑĤ": 5872,
      "ĠÐ´ÐµÐ»Ð¾Ð¼": 5873,
      "ĠÐ»ÑİÐ±Ð¾Ð³Ð¾": 5874,
      "ĠÐ²ÐµÑģÐµÐ»": 5875,
      "ĠÐ¿Ð¾ÑģÑĤÐ°Ð²Ð¸Ð»": 5876,
      "ĠÑģÑĩÐ°ÑģÑĤÑĮÐµ": 5877,
      "ĠÑĤÐ²Ð°ÑĢÑĮ": 5878,
      "ĠÐ³Ð¾Ð»ÑĥÐ±": 5879,
      "ĠÐ¿ÑĢÐ¸ÑĩÐµÐ¼": 5880,
      "ĠÐ²Ð·Ð´ÑĢÐ¾Ð³": 5881,
      "ĠÐºÑĢÐ°Ð¹Ð½Ðµ": 5882,
      "ĠÐºÐ°Ð¶Ð´ÑĭÐ¼": 5883,
      "ĠÐ»Ð°Ð´Ð¾Ð½Ð¸": 5884,
      "ĠÑĩÐ¸ÑģÑĤÐ¾": 5885,
      "ĠÐºÑĢÐµÑģÐ»Ð¾": 5886,
      "Ġ&": 5887,
      "ĠÐ¾Ð³Ð»Ñı": 5888,
      "Ð½Ð°ÑģÑĤ": 5889,
      "ĠÑģÑĤÑĢÐ°ÑģÑĤÐ¸": 5890,
      "ĠÐ¿ÑĢÐ¸ÐºÐ¾ÑģÐ½Ð¾Ð²": 5891,
      "ÑģÐµÐ´": 5892,
      "Ð¾Ð»Ð¸": 5893,
      "ĠÐ¿ÑĢÐ¾Ñħ": 5894,
      "ĠÐ¿ÑĢÐ¾ÐµÐºÑĤ": 5895,
      "ÑĭÑģÐ»Ð°": 5896,
      "ĠÑĤÑīÐ°ÑĤÐµÐ»ÑĮÐ½Ð¾": 5897,
      "ĠÐ¼Ð°ÑģÐº": 5898,
      "ĠÐºÐ¾Ð½ÑĩÐ°ÑĤÑĮ": 5899,
      "ĠÑģÑĤÑĢÐ°Ð½Ñĭ": 5900,
      "ĠÐ¿Ð°ÑĢÐ°": 5901,
      "ĠÐ¿ÑıÑĤÑĮÐ´ÐµÑģÑıÑĤ": 5902,
      "Ð¾ÑĢÐ´Ð¸Ð½Ð°": 5903,
      "ĠÐ¾Ð²": 5904,
      "ĠÑģÐ²ÐµÐ¶": 5905,
      "ĠÑģÐ¾Ð±Ð»Ð°Ð·": 5906,
      "11": 5907,
      "ĠÐ²ÑĭÑĤÑı": 5908,
      "ĠÐ¢Ðµ": 5909,
      "ĠÐ²ÑĭÑģÐ¾ÐºÐ¾": 5910,
      "ĠÐ¦Ð·Ð¸": 5911,
      "ĠÐ¿Ð¾ÑĢÐ°Ð·": 5912,
      "ĠÐ¸Ð½Ð¶ÐµÐ½": 5913,
      "ĠÐ´ÑĭÑĢ": 5914,
      "ĠÐ¿ÑĢÐ¾ÑģÑĤÑĭ": 5915,
      "Ð¸ÑĢÐ¾Ð²Ð°Ð»Ð°": 5916,
      "ĠÐ¿Ð¾Ð´ÑĢÐ¾ÑģÑĤ": 5917,
      "ĠÐ²Ð·ÑıÐ²": 5918,
      "ĠÐ»ÑİÐ±Ð¸ÑĤ": 5919,
      "ĠÐ·Ð½Ð°Ðº": 5920,
      "ĠÑģÐ²Ð¾Ð´": 5921,
      "ĠÑģÐ¼Ð¾ÑĤÑĢÐ¸ÑĤ": 5922,
      "ĠÐĿÐ¸ÐºÑĤÐ¾": 5923,
      "ĠÐºÐ¾Ð½ÑĤÑĢÐ¾Ð»ÑĮ": 5924,
      "ĠÑĤÐ¾ÑĢÑĩÐ°Ñī": 5925,
      "ÑĭÐ²Ð°ÑıÑģÑĮ": 5926,
      "ĠÐ¿ÑĢÐ¸Ð´ÑĳÑĤÑģÑı": 5927,
      "Ð¶Ð°Ð»": 5928,
      "ĠÑĪÐ°Ð½Ñģ": 5929,
      "ĠÑĪÐºÐ°ÑĦ": 5930,
      "ĠÑĤÑĢÐµÐ±ÑĥÐµÑĤÑģÑı": 5931,
      "ĠÐŁÐ°Ð¿Ð°": 5932,
      "Ð°Ð»ÑĮÐ½Ð¾ÑģÑĤÐ¸": 5933,
      "âĢĵâĪŀ,": 5934,
      "Ð¾Ð»Ð·": 5935,
      "ĠÐ»Ð°Ð·": 5936,
      "ĠÐ´Ð¾ÑģÑĤÐ°Ð²Ð»Ñı": 5937,
      "ĠÐŀÑĤÐº": 5938,
      "ĠÑģÐ¾ÑģÑĢÐµÐ´": 5939,
      "ĠÐ»Ð¾Ð±Ð¾Ðº": 5940,
      "ĠÐ²Ð¾ÑĢ": 5941,
      "ĠÐ·Ð°ÐºÐ°Ð·": 5942,
      "ĠÐ´Ð²Ð¸Ð¶ÐµÐ½Ð¸ÐµÐ¼": 5943,
      "ĠÑģÐ¼Ð¾Ð³Ð»Ð°": 5944,
      "ĠÑģÑĤÑĢÐ°ÑĪÐ½Ð¾": 5945,
      "ĠÐ¿ÑĢÐ¾ÑĪÐµÐ¿ÑĤÐ°Ð»Ð°": 5946,
      "ĠÐĹÐ°ÑĢÐ°ÑĤÑĥÑģÑĤÑĢÐ°": 5947,
      "um": 5948,
      "Ð¾Ð´Ð¸": 5949,
      "Ð°Ð·Ð°Ð»Ð¾ÑģÑĮ": 5950,
      "ĠÐ¾Ð±Ð¼Ð°": 5951,
      "ĠÐ·Ð°Ð¸Ð½ÑĤÐµÑĢÐµÑģ": 5952,
      "ĠÐ¿ÐµÑĢÑģÐ¿ÐµÐºÑĤÐ¸Ð²": 5953,
      "ĠÐ¿Ð»Ð°ÑģÑĤ": 5954,
      "ĠÐ¿Ð»Ð¾ÑĤÑĮ": 5955,
      "ĠÐ»Ð¸ÑĩÐ½Ð¾": 5956,
      "ĠÐ¢Ð°ÑĤÑĮÑı": 5957,
      "ĠÐ½ÐµÐ¿ÑĢ": 5958,
      "ĠÐĶÐ¶Ð¸Ð¼": 5959,
      "ĠÐ³ÑĢÐ°Ð¶Ð´Ð°Ð½": 5960,
      "ĠÑĢÐ°Ð·Ð½Ð¾": 5961,
      "ĠÐľÐ¾ÑĢ": 5962,
      "Ð°ÑĤÐ¾Ñĩ": 5963,
      "ĠÐ¿Ð»Ð¾ÑĤÐ½Ð¾": 5964,
      "ĠÐ¿ÑĢÐ¾Ð¼ÑĭÑĪÐ»ÐµÐ½Ð½Ð¾": 5965,
      "ĠÑĤÑĢÐµÑĤÐ¸Ð¹": 5966,
      "Ðĸ": 5967,
      "ĠÐ¿Ð»ÐµÐ½": 5968,
      "ĠÐŁÐ¾Ðº": 5969,
      "ĠÑĢÐ°Ð´Ð¾ÑģÑĤ": 5970,
      "ĠÐºÑĢÑĥÑĤ": 5971,
      "ĠÑģÐµÑģÑĤÑĢÐ¾Ð¹": 5972,
      "ĠÑģÐ´Ð°Ð²": 5973,
      "ĠÑģÑĥÑĩ": 5974,
      "ĠÐ¿Ð°ÑĢÑĤ": 5975,
      "ĠÑģÐ¿Ð¾ÑģÐ¾Ð±ÐµÐ½": 5976,
      "ĠÐ¿ÑĢÐ¾Ð³ÑĢÐ°Ð¼Ð¼Ð¸ÑĢÐ¾Ð²": 5977,
      "ÑıÐ»Ð¾": 5978,
      "ĠÐ¡Ð»": 5979,
      "ĠÐ¿ÐµÑĢÐµÐ»": 5980,
      "ĠÑĥÑģÑĤÑĢÐ°": 5981,
      "ĠÐ·Ð°ÑĪ": 5982,
      "ĠÐ¸Ð¼ÐµÐ»Ð¸": 5983,
      "ĠÐ½Ð°ÑĥÐºÐ°": 5984,
      "ĠÑĪÐºÐ¾Ð»Ñĥ": 5985,
      "ĠÐ¸ÑģÐºÑĥÑģÑģÑĤÐ²Ð¾": 5986,
      "Ð¿ÐµÑĢÐ²ÑĭÑħ": 5987,
      "ĠÐ¿ÐµÑĤ": 5988,
      "Ð²Ð¾Ð¹": 5989,
      "ĠÐļÑįÑĢ": 5990,
      "Ġ34": 5991,
      "ĠF": 5992,
      "Ð¼ÑĥÑĤ": 5993,
      "ĠÐ»Ð°Ð²": 5994,
      "Ð¸Ð²Ð°ÑİÑĤÑģÑı": 5995,
      "ÐµÐºÐ¸": 5996,
      "ĠÐ´Ð²ÐµÐ½": 5997,
      "ĠÐ¼Ð°ÑĪÐ¸Ð½Ð°": 5998,
      "ĠÐļÐ°Ð¶Ð´ÑĭÐ¹": 5999,
      "ĠÑģÑĤÐ¸Ñħ": 6000,
      "ĠÐĴÐ°Ð½": 6001,
      "ĠÐ¿Ð¾Ð´Ð²": 6002,
      "ĠÑģÐ¾ÑİÐ·": 6003,
      "ÑįÐº": 6004,
      "ÑģÐ¼Ð¾ÑĤÑĢ": 6005,
      "ĠÑĤÑĢÐµÐ½Ð¸ÑĢÐ¾Ð²": 6006,
      "ĠÐ¿ÑĢÐ¸Ð²ÑıÐ·": 6007,
      "ĠÑĥÑģÐ¿ÐµÐ²": 6008,
      "ĠÐ²ÑĭÐ·Ð²": 6009,
      "ĠÐ¸Ð·Ð±Ð°Ð²": 6010,
      "ÑģÑĤÐ¸Ðµ": 6011,
      "ÑĳÐº": 6012,
      "ĠÐ§ÐµÐ³Ð¾": 6013,
      "ĠÑģÐ²ÑıÐ·ÑĮ": 6014,
      "88": 6015,
      "ÑĩÐ°ÑĤÑĮ": 6016,
      "ĠÑĢÐ¾Ñģ": 6017,
      "ĠÑĥÑĪÐµÐ»": 6018,
      "ĠÐ´Ð²Ð¾Ðµ": 6019,
      "Ð¸ÑĢÑĥÐµÑĤ": 6020,
      "ĠÑĢÐ°Ð·ÑĥÐ¼Ð°": 6021,
      "ĠÑģÐºÐ¸": 6022,
      "Ð°Ð´Ð¸Ð»": 6023,
      "ÐµÐ½ÑĮÐºÐ¸Ð¹": 6024,
      "ĠÐ¢Ð°ÐºÐ¶Ðµ": 6025,
      "ĠÐ¿ÑĢÐ¾Ð¼ÐµÐ¶Ð½Ð¾ÑģÑĤÐ¸": 6026,
      "ÐµÐ´Ñı": 6027,
      "ĠÑĢÐ°ÑģÑħÐ¾Ð´": 6028,
      "ĠÑģÐ¾Ð·Ð´Ð°Ð½": 6029,
      "ĠÐ·Ð²ÐµÐ·Ð´Ñĭ": 6030,
      "ĠÐ³ÐµÑĢÐ¾": 6031,
      "ĠÐľÐ¸": 6032,
      "ĠÐ¾Ð±ÑĬÑıÑģÐ½Ð¸ÑĤÑĮ": 6033,
      "ig": 6034,
      "ĠÑĥÐ¿ÐµÑĢ": 6035,
      "ĠÐĴÐ¼ÐµÑģÑĤ": 6036,
      "ÐµÐºÐ¾Ð¼": 6037,
      "ĠÐ¿ÑĢÐ¾Ð²ÐµÐ»": 6038,
      "ĠÑĤÑĢÑĥÑģÐ¸ÐºÐ¾Ð²": 6039,
      "Ð¸Ð¼Ð¾Ð¹": 6040,
      "ĠÐ¿Ð¾Ð¿ÐºÐ¸": 6041,
      "Ð½ÐµÑĢÐ°": 6042,
      "ĠÐ»ÐµÑĩ": 6043,
      "ĠÑģÐ»Ñİ": 6044,
      "ĠÐ·Ð½Ð°ÑİÑĤ": 6045,
      "Ð¸ÑĩÐµÑģÐºÐ¾Ð¼": 6046,
      "ĠÐ¸ÑģÑģÐ»ÐµÐ´Ð¾Ð²Ð°Ð½Ð¸Ñı": 6047,
      "ĠÐ¼Ð°Ð¹": 6048,
      "ĠÐ´Ð°Ñĩ": 6049,
      "ĠÐ¢ÐµÑĤ": 6050,
      "ĠÑħÐ¾Ð´Ð¸ÑĤÑĮ": 6051,
      "ĠÐŁÐ¾ÑħÐ¾Ð¶Ðµ": 6052,
      "Ð½ÐµÑĤÑģÑı": 6053,
      "ÐµÐ½Ð½Ð¾Ð¼Ñĥ": 6054,
      "Ð¸Ð²Ð°ÐµÐ¼": 6055,
      "ĠÐ¡Ð»Ð°Ð²": 6056,
      "ÑĢÐ¸ÑģÑĤÐ°Ð»": 6057,
      "ĠÐ¿Ð¾ÑģÑĤÐµÐ»ÑĮ": 6058,
      "ĠÐ¡ÐºÐ°Ð·": 6059,
      "ĠÐ¸Ð½ÑģÑĤÐ¸ÑĤÑĥÑĤ": 6060,
      "ĠÐ²Ð¾Ð·Ð±ÑĥÐ¶Ð´ÐµÐ½Ð¸Ðµ": 6061,
      "ĠÐ·Ð´Ð¾ÑĢÐ¾Ð²Ð¾": 6062,
      "ĠÑģÐºÐ°": 6063,
      "ÑīÑĥÐ¿": 6064,
      "ĠÐ¡Ð°ÑĪÐºÐ°": 6065,
      "ÑĭÐ²Ð°ÐµÐ¼": 6066,
      "ĠÐ²Ð·Ð¾ÑĢÐ²": 6067,
      "ĠÐŀÐºÑģÐ°": 6068,
      "ĠÐ¿ÑĢÐ¾ÑĪÐ»Ð¾Ð¼": 6069,
      "ĠÐŁÐ¾Ð²": 6070,
      "ĠÑĢÐ°Ð·Ð¾Ð±": 6071,
      "ĠÑįÐ»ÐµÐ¼ÐµÐ½ÑĤ": 6072,
      "Ð¸ÑħÐ¾Ð½ÑĮ": 6073,
      "Ð°Ð¹Ð½Ð¾": 6074,
      "ĠÑĪÐ¾Ðº": 6075,
      "ĠÑģÐºÐ¾ÑĢÐ¾ÑģÑĤÑĮÑİ": 6076,
      "ĠÑĥÑģÐ»Ð¾Ð²Ð¸Ñı": 6077,
      "ĠÐºÐ¾Ð»Ð¸ÑĩÐµ": 6078,
      "ĠÑģÐ¿Ð°Ð»ÑĮÐ½Ñİ": 6079,
      "Ð¸Ð½ÑĥÐ»ÑģÑı": 6080,
      "ÑĭÑĩÐ½Ð¾": 6081,
      "ÑĢÐ°Ð½Ð°": 6082,
      "ĠÐĿÐ¸ÑĨÑĪÐµ": 6083,
      "ĠÑģÐºÐ»Ð¾Ð½": 6084,
      "ĠÑģÐ½ÑıÑĤÑĮ": 6085,
      "ĠÐ¼Ð¾Ñĩ": 6086,
      "ĠÐ·Ð²ÑĥÐº": 6087,
      "ĠÑĤÑĢÐ°ÑħÐ°Ð»": 6088,
      "ĠÐĶÐµÐ²ÑĥÑĪÐºÐ°": 6089,
      "16": 6090,
      "Ð¾ÑģÐ»ÐµÐ´": 6091,
      "ĠÑĦÐ¾ÑĢÐ¼Ðµ": 6092,
      "ĠÐ½ÑĳÐ¼": 6093,
      "Ð¾Ð²Ð¾Ðµ": 6094,
      "ÑģÐºÐ¾Ð¼Ñĥ": 6095,
      "ĠÐĸÐµÐ½Ñı": 6096,
      "ĠÐ·Ð°ÑħÐ¾Ñĩ": 6097,
      "id": 6098,
      "ĠÐ½ÐµÑĥ": 6099,
      "ĠÐ²ÑĭÑĢÐ¾Ñģ": 6100,
      "ÑĤÐ¸Ð·": 6101,
      "ĠÐĿÐµÑĥÐ¶ÐµÐ»Ð¸": 6102,
      "ĠÑĢÐµÐ²Ð¾Ð»Ñİ": 6103,
      "ÑİÑĩ": 6104,
      "ĠÐ»ÐµÐ·": 6105,
      "ĠÑĨÐµÐ»Ð¸ÐºÐ¾Ð¼": 6106,
      "ĠÐľÑĥÐ¶ÑĩÐ¸Ð½Ð°": 6107,
      "Ð»Ð°Ð½Ð°": 6108,
      "ĠÐŀÐ¹": 6109,
      "ÑĢÐ¾Ðµ": 6110,
      "ĠÐ²Ð¾Ð¾Ð±ÑĢÐ°Ð¶": 6111,
      "ĠÐ¿ÑĢÐ¸Ð¼ÐµÑĢ": 6112,
      "22": 6113,
      "ĠÐ´Ð¾Ð±Ñĭ": 6114,
      "ÑģÐºÐ¸Ð¼Ð¸": 6115,
      "ĠÐ»Ð°Ð³": 6116,
      "ÑĢÑĥÐµÑĤ": 6117,
      "ĠÐĿÐµÐºÐ¾ÑĤÐ¾ÑĢ": 6118,
      "ĠÐ°Ð¼": 6119,
      "ĠÑģÐºÑĢÐ¾Ð¼": 6120,
      "ĠÐ±Ð¾Ð»ÑĮÑĪÐ¾Ðµ": 6121,
      "ĠÐ½ÐµÑĤÐµÑĢÐ¿": 6122,
      "ĠÐ¿ÑĢÐ¾Ð¹ÑĤÐ¸": 6123,
      "ĠÐ°ÑĢÑħ": 6124,
      "ĠÐ±Ð»Ð°Ð³Ð¾ÑĢÐ¾Ð´": 6125,
      "ĠÐŀÑģÐ¾Ð±": 6126,
      "ĠÑģÑĤÐ¾Ð»Ð¾Ð¼": 6127,
      "ĠÐŀÐ´Ð½Ð°Ð¶Ð´Ñĭ": 6128,
      "Ð·Ð²": 6129,
      "ĠÐ¾ÐºÑĢÑĥÐ³": 6130,
      "ĠÑĨÐµÐ»ÑĮÑİ": 6131,
      "ĠÐĲÐ½Ð´ÑĢÐµ": 6132,
      "ĠX": 6133,
      "ĠÑĢÐµÐ°Ð»Ð¸Ð·": 6134,
      "ĠÐ¿Ð¾Ð»Ð¾Ð²ÑĭÐµ": 6135,
      "âĢĵâĪĳâĢĵ": 6136,
      "ĠâĢ¢": 6137,
      "ĠÑĥÑģÐ¿ÐµÐ»Ð°": 6138,
      "ĠÐ²Ð¾Ð¹Ð½Ðµ": 6139,
      "ĠÑģÐ¸ÑģÑĮ": 6140,
      "ĠÐ¿ÑĢÐ¾ÑģÑĤÑĢÐ°Ð½ÑģÑĤÐ²Ð°": 6141,
      "Ð¼Ð¾Ðº": 6142,
      "ĠÐ½Ð°ÑģÐ»ÐµÐ´": 6143,
      "ĠÐ´ÐµÐ»Ð°Ð»Ð¸": 6144,
      "ĠÑĥÐ»ÑĭÐ±ÐºÐ¾Ð¹": 6145,
      "ĠÐ½ÐµÐ¸Ð·Ð±ÐµÐ¶": 6146,
      "ĠÐ¿ÑĢÐ¾ÑģÑĤÑĢÐ°Ð½ÑģÑĤÐ²Ð¾": 6147,
      "ĠÑĩÐ°Ð¹": 6148,
      "ĠÐ¿Ð¾Ð»Ð½ÑĭÐ¹": 6149,
      "Ð¸ÑĤÐµÐ»ÑĮÐ½Ð¾Ð³Ð¾": 6150,
      "ĠÐ¿Ð¾Ð²ÑĭÑĪ": 6151,
      "ĠÐ´ÐµÐ¹ÑģÑĤÐ²Ð¸Ð¹": 6152,
      "ĠÐ¾ÑĤÑĩÐµÑĤ": 6153,
      "ĠÑĤÐ°Ð»": 6154,
      "ĠÐļÐ°Ð¿": 6155,
      "ĠÐ½Ð°Ð²ÑģÐµÐ³Ð´Ð°": 6156,
      "ĠÑĢÐ°Ð·Ð´Ð°Ð»ÑģÑı": 6157,
      "ĠÐĿÑĥÐ¶": 6158,
      "ĠÐ±Ð»Ð°Ð¶ÐµÐ½": 6159,
      "ÐµÑĢÐµÐ¼": 6160,
      "ĠÐ¾ÐºÐ½Ð¾": 6161,
      "ĠÑģÑĥÑĤÐ¸": 6162,
      "ĠÑģÐ¾ÑģÑĤÐ¾": 6163,
      "ĠÐ¿Ð¾ÐºÐ°Ð·Ð°Ð»": 6164,
      "ĠÐ½Ð°ÑģÐ»Ð°Ð¶Ð´ÐµÐ½Ð¸Ðµ": 6165,
      "ĠÐ·Ð°ÑħÐ¾Ð´": 6166,
      "ĠÐ¾ÑĤÐ´Ð¾Ñħ": 6167,
      "ĠÑĨÐµÐ½ÑĤÑĢÐµ": 6168,
      "ĠÑĤÐµÐ¾ÑĢÐ¸Ð¸": 6169,
      "Ð»Ð¾Ðº": 6170,
      "ĠÑĢÐ¾ÑģÐº": 6171,
      "Ð»Ð¸Ð¿": 6172,
      "ĠÐ¿ÑĢÐ¾ÑĪÐ»Ð¸": 6173,
      "ĠÐ¿Ð¾Ð²Ð¾Ð´Ñĥ": 6174,
      "ĠÑĤÐµÐ»ÐµÑĦÐ¾Ð½": 6175,
      "Ã¼": 6176,
      "ĠÐĴÐ¾Ð»Ð¾Ð´": 6177,
      "ĠÐ»Ð¸ÑģÑĤ": 6178,
      "Ð½Ð¸ÐºÐ°Ð¼": 6179,
      "ĠÐ´Ð²Ð¸Ð¶ÐµÐ½Ð¸Ð¹": 6180,
      "ÑĢÐ°Ð»Ð°ÑģÑĮ": 6181,
      "ÑĢÐ°Ð¶Ð´": 6182,
      "ĠÐ¸ÑģÑĤÑĢÐµÐ±": 6183,
      "ĠÐ¼ÐµÑĢÑĤÐ²": 6184,
      "ĠÐ½Ð°Ð¿Ð¾Ð»": 6185,
      "ĠÐºÐ°Ð¿Ð»Ð¸": 6186,
      "ĠÐ¼Ð¾Ð´ÐµÐ»Ð¸": 6187,
      "ĠÑĨÐ²ÐµÑĤÐ°": 6188,
      "ĠÑĤÑĢÐ°Ð½ÑģÐ¿": 6189,
      "ĠÐĳÐµÑĢÐµÐ½Ð¸Ñģ": 6190,
      "Ġof": 6191,
      "ĠÐ±ÐµÑĪ": 6192,
      "Ð¸Ð²ÑĪÐ¸Ð¹": 6193,
      "ĠÐ²ÑĭÐ±Ð¾ÑĢ": 6194,
      "ĠÐ¿Ð¾ÐºÐ°Ð·Ð°ÑĤÑĮ": 6195,
      "ĠÐ¸Ð³ÑĢÐ¾ÐºÐ¾Ð²": 6196,
      "ĠÐ½ÐµÐ¿ÑĢÐ¸ÑıÑĤ": 6197,
      "ĠÐ±ÐµÐ·Ð¾Ð¿Ð°ÑģÐ½Ð¾ÑģÑĤÐ¸": 6198,
      "ĠÐ»ÑıÐ¶": 6199,
      "Ð´Ð°ÐµÑĤÑģÑı": 6200,
      "ĠÐĶÐ°ÑĢ": 6201,
      "ĠÐ²Ð¾Ð·ÑĢÐ°Ð¶": 6202,
      "ĠÐ¿Ð¾ÐºÑĢÑĭ": 6203,
      "ĠÑģÐ¿Ð¾ÑģÐ¾Ð±Ð½Ð¾ÑģÑĤÑĮ": 6204,
      "ĠÑĢÐ°Ð±Ñĭ": 6205,
      "ĠÐ¿Ð¸ÑģÐ°ÑĤÑĮ": 6206,
      "ĠÐºÐ¾Ð¶Ð°": 6207,
      "ĠÑģÐ¸Ð¼Ð²Ð¾Ð»": 6208,
      "ÐºÑĥÐ¿": 6209,
      "ĠÐ´ÑĢÑĥÐ³Ð°Ñı": 6210,
      "ĠÐ¿ÐµÑĢÐ²Ð¾Ðµ": 6211,
      "ĠÑĤÐµÑħÐ½Ð¸ÑĩÐµÑģÐº": 6212,
      "ĠÐ²Ð¾Ð´Ð°": 6213,
      "ĠÐ¼ÑıÐ³ÐºÐ¾": 6214,
      "ĠÑĦÐ¸Ð½Ð°Ð½ÑģÐ¾Ð²": 6215,
      "Ð¼Ð¼": 6216,
      "ĠÑĢÐ°ÑģÐ¿Ð¾Ð»Ð°Ð³": 6217,
      "Ð¸ÑĤÐµÐ»ÑĮÐ½Ð°Ñı": 6218,
      "ĠÐ½Ð°ÑģÐ°Ð¶": 6219,
      "ĠÑĥÑģÑĤÑĥÐ¿": 6220,
      "ĠÑĩÐµÐ»Ð¾Ð²ÐµÑĩÐµÑģÑĤÐ²Ð¾": 6221,
      "ĠÐ°Ð¿Ð¿Ð°ÑĢÐ°ÑĤ": 6222,
      "ÑĤÐµÐ½": 6223,
      "ÐµÑħÐ°Ð»Ð°": 6224,
      "ĠÐ¸Ð³ÑĢÑĥÑĪ": 6225,
      "ĠÐ¿ÑĢÐ¾ÑĪÐ»Ð°": 6226,
      "ĠÐ¿ÑĢÐµÐ¾Ð´Ð¾Ð»": 6227,
      "ĠÑĩÑĥÐ´Ð¾Ð²Ð¸Ñī": 6228,
      "ÐµÐµÑĤ": 6229,
      "ÑĥÑĩÐ¸": 6230,
      "ĠÑģÐ¼ÐµÐ»": 6231,
      "ĠÑĢÐ°ÑģÑĩ": 6232,
      "ĠÐºÐ»Ð°ÑģÑģÐ°": 6233,
      "Ð½Ð°Ð´ÑĨÐ°ÑĤ": 6234,
      "Ð¾Ð´ÐµÐ¹ÑģÑĤÐ²": 6235,
      "ĠÐ¡ÑĤÐ¸Ð²": 6236,
      "ĠÐ²Ð¾ÑģÐ¿Ð¾Ð¼Ð¸Ð½Ð°": 6237,
      "Ð°Ð¹ÑĤÐµÑģÑĮ": 6238,
      "ĠÐ¿ÑĢÐ¾Ð·ÑĢÐ°Ñĩ": 6239,
      "ĠÐ²ÑĢÐ°Ñī": 6240,
      "ĠÑĢÐ°": 6241,
      "ĠÐµÑİ": 6242,
      "ĠÐ¾ÑģÑĤÐ°ÐµÑĤÑģÑı": 6243,
      "ĠÐ·Ð°Ð¿ÑĢÐµÑĤ": 6244,
      "ĠÐ¿Ð¾Ð³Ð»Ð°Ð´": 6245,
      "ĠÐ»ÐµÐ¶Ð¸ÑĤ": 6246,
      "ĠÐ°Ð½Ð°Ð»Ð¾Ð³": 6247,
      "ĠÐ¿Ð¸ÑĤÑĮ": 6248,
      "ĠÐ»Ð¾": 6249,
      "ĠÑħÐ¾ÑĢÐ¾ÑĪÐ¸Ð¹": 6250,
      "ĠÐ¡ÐµÑģÑĤ": 6251,
      "ĠÐ¿ÑĢÐµÐ´Ð¾ÑģÑĤÐ°Ð²": 6252,
      "ÑĥÐ´Ð°Ñĩ": 6253,
      "âĢĵâī¤âĢĵâĪŀâĢĶ": 6254,
      "ĠÐ½Ð°Ð·ÑĭÐ²Ð°ÐµÐ¼": 6255,
      "ĠÐ¿Ð°Ð¼ÑıÑĤÑĮ": 6256,
      "Ð»ÑıÐ»ÑģÑı": 6257,
      "ÐµÐ½Ð¸ÑıÐ¼": 6258,
      "ÑİÑīÐ¸Ð¼": 6259,
      "ĠÐ²ÑģÑıÐºÐ¾Ð³Ð¾": 6260,
      "ĠÐ²Ð°ÑĪÐµÐ¹": 6261,
      "ĠÐ½Ð¾Ð²Ð°Ñı": 6262,
      "ĠÐ³ÑĥÐ±Ð°Ð¼": 6263,
      "ÑıÑĤÐ¾": 6264,
      "ÐµÑĢÐ½Ð°": 6265,
      "ĠÐĿÐµÐ¿": 6266,
      "ĠÐ²Ð¾ÑĪÑĳÐ»": 6267,
      "ĠÑĤÑĢÐ°Ð´Ð¸": 6268,
      "ĠÐļÐ°ÐºÐ¾Ð¹": 6269,
      "ĠÐ½ÐµÐ²ÐµÑĢÐ¾ÑıÑĤÐ½Ð¾": 6270,
      "ĠÐ´Ð¾Ð¿Ð¾Ð»Ð½Ð¸ÑĤÐµÐ»ÑĮ": 6271,
      "ÑĢÐ°Ð±": 6272,
      "ÑģÑĤÐ°Ð½": 6273,
      "ĠÐ½ÐµÐ¿ÑĢÐ°Ð²": 6274,
      "ĠÐ±ÑĢÐ¾ÑģÐ¸Ð»": 6275,
      "ÐµÐ¼Ð°": 6276,
      "ĠÐ¼Ð¾ÑĢÐ°Ð»ÑĮ": 6277,
      "ĠÑĢÐ°Ð·Ð´ÑĢÐ°Ð¶": 6278,
      "ÐĵÐĹ": 6279,
      "ĠÐ¼ÐµÑħÐ°Ð½Ð¸Ð·": 6280,
      "Ð¶ÐµÐ½Ð¸Ðµ": 6281,
      "ĠÐ¿ÑĢÐ¾ÑĤÐ¸Ð²Ð¾ÑĢÐµÑĩ": 6282,
      "Ð¾Ð¿ÐµÐ½": 6283,
      "ÐµÐ½ÑĮÑĪ": 6284,
      "ĠÐ¸Ð¼ÐµÐ½Ð¸": 6285,
      "ĠÐ¾Ð±Ð½Ð¸Ð¼": 6286,
      "ĠÐºÑĥÐ»Ð°Ðº": 6287,
      "Ð¸Ð²Ð°Ð½Ð¸Ðµ": 6288,
      "ĠÐ²ÑĭÐºÐ»ÑİÑĩ": 6289,
      "ĠÐ¿ÑĢÐ¾ÑīÐµ": 6290,
      "ÑĢÐ°Ð·ÑĥÐ¼": 6291,
      "ÐµÐ´Ð¸Ð½Ð¸": 6292,
      "ĠÐ¾Ð¿ÑĥÑģÑĤÐ¸Ð»Ð°ÑģÑĮ": 6293,
      "ĠÐ·Ð°Ð´Ð°ÑĩÐ°": 6294,
      "Ð»ÐµÑĩÑĮ": 6295,
      "ĠÐ»ÑĮ": 6296,
      "ĠÐ½Ð°Ð²ÐµÑĢÐ½Ð¾": 6297,
      "ĠÑĪÐ»ÑİÑħÐ°": 6298,
      "ĠÐ·ÑĢÑı": 6299,
      "ĠÑĥÑĪÐ»Ð°": 6300,
      "ĠÐ°Ð½Ð³": 6301,
      "Ð¸ÑħÐ¾Ð½ÑĮÐºÑĥ": 6302,
      "ĠÐ´ÑĭÐ¼": 6303,
      "ÐµÐ·Ð´Ð°": 6304,
      "ĠÐ¾Ð´Ð¸Ð½Ð°Ðº": 6305,
      "ĠÐ¿ÑĢÐ¾Ð³ÑĢÐ°Ð¼Ð¼": 6306,
      "ĠÐ¿ÑĢÐµÐ¿Ð¾Ð´": 6307,
      "ĠÐ²Ð¼ÐµÑĪ": 6308,
      "ĠÐ¸Ð³ÑĢÐ¾Ð²": 6309,
      "ĠÐ¿Ð¾Ð½Ð¸Ð¼Ð°ÐµÑĪÑĮ": 6310,
      "ÑĭÑĢ": 6311,
      "ĠÑģÐ´Ð²": 6312,
      "ĠÐ¾Ð±Ð¾Ð·": 6313,
      "ĠÐ²Ð¿ÑĢÐ¾ÑĩÐµÐ¼": 6314,
      "ĠÐ¡ÐºÐ¾Ð»ÑĮÐºÐ¾": 6315,
      "ĠÐ·Ð»Ð¾": 6316,
      "ÐĴÐ¾ÑĤ": 6317,
      "ĠÐ°Ð²ÑĤ": 6318,
      "ÐµÐ½ÑĮÐµ": 6319,
      "ĠÐµÑģÑĤÐµÑģÑĤÐ²ÐµÐ½Ð½Ð¾": 6320,
      "ĠÐ¡Ð¾Ð»Ð½ÐµÑĩ": 6321,
      "ĠÐ¾ÑĤÑĤÑĥÐ´Ð°": 6322,
      "Ġ28": 6323,
      "ĠÐ¿Ð¾ÑıÐ²Ð¸Ð»Ð¸ÑģÑĮ": 6324,
      "ĠÐ¿Ð¾Ð´Ð¾Ð±Ð½Ð¾Ðµ": 6325,
      "ĠÐ²Ð¾ÑģÑħÐ¸Ñī": 6326,
      "ĠJ": 6327,
      "ĠÐĴÐ°Ð¼": 6328,
      "ĠÐ²Ð¾Ð´Ð¾Ð¹": 6329,
      "ĠÐ¾ÑĤÐ²ÐµÑĢÑģÑĤÐ¸Ðµ": 6330,
      "ĠÐ¿Ð¾Ð¿ÐºÐ°": 6331,
      "ĠÑģÐ¿Ð¾ÑģÐ¾Ð±Ð½Ð¾ÑģÑĤÐ¸": 6332,
      "ĠÑģÑĢÐµÐ´ÑģÑĤÐ²": 6333,
      "ut": 6334,
      "ĠÑįÐºÐ¸Ð¿": 6335,
      "Ð°Ð½Ð¾Ð¼": 6336,
      "Ð³Ð¾ÑĤ": 6337,
      "ĠÐ²ÐµÑĢÐ½ÑĥÐ»Ð°ÑģÑĮ": 6338,
      "ĠÐ¾ÑĤÐºÐ»ÑİÑĩ": 6339,
      "ĠÐ°Ð²ÑĤÐ¾ÑĢ": 6340,
      "ĠâĢĵÂ°": 6341,
      "ĠÐ·Ð°ÐºÑĢÑĭÐ»": 6342,
      "ĠâĢĵÂ±âĢĵ": 6343,
      "ĠÐ¼Ð¾ÑģÑĤ": 6344,
      "Ð¾Ð²Ð°Ð»Ð¸ÑģÑĮ": 6345,
      "ĠÐ¿Ð¾Ð¿ÐºÐµ": 6346,
      "ĠÑĥÐ²Ð¸Ð´ÐµÐ²": 6347,
      "ÑĥÑİÑīÐ¸Ð¹": 6348,
      "ĠÐĿÐ¸ÐºÐ°Ðº": 6349,
      "ĠÐ¼Ð¸Ð»Ð»Ð¸Ð°ÑĢÐ´": 6350,
      "ÑĢÐ°Ð»Ð¸ÑģÑĮ": 6351,
      "ĠÑģÑĥÑħ": 6352,
      "Ð²Ð¾ÑĤ": 6353,
      "Ð°Ð¹ÑĤ": 6354,
      "Ð»ÐµÐ½Ð½Ð¾Ð¹": 6355,
      "ĠÐ±ÐµÐ·Ð´": 6356,
      "ĠÐ»ÑİÐ±Ð¾Ð¼": 6357,
      "ĠÐ±Ð¾Ð¼Ð±": 6358,
      "ÑĢÐµÐ½Ð¸Ñı": 6359,
      "ÐºÑĥÑĢ": 6360,
      "ĠÐ´Ð¾ÑħÐ¾Ð´": 6361,
      "ĠÑģÐ¾Ð±ÑģÑĤÐ²ÐµÐ½Ð½Ð¾": 6362,
      "ĠÐ»ÑİÐ±Ð¸Ð»": 6363,
      "ĠÐ´Ð¾ÐºÑĥÐ¼": 6364,
      "ĠÐĶÑĥÐ¼Ð°Ñİ": 6365,
      "Ð¸ÑĢÐ°ÑıÑģÑĮ": 6366,
      "ÐµÑĢÐ±": 6367,
      "ÑĢÐ°Ð½ÐµÐµ": 6368,
      "ĠÐ¿Ð¾Ð»Ð½Ð¾Ð¼": 6369,
      "ÐµÐ³Ð°": 6370,
      "ĠÐ¶ÐµÐ½ÑīÐ¸Ð½Ð¾Ð¹": 6371,
      "ĠÐ¾ÑĤÐ½Ð¾ÑģÐ¸ÑĤÐµÐ»ÑĮÐ½Ð¾": 6372,
      "Ð¾Ð²ÑĥÑİ": 6373,
      "ÐµÑĤÐ¾Ð¼": 6374,
      "Ð¸Ð½Ð°Ð»": 6375,
      "ÑĩÐ¸Ð½Ñĥ": 6376,
      "ĠÐ·Ð°ÑģÑĤÐ°Ð²Ð¸Ð»": 6377,
      "ĠÐ²Ð½ÑĥÑĪ": 6378,
      "ÑıÑİÑĤ": 6379,
      "ĠÐ¾ÑĤÐ¾Ð´": 6380,
      "ĠÐľÐ°Ðº": 6381,
      "ĠÐ¾Ð´Ð½Ð¸": 6382,
      "ĠÑģÐ¾ÑģÐ¾Ðº": 6383,
      "ĠÐĶÐ¶ÐµÐ¹": 6384,
      "Ð°ÑĤÑĭÐ¹": 6385,
      "ĠÐ½ÐµÐ¿Ð¾Ñģ": 6386,
      "ĠÐ¸Ð´ÐµÐ¸": 6387,
      "ĠÐ¡Ð¿ÑĥÑģÑĤ": 6388,
      "ĠÐĿÐ°ÑģÑĤÑı": 6389,
      "ĠÐ¸Ð·Ð»ÑĥÑĩ": 6390,
      "ĠÐ·Ð°ÐºÐ°Ð½": 6391,
      "ĠÐ¿Ð¾ÑģÐµÐ»": 6392,
      "ĠÐ³Ð¾ÑģÑĥÐ´Ð°ÑĢÑģÑĤÐ²Ð°": 6393,
      "ÑĢÐµÑĪ": 6394,
      "ÐµÐ¶Ð°Ð»Ð¸": 6395,
      "ĠÐ¿ÑĭÑĤÐ°Ð»Ð°ÑģÑĮ": 6396,
      "ĠÐ²Ð¿ÐµÑĢÑĳÐ´": 6397,
      "ĠÐĺÑĢÐºÐ°": 6398,
      "Ð½Ð°Ð´": 6399,
      "ĠÐ¿Ð¸ÑģÑĤ": 6400,
      "Ð¸ÑĤÐµÐ»ÐµÐ¼": 6401,
      "ĠÐ·Ð°Ð¼ÐµÑĤÐ½Ð¾": 6402,
      "ĠÑģÐµÐ¼ÐµÐ¹": 6403,
      "ĠÐ¾Ð±Ð¾Ð¸Ñħ": 6404,
      "ÑĪÐ¸Ð½Ð°": 6405,
      "ĠÑģÐ¼ÑĭÑģÐ»Ð°": 6406,
      "ĠÐ²Ð¾Ð»Ð½Ñĥ": 6407,
      "ĠÐ¿ÑĢÐ¸ÑģÐ¾": 6408,
      "ĠÐ·Ð²ÑĥÐºÐ¸": 6409,
      "ĠÑĪÐ°ÑħÐ¼Ð°ÑĤ": 6410,
      "ÐµÑİ": 6411,
      "ĠÐ·Ð°ÑĢÐ°Ð½ÐµÐµ": 6412,
      "ĠÐ¿Ð¾Ð·Ð´": 6413,
      "ĠÑģÑĥÑĤÑĮ": 6414,
      "ĠÐ·Ð°Ð±ÑĭÐ»": 6415,
      "ĠÐ¾ÑĤÐ¿ÑĥÑģÐº": 6416,
      "ĠÐ§ÐµÐ»Ð¾Ð²ÐµÐº": 6417,
      "ĠÐ¿ÐµÑĢÐ²ÑĭÑħ": 6418,
      "ĠÐ´Ð¾ÑĢÐ¾Ð³Ðµ": 6419,
      "ĠÐ¿ÑıÑĤÐ½Ð°Ð´ÑĨÐ°ÑĤÑĮ": 6420,
      "ĠÐŁÐµÑĢÐ²ÑĭÐ¹": 6421,
      "os": 6422,
      "Ð¸ÑĨÐ°": 6423,
      "ÐµÐ½Ð¾Ð¼": 6424,
      "ĠÐ»Ð¾Ð¼": 6425,
      "ĠÐ²ÑĭÐ¸Ð³": 6426,
      "ĠÐºÐ¾Ð»Ð¾": 6427,
      "ĠÐ²ÑĤÐ¾ÑĢÐ¾Ð³Ð¾": 6428,
      "ĠÑĤÐ²Ð¾ÐµÐ³Ð¾": 6429,
      "ĠÑĦÐ¸Ð³Ñĥ": 6430,
      "ĠÐ¶Ð¸Ð·Ð½ÑĮÑİ": 6431,
      "ĠÐ´ÑĢÐ°Ð¼": 6432,
      "Ð³Ð°Ñĥ": 6433,
      "ĠÐ²Ð¸Ð½Ð°": 6434,
      "ĠÑģÐ¼Ð¾ÑĤÑĢÐ¸": 6435,
      "ĠÐ´Ð¾ÑģÑĤÐ¾": 6436,
      "ĠÐ³Ð¾ÑĤÐ¾Ð²Ñĭ": 6437,
      "Ġ199": 6438,
      "ĠÐĺÐ½ÑĤÐµÑĢÐµÑģ": 6439,
      "ĠÑĢÐ°ÑģÑģÐºÐ°Ð·Ð°ÑĤÑĮ": 6440,
      "Ð½Ð¾Ð³Ð¸Ðµ": 6441,
      "Ð¾Ð½ÑĮÐºÐ¾": 6442,
      "ĠÐ¾Ð±Ð½Ð°ÑĢÑĥÐ¶Ð¸Ð»": 6443,
      "ĠÐ¿ÑĥÑĤÐµÐ¼": 6444,
      "ĠÐ¿Ð¾Ð´Ð·ÐµÐ¼": 6445,
      "Ð°ÑİÑīÐµ": 6446,
      "ĠÑĤÑĢÑĥÐ´Ð°": 6447,
      "Ð¾ÑģÑĤÐ¾ÑıÑĤÐµÐ»ÑĮ": 6448,
      "ĠÐĺÑĢÐ¸Ð½Ð°": 6449,
      "ĠÐĺÐ²": 6450,
      "Ġ,": 6451,
      "ÑĨÐµÑģÑĤ": 6452,
      "ĠÐ¢ÐĵÐĹ": 6453,
      "ÑĭÐ²Ð°Ð»ÑģÑı": 6454,
      "ĠÐ¿Ð¾Ð»Ð¸": 6455,
      "ĠÐ¿Ð¾Ð½Ð¸Ð¼Ð°Ñı": 6456,
      "ĠÑģÑĩÐ¸ÑĤÐ°Ð»": 6457,
      "ĠÐ·Ð°ÑĢÑıÐ´": 6458,
      "ĠÑħÐ²Ð°ÑĤÐ°ÐµÑĤ": 6459,
      "ĠÑģÐ¸Ð»Ð°Ñħ": 6460,
      "ÑĤÐ°ÑĢ": 6461,
      "ĠÐ²Ð¸ÑĢÑĥ": 6462,
      "ÑĢÐ¾Ð½Ð°": 6463,
      "ĠÐ²Ð¾Ð·ÑĮ": 6464,
      "ĠÑģÑĢÐµÐ´ÑģÑĤÐ²Ð°": 6465,
      "ĠÐ²ÐµÑĩÐµÑĢÐ°": 6466,
      "Ġ***": 6467,
      "ĠÑįÑĦÑĦÐµÐºÑĤ": 6468,
      "Ð¸Ð¼Ð¾Ðµ": 6469,
      "ĠÐ¸Ð·Ð¼ÐµÑĢ": 6470,
      "ĠÑģÐ»ÑĥÑħ": 6471,
      "ĠÐ¿Ð¾ÑģÑĤÐ°ÑĢ": 6472,
      "ĠÐ½Ð°Ð¿ÑĢÐ°Ð²Ð¸Ð»ÑģÑı": 6473,
      "',": 6474,
      "ĠÑĤÐ°Ð·": 6475,
      "ĠÐ¢Ð°": 6476,
      "ĠÑĤÐ²ÐµÑĢ": 6477,
      "ĠÐŀÑĢ": 6478,
      "âĢĵâĪı,": 6479,
      "ĠÐ²Ð¾Ð¹Ð½Ñĥ": 6480,
      "Ð½Ð¾Ð·": 6481,
      "ĠÐ²Ð¾ÑģÑĮ": 6482,
      "ĠÐĽÑĥÑĩ": 6483,
      "ĠÐºÐ°ÑĤÐµÐ³Ð¾ÑĢÐ¸": 6484,
      "ĠÐ´ÐµÐ²Ð¾ÑĩÐºÑĥ": 6485,
      "Ð»ÑĥÑĪÐ°Ð¹": 6486,
      "ĠÐ´Ð¾Ð±Ð°Ð²Ð¸Ð»": 6487,
      "ĠÐ¼Ð¸ÑģÑĤ": 6488,
      "ÑİÑīÑĥÑİ": 6489,
      "ĠÑģÑĭÐ½Ñĥ": 6490,
      "ÐºÑĢÐµÑĤ": 6491,
      "ÐµÑĤÐµÐ»Ð¸": 6492,
      "ĠÐŁÐµÑĤÑĢÐ¾Ð²": 6493,
      "ĠÐĳÐ¾Ð»ÑĮÑĪ": 6494,
      "ĠÑģÑĭÐ½Ð¾Ð¼": 6495,
      "Ð´Ð°Ð¼": 6496,
      "ĠÐĵÐ¾Ð²Ð¾ÑĢ": 6497,
      "ĠÐ´Ð¸Ð²Ð°Ð½Ðµ": 6498,
      "ĠÐ²ÑĭÑĢÐ°Ð·": 6499,
      "ĠÑĢÐµÐ±ÑıÑĤÐ°": 6500,
      "ĠÑģÑĤÑĭÐ´": 6501,
      "ÑİÐ±": 6502,
      "Ð¾ÑĢÑī": 6503,
      "ĠÐ¿Ð¾Ð¿ÑĢÐ°Ð²": 6504,
      "Ð¿Ð¾Ð»ÐµÐ·": 6505,
      "ĠÐ±ÐµÑģÐµÐ´": 6506,
      "ĠÐ½ÐµÐ·Ð°Ð²Ð¸Ñģ": 6507,
      "Ð¸Ð½ÑĥÐ»Ð°": 6508,
      "ĠÑģÑĤÐ°Ðº": 6509,
      "ĠÐ¤ÑĢÑįÐ½": 6510,
      "ĠÐ½Ð°Ð±ÑĥÑħ": 6511,
      "ĠÑģÑĤÑĢÐ¾Ð³Ð¾": 6512,
      "ĠÐ¼Ð°Ð»ÐµÐ½ÑĮÐºÐ¸Ðµ": 6513,
      "ĠÑĤÐ¸ÑħÐ¾Ð½ÑĮÐºÐ¾": 6514,
      "ĠÐ´Ð°Ð»Ð¸": 6515,
      "Ð½Ð¾Ñİ": 6516,
      "ĠÑĤÑĢÑĥÑģÐ¾Ð²": 6517,
      "ĠÑİÐ½Ð¾": 6518,
      "ĠÐłÐ°Ð·ÑĥÐ¼": 6519,
      "Ã§": 6520,
      "Ð¾ÑĤÐ¾Ð¹": 6521,
      "ÑģÐºÐ¾Ð»ÑĮÐ·": 6522,
      "ĠÐ¿Ð¾Ð´Ð¾Ð¶Ð´": 6523,
      "ĠÐºÐ°ÑĢÑĤÐ¸Ð½": 6524,
      "ĠÑĢÐ°ÑģÐ¿Ð°Ñħ": 6525,
      "ÑĨÐ°Ñħ": 6526,
      "ĠÐ¿ÑĢÐ¸ÑĢÐ¾Ð´Ðµ": 6527,
      "ĠÑģÐ°Ð¼ÑĥÑİ": 6528,
      "Ð¸ÑĨÐµÐ¹": 6529,
      "ĠÐ¼Ð¾ÐºÑĢ": 6530,
      "ĠÐ¿Ð¸Ñī": 6531,
      "ĠÑģÑĤÐ¾Ð»Ðµ": 6532,
      "ĠÐ½ÐµÐ´Ð¾": 6533,
      "ĠÐ¿ÑĢÐµÑĢÐ²": 6534,
      "ĠÐ¡Ð»Ð¾Ð²": 6535,
      "ĠÐ¿Ð¾ÑĤÐ¸ÑħÐ¾Ð½ÑĮÐºÑĥ": 6536,
      "ĠÐ·Ð°Ð½ÑıÑĤÑĮÑģÑı": 6537,
      "Ð²ÑĤÐ¾ÑĢ": 6538,
      "ĠÐĴÐµÑĩ": 6539,
      "ĠÐĴÐ°Ð½Ñı": 6540,
      "ĠÐ¿Ð¾ÑģÑĤÐ°Ð½Ñĭ": 6541,
      "ĠÐ¿ÑĢÐ¸Ð½ÑıÐ»": 6542,
      "ĠÐ¿ÑĢÐ¾Ð²ÐµÑģÑĤÐ¸": 6543,
      "ĠÐ²Ð¾ÑģÐ¿Ð¾Ð»ÑĮÐ·": 6544,
      "ĠÐ·Ð°Ð½ÑıÑĤ": 6545,
      "ĠÑħÐ²Ð°ÑĤÐ°Ð»Ð¾": 6546,
      "ĠÐ¾Ð±Ð½ÑıÐ»": 6547,
      "ĠÐ²Ð¾Ð¶": 6548,
      "ĠÐ²ÑĭÐ»ÐµÐ·": 6549,
      "ÐµÐ»Ð¸Ð½Ð°": 6550,
      "ĠÐ²Ð¸Ð´Ð¸ÑĤ": 6551,
      "ĠÐ¼ÑĥÐ´ÑĢ": 6552,
      "Ð½ÐµÐ½Ð¸Ð¹": 6553,
      "ĠÐ¿ÑĢÐ¸ÑģÑĤÐ°Ð²": 6554,
      "ĠÐ°Ð½Ð³Ð»Ð¸Ð¹": 6555,
      "ĠÐ±ÐµÐ´ÑĢÐ°Ð¼Ð¸": 6556,
      "ĠÐ·Ð°Ð³Ð°Ð´": 6557,
      "ĠÐ¸Ð½ÑĤÐµÐ»Ð»ÐµÐºÑĤÐ°": 6558,
      "ÑĮÐ¸": 6559,
      "ĠÐ¿Ð¾Ð¸Ð½ÑĤÐµÑĢÐµÑģ": 6560,
      "Ð»ÑıÐ»Ð¸": 6561,
      "ÑģÐ»Ð°Ð²": 6562,
      "ĠÐ´Ð¾ÑĢÐ¾Ð³Ñĥ": 6563,
      "ĠÐ·Ð°ÑħÐ¾ÑĤÐµÐ»Ð¾ÑģÑĮ": 6564,
      "23": 6565,
      "ÑģÑĤÑģÑı": 6566,
      "ĠÐ½Ð°Ð¸Ð²": 6567,
      "ĠÐ¼ÑĥÐ¶Ð°": 6568,
      "ĠÑģÑĢ": 6569,
      "Ð¾ÐºÑĢÐ¸ÑģÑĤÐ°Ð»": 6570,
      "Ð°Ð»ÑĮÐ½Ð¾ÑģÑĤÑĮ": 6571,
      "ĠÐºÐ¾ÑĪ": 6572,
      "ĠÐ¼Ð¸ÑĢÑĥ": 6573,
      "ĠÐ¼Ð°ÑĤÐµÑĢÑĮÑİ": 6574,
      "ĠÐ¾ÑĤÐ»Ð¸ÑĩÐ¸Ðµ": 6575,
      "ĠÐºÑĥÑģÑĤ": 6576,
      "ĠÐ³ÑĥÐ»Ñı": 6577,
      "ĠÐ¸Ð·ÑĥÐ¼": 6578,
      "ĠÐ¿ÑĢÐ¾ÑĩÐ¸ÑĤ": 6579,
      "ĠÑģÐ¿ÐµÑĨ": 6580,
      "ĠÐ¿Ð¾Ð¿Ð°Ð»": 6581,
      "ĠÐ¾ÑĤÐºÐ°Ð·ÑĭÐ²": 6582,
      "Ð¸Ð±Ð»Ð¸": 6583,
      "ĠÐºÑĢÐ¸Ðº": 6584,
      "ĠÑĢÐ¾Ð±Ð¾ÑĤÐ¾Ð²": 6585,
      "ĠÑģÑı": 6586,
      "Ð¸ÑĩÐºÐ¸": 6587,
      "Ð¸Ð·Ð¼Ð°": 6588,
      "ĠÐ¾ÑĤÐ²ÐµÑĤÐ°": 6589,
      "ĠÐ¿Ð¸": 6590,
      "ĠÐ½Ð°Ð²Ñĭ": 6591,
      "ĠÐ²ÑģÑĤÐ°Ð²Ð¸Ð»": 6592,
      "24": 6593,
      "ĠÐŀÑģÑĤÐ°Ð²": 6594,
      "ÑĦÑĢ": 6595,
      "ĠÐ³Ð¾Ð»Ð¾Ð¹": 6596,
      "ĠÐ¿ÑĢÐ¾Ð´Ð¾Ð»Ð¶Ð°Ñı": 6597,
      "ĠÐ¿Ð»ÐµÑĩÐ°Ð¼Ð¸": 6598,
      "ĠÐ¿ÑĢÐ¸ÐºÐ°Ð·Ð°Ð»": 6599,
      "ĠÐ²Ð½Ðµ": 6600,
      "ĠÐ³ÑĢÑĥÐ¿Ð¿Ñĭ": 6601,
      "ĠÑģÑĩÐ°ÑģÑĤÑĮÑİ": 6602,
      "ĠÐ²ÐµÑĢÐ½Ð¾": 6603,
      "ĠÐºÑĢÐ°ÑģÐ¸Ð²Ð°Ñı": 6604,
      "ĠÐ¼Ð°ÑĤÐµÐ¼Ð°ÑĤÐ¸": 6605,
      "ĠÐ±ÑĢÑĭÐ·": 6606,
      "Ġv": 6607,
      "ĠÑĤÐµÐ¼Ñĥ": 6608,
      "Ð½Ð¸ÑĪÑĮ": 6609,
      "ĠÐ²ÑĭÐ³Ð¾Ð´": 6610,
      "ĠÐŀÐ³": 6611,
      "ĠÑģÐ¸Ð´ÐµÑĤÑĮ": 6612,
      "ĠÐ¿ÐµÑĢÐµÐ¾Ð´": 6613,
      "Ð¾Ð»ÑİÐ±": 6614,
      "ĠÐ½Ð°Ð»Ð¸Ñĩ": 6615,
      "ĠÐķÐ´Ð¸Ð½": 6616,
      "Ð°ÑİÑīÐ¸Ð¼Ð¸": 6617,
      "ĠÐ½Ð¾Ð³Ð°Ñħ": 6618,
      "ĠÐ¿Ð¾Ð»ÑĥÑĩÐ¸ÑĤÑģÑı": 6619,
      "ĠÐ½Ð°ÑħÐ¾Ð´Ð¸Ð»ÑģÑı": 6620,
      "ĠÐ±Ð¾Ñİ": 6621,
      "ĠÐºÐ½Ð¸Ð³Ñĥ": 6622,
      "ĠÐ³Ðµ": 6623,
      "ĠÑģÑĤÐ°ÑĢÑĥÑħÐ°": 6624,
      "ĠÐ¾Ð·Ð½Ð°ÑĩÐ°ÐµÑĤ": 6625,
      "ĠÐ´ÐµÑĢÐ³": 6626,
      "Ð»ÐµÐ½Ð¾": 6627,
      "ĠÐ°Ð²ÑĤÐ¾Ð¼Ð¾Ð±": 6628,
      "ĠÐ²Ð°ÑĢÐ¸Ð°Ð½ÑĤ": 6629,
      "ĠÐ´ÐµÐ¹ÑģÑĤÐ²Ð¾Ð²Ð°ÑĤÑĮ": 6630,
      "ĠÑģÑģ": 6631,
      "Ð°Ð»Ð¸Ð»ÑģÑı": 6632,
      "ĠÐ¿ÑĢÐ¾ÑģÑĮ": 6633,
      "ÑĳÐ½Ð½ÑĭÐ¹": 6634,
      "ĠÐ¸Ð·Ð³Ð¾ÑĤÐ¾Ð²": 6635,
      "ĠÐ¾ÑĤÐ²ÐµÑĤÐ¸ÑĤÑĮ": 6636,
      "ĠÐ²Ð¾Ð·Ð²ÑĭÑĪ": 6637,
      "ĠÐ¿ÑĢÐ¸Ð³Ð»Ð°Ñģ": 6638,
      "Ð¾Ð¿ÐµÐ½Ð³Ð°Ñĥ": 6639,
      "ÑĢÐµÐ´Ð¸": 6640,
      "ÐµÑĤÑĮÑģÑı": 6641,
      "ĠÐ¿ÑĢÐ¸Ð²ÐµÑĤ": 6642,
      "ĠÐºÐ¾Ð¼Ð°Ð½Ð´Ð¸": 6643,
      "ÑĢÑĥÐ¿": 6644,
      "ĠÐ¯Ð½": 6645,
      "ĠÐĲÐ½ÑĤÐ¾Ð½": 6646,
      "ĠÐ¿ÑĢÐ¸Ð·Ð½Ð°Ðº": 6647,
      "ĠÐ¿ÑĢÐµÐ¸Ð¼": 6648,
      "Ã¹": 6649,
      "ĠÑģÑĢÐ¾Ñĩ": 6650,
      "ĠÑĥÐ¹ÑĤÐ¸": 6651,
      "Ð³ÐµÐ½": 6652,
      "Ð½ÑĥÑĤÑĢÐ¸": 6653,
      "ÑĩÐ°ÑģÐ°": 6654,
      "ĠÐ¸Ð¼ÐµÑİ": 6655,
      "ĠÐ²ÑĭÐ³Ð»ÑıÐ´ÐµÐ»": 6656,
      "ĠÐ²ÑĤÐ¾ÑĢÐ°Ñı": 6657,
      "ĠÐµÐ»Ðµ": 6658,
      "ĠÐ»Ð¸ÑĤÐµÑĢ": 6659,
      "Ð¾ÐºÐ¾Ð¼": 6660,
      "ĠÑģÑĤÐ¾ÑıÑĤÑĮ": 6661,
      "Ð»Ð¾Ð¶Ð¸Ð»": 6662,
      "ĠÐ½Ð°ÑģÐµÐ»ÐµÐ½Ð¸Ñı": 6663,
      "ÑıÑīÑĥÑİ": 6664,
      "ĠÐ²Ð¾ÑģÑĤÐ¾ÑĢÐ³": 6665,
      "ÑĥÑīÐ¸Ñħ": 6666,
      "ĠÐ±Ð¾Ð»ÑĮÑĪÐµÐ¹": 6667,
      "ĠÑģÐ¸Ð»ÑĮÐ½ÐµÐ¹": 6668,
      "Ð°Ð½ÑĤÑĭ": 6669,
      "ĠÐ¿Ð¾Ð»Ð°": 6670,
      "ĠÐ½Ð°ÑģÑĤÐ¾Ñı": 6671,
      "ĠÐ»ÐµÐ³ÑĩÐµ": 6672,
      "ĠÐ¸Ð½ÑģÑĤÐ¸Ð½ÐºÑĤ": 6673,
      "ĠÐ¼ÑĭÑģÐ»ÐµÐ¹": 6674,
      "ĠÐ¿ÐµÑīÐµÑĢ": 6675,
      "ce": 6676,
      "ĠÑģÐ¼ÐµÐ½": 6677,
      "ĠÐ¾ÐºÐ½Ð°": 6678,
      "ĠÑĥÐ¼ÐµÐ½ÑĮÑĪ": 6679,
      "ĠÐ¿Ð°Ð»ÑĮÑĨÐ°": 6680,
      "ĠÐĴÐ¾Ð¾Ð±ÑīÐµ": 6681,
      "ĠÐ¸Ð»Ð»ÑİÐ·": 6682,
      "ĠÐ²Ð¸Ð±": 6683,
      "ĠÐĳÐ¾ÑĢ": 6684,
      "ĠÐŁÐ¾Ð´ÑĢÐ¾ÑģÑĤ": 6685,
      "ĠÐ´ÐµÑĢÐ¶Ð°ÑĤÑĮ": 6686,
      "ĠÐ¼ÑĭÑģÐ»Ñı": 6687,
      "ĠÐ¾Ð´ÐµÐ¶Ð´Ñĭ": 6688,
      "ĠÐ²ÐµÐ·Ð´Ðµ": 6689,
      "Ð¾Ð±ÑĢÐµÑĤ": 6690,
      "ĠÑģÑĤÐ°Ð´": 6691,
      "ĠÐĺÑģÑĤ": 6692,
      "ĠÐ¿ÐµÑĢÐµÑħ": 6693,
      "ĠÑģÐµÐºÑĥÐ½Ð´Ñĭ": 6694,
      "ĠÐ¾ÑģÐ²ÐµÑī": 6695,
      "ĠÐºÐ¾ÑģÐ¼Ð¾ÑģÐµ": 6696,
      "ĠÐĵÐµÑĢÐ¼": 6697,
      "ĠÐ²Ð¾Ð»Ñı": 6698,
      "ĠÐ²ÑģÑĤÐ°ÑĤÑĮ": 6699,
      "ĠÐ¿ÑĢÐ¾ÑģÐ½ÑĥÐ»ÑģÑı": 6700,
      "ĠÐ¿ÑĢÐ¾ÑĨÐµÐ½ÑĤÐ¾Ð²": 6701,
      "ÑĤÑıÐ³": 6702,
      "ĠÐ¿ÑĤÐ¸": 6703,
      "Ð´Ð°Ð»Ð¸": 6704,
      "ĠÐ´Ð²Ð°Ð´ÑĨÐ°ÑĤÐ¸": 6705,
      "ĠÐ¡ÐºÐ¾ÑĢ": 6706,
      "ĠÐ´Ð¾ÑĢÐ¾Ð³Ð¸": 6707,
      "ĠÐ·Ð½Ð°ÑĩÐµÐ½Ð¸Ðµ": 6708,
      "ĠÐ²Ð¸Ð´Ð¸Ð¼": 6709,
      "ĠÑģÐ¾Ð¿ÑĢÐ¾Ð²": 6710,
      "ĠÑĢÐ°Ð´Ð¸Ð¾": 6711,
      "ĠÐ¿ÑĢÐµÑģÐ»ÐµÐ´": 6712,
      "Ð¶Ñĥ": 6713,
      "ĠÐ´ÐµÑĢÐ¶Ð°Ð»": 6714,
      "ÑĥÑİÑĤÑģÑı": 6715,
      "ĠÐĶÐµÐ²Ð¾ÑĩÐºÐ°": 6716,
      "ĠÐ²Ð¾Ð·Ð´ÑĥÑħÐµ": 6717,
      "ĠÐ¿ÑĥÐ±Ð»Ð¸": 6718,
      "ÐµÐ¹Ñģ": 6719,
      "ĠÐ¼Ð°Ð»ÐµÐ½ÑĮÐºÐ¾Ð¹": 6720,
      "ĠÐ¾ÑĤÐ½Ð¾ÑĪÐµÐ½Ð¸Ñİ": 6721,
      "ĠÐĿÐ°Ð¿ÑĢÐ¸Ð¼ÐµÑĢ": 6722,
      "ĠÐ²ÐµÑĩÐ½Ð¾": 6723,
      "ÑĩÑĥÑĤÑĮ": 6724,
      "ĠÐ¸Ð½ÑĦ": 6725,
      "ĠÑĢÐµÐ±ÑĳÐ½": 6726,
      "Ð¸ÑĤÐµÐ»ÑıÐ¼Ð¸": 6727,
      "ĠÐ¾Ð¿ÑĭÑĤÐ°": 6728,
      "ĠÐ¿Ð¾Ð·Ð°Ð´Ð¸": 6729,
      "ĠÐ·Ð°Ð½Ð¸Ð¼Ð°Ð»ÑģÑı": 6730,
      "ĠÑĢÐ°Ð½ÐµÐµ": 6731,
      "ĠÐ´ÑıÐ´Ñı": 6732,
      "ĠÑĥÐ´Ð¸Ð²Ð¸Ð»ÑģÑı": 6733,
      "ĠÐµÐ´Ð¸Ð½ÑģÑĤÐ²ÐµÐ½Ð½ÑĭÐ¹": 6734,
      "ĠÑģÐ¾ÑģÑĢÐµÐ´Ð¾ÑĤÐ¾Ñĩ": 6735,
      "ĠÐ±Ð°ÑĪ": 6736,
      "ĠÑĥÑĪ": 6737,
      "ĠÑģÑĤÐ¾Ð¸Ð»Ð¾": 6738,
      "Ð¸ÑĢÐ¾Ð²Ð°Ð»Ð¸": 6739,
      "ĠÐ¿Ð¾ÑģÐ»ÐµÐ´Ð½ÐµÐ¹": 6740,
      "ĠÑģÐ¾ÑģÐ°Ð»Ð°": 6741,
      "Ð¾Ð¿ÑĢÐ¸": 6742,
      "ĠÐ³ÑĢÑĥÐ´ÑĮÑİ": 6743,
      "ĠÑĢÐ¸ÑĤÐ¼": 6744,
      "ĠâĢĵâī¥âĢĵ": 6745,
      "iv": 6746,
      "ĠÐºÐ¸ÑģÐ»": 6747,
      "ĠÐ´ÐµÑĪ": 6748,
      "ĠÑĤÑĳÑĤ": 6749,
      "ĠÐ¾ÑĤÐ¿ÑĢÐ°Ð²Ð¸Ð»ÑģÑı": 6750,
      "ĠÑģÐ¾Ð»Ð½ÑĨÐ°": 6751,
      "ĠÑģÐ°Ð¼Ð¾Ð»": 6752,
      "ÑĤÑĭÐ¼Ð¸": 6753,
      "ĠÑĩÐ°ÑģÑĭ": 6754,
      "ĠÐ¿ÑĢÐ¾Ð¸Ð·Ð½ÐµÑģÐ»Ð°": 6755,
      "ĠÑĤÐµÑĢÐ¼Ð¾Ñı": 6756,
      "ĠÐ²ÑĭÑĤÐµÑĢ": 6757,
      "ĠÐ¾Ð±Ð¾ÑĢÐ¾": 6758,
      "ĠÐ»Ð°Ð´Ð¾Ð½ÑĮÑİ": 6759,
      "Ð¾ÑĢÐ°Ñĩ": 6760,
      "ĠÐ¿ÐµÑĢÐµÑĢ": 6761,
      "ĠÐ¼Ð¾Ð¸Ð¼Ð¸": 6762,
      "ĠÐĵÐ¾Ð»": 6763,
      "ĠÐ±ÑĥÐ´ÐµÑĤÐµ": 6764,
      "Ġ187": 6765,
      "ĠÑģÑĤÐ°ÑĤ": 6766,
      "ĠÐºÐ¾Ð½ÐºÑĢÐµÑĤ": 6767,
      "ĠÐ¿ÑĢÐ¸ÑĩÐ¸Ð½Ðµ": 6768,
      "ĠÑģÑĢÐ°Ð²Ð½ÐµÐ½Ð¸Ñİ": 6769,
      "ĠÐºÐ°ÑĦ": 6770,
      "ÑĥÐ¼Ð°": 6771,
      "ĠÐĵÐ¾ÑĢ": 6772,
      "ĠÐ¼Ð°Ð¼Ð¾ÑĩÐºÐ°": 6773,
      "ĠÑģÑĩÐ°ÑģÑĤÑĮÑı": 6774,
      "Ð½ÑĳÐ¼": 6775,
      "ÑĪÐµÐµÑģÑı": 6776,
      "Ð³Ð¸Ð¾Ð·": 6777,
      "ĠÐłÐ¾ÑģÑĤ": 6778,
      "ĠÐ³Ð¾Ð»Ð¾Ð´": 6779,
      "ĠÑĢÐ¾Ð¶Ð´ÐµÐ½Ð¸Ñı": 6780,
      "ĠÐºÐ¾Ð¶Ð¸": 6781,
      "ĠÐ¿ÑĢÐ¾Ð¸ÑģÑħÐ¾Ð´Ð¸Ð»Ð¾": 6782,
      "ĠÐ´Ð¾ÐºÐ°Ð·Ð°ÑĤÐµÐ»ÑĮ": 6783,
      "Ð¾ÑĤÐ²Ð¾ÑĢ": 6784,
      "ÑĤÐ¾ÑĢÐ¸Ñİ": 6785,
      "ĠÐľÐµÐ¶Ð´Ñĥ": 6786,
      "ÑĥÑİÑīÐ¸Ðµ": 6787,
      "ĠÐ¿Ð»Ð°Ð½ÐµÑĤÑĥ": 6788,
      "ĠÑģÐ½Ðµ": 6789,
      "ĠÐ·Ð½Ð°Ð¼": 6790,
      "ĠÐĴÐµÑģÑĮ": 6791,
      "ĠÑģÑĤÑĢÐ°ÑħÐ°": 6792,
      "??": 6793,
      "Ð¸ÑģÑĤÑĮ": 6794,
      "ĠÐ²Ð¸Ð´Ð¾Ð¼": 6795,
      "ĠÐ±Ð¾Ð»ÑĮÑĪÐ¸Ð½": 6796,
      "ĠÐ¼Ð½ÐµÐ½Ð¸Ðµ": 6797,
      "ÑĥÐ¹ÑĤÐµ": 6798,
      "ĠÑģÐ¸Ð³Ð°ÑĢ": 6799,
      "ĠÐºÐ°Ð±Ð¸Ð½ÐµÑĤ": 6800,
      "!..": 6801,
      "ĠÐ´Ð¸Ðº": 6802,
      "Ð¾ÑĢÐ¸Ñı": 6803,
      "ÑģÑĤÐ²Ð°Ñħ": 6804,
      "ĠÑĥÐ´Ð°ÑģÑĤÑģÑı": 6805,
      "ĠÐ¸Ð¼Ð¿ÐµÑĢÐ°ÑĤÐ¾ÑĢ": 6806,
      "Ð°Ð²Ð¸Ð»": 6807,
      "Ð»ÑıÐµÐ¼": 6808,
      "ĠÐ¡Ð¾Ð±": 6809,
      "ĠÐĲÐº": 6810,
      "ĠÐ¾Ð±ÑĬÐµÐºÑĤ": 6811,
      "ĠÑģÐµÑģÑĤÑĢÐµÐ½": 6812,
      "ĠÐºÑĥÑĢÑģ": 6813,
      "http": 6814,
      "ĠÐ¶ÑĥÑĢÐ½Ð°Ð»": 6815,
      "ÐºÐ¾Ð¼Ñĥ": 6816,
      "ĠÐ´ÑĥÐ¼Ð°ÐµÑĪÑĮ": 6817,
      "ĠÐ¿Ð¾Ð´ÐµÐ»": 6818,
      "ĠÑģÐ¿Ð°Ð»": 6819,
      "ĠÐ½Ð°Ð·Ð²Ð°ÑĤÑĮ": 6820,
      "ĠÑģÑĤÑĢÐ°Ð½Ðµ": 6821,
      "ĠÐ·Ð°Ð²Ð¸ÑģÐ¸ÑĤ": 6822,
      "ĠÐ®Ð»ÑĮÐºÐ°": 6823,
      "ĠÐºÐ¾Ð»Ð»ÐµÐº": 6824,
      "ĠÐ½ÐµÐ·Ð½Ð°ÐºÐ¾Ð¼": 6825,
      "ĠÑģÐ¸ÑĤÑĥÐ°ÑĨÐ¸Ñı": 6826,
      "ĠÐĶÐ°Ð»ÑĮÑĪÐµ": 6827,
      "ĠÑģÐ°Ð¼Ð¾ÑģÑĤÐ¾ÑıÑĤÐµÐ»ÑĮ": 6828,
      "ĠÐ¿Ð¾ÑģÐ»ÐµÐ´ÑģÑĤÐ²Ð¸Ñı": 6829,
      "Ð°ÑİÑīÐ¸Ð¹ÑģÑı": 6830,
      "ĠÑģÐ»Ð°Ð´Ð¾ÑģÑĤ": 6831,
      "ĠÐ¸ÑģÐºÐ»ÑİÑĩÐ¸ÑĤÐµÐ»ÑĮÐ½Ð¾": 6832,
      "ĠÐ²ÑĭÐ¹Ð´": 6833,
      "ĠÑıÐ²Ð»ÑıÑİÑĤÑģÑı": 6834,
      "ĠÑĦÐ¾ÑĤÐ¾": 6835,
      "ĠÑģÐ´ÐµÐ»Ð°Ñİ": 6836,
      "ĠÐ¿Ð°ÑĢÑĤÐ¸Ð¸": 6837,
      "ĠÐ½ÐµÐ²Ð¸Ð½": 6838,
      "ĠÐ²ÐµÑīÑĮ": 6839,
      "ÑĤÑĭÐ¹": 6840,
      "Ð°Ð´Ñĭ": 6841,
      "ĠÑģÐ¾Ð¼Ð½ÐµÐ½Ð¸Ñı": 6842,
      "ĠÐºÐ¸Ð²Ð½ÑĥÐ»Ð°": 6843,
      "ĠÑģÐ¸Ð¼Ð¿Ð°ÑĤ": 6844,
      "ĠÐĳÐ¾Ð»ÑĮÑĪÐµ": 6845,
      "ĠÐķÑīÑĳ": 6846,
      "ĠÐĵÐ°ÑĢ": 6847,
      "Ġ21": 6848,
      "ĠÑĢÐ¾Ð´ÑģÑĤÐ²ÐµÐ½": 6849,
      "ĠÐ·Ð°ÑģÐ»ÑĥÐ¶": 6850,
      "ĠÐ¿Ð¾Ð·Ð½Ð°Ð½Ð¸Ñı": 6851,
      "ĠÐĲÐ¼": 6852,
      "ĠÑģÐ°Ð¼Ð¸Ð¼": 6853,
      "ĠÑģÐ¾ÐµÐ´Ð¸Ð½": 6854,
      "ĠÐ½Ð°ÑĪÐ»Ð¸": 6855,
      "ĠÑģÐ¾ÑģÑĤÐ¾ÑıÐ½Ð¸Ñı": 6856,
      "ĠÐĿÑĮÑİ": 6857,
      "ÐµÐ½ÑĮÐºÐ¸": 6858,
      "ĠÐ´ÑĢÐ°Ðº": 6859,
      "Ð´ÑĢÐµÑģ": 6860,
      "ĠÑģÐµÑĢÑĮÐµÐ·Ð½Ð¾": 6861,
      "ĠÐ¼Ð¾Ð±": 6862,
      "ĠÐĶÐ²Ð°": 6863,
      "ĠÐ¾ÑģÐ¾Ð·Ð½Ð°": 6864,
      "ÑģÑĤÐ²Ð¾Ð²Ð°Ð»Ð¸": 6865,
      "ÑĤÐ¾ÑĩÐºÐ¸": 6866,
      "ĠÐŁÐ»Ð°": 6867,
      "ĠÐ¾ÑĢÐºÐ¾Ð²": 6868,
      "ĠÐ¾Ð³ÑĢÐ¾Ð¼Ð½ÑĭÐµ": 6869,
      "Ð¹ÑģÑı": 6870,
      "ĠÑģÐ¾Ð¾Ð±ÑĢÐ°Ð·": 6871,
      "ĠÐºÐ¾ÑĢÐ¾Ð±": 6872,
      "ĠÐ¼Ð°Ð»ÑĭÑĪ": 6873,
      "ĠÐ¿Ð¾Ð·Ð²Ð¾Ð»ÑıÐµÑĤ": 6874,
      "ĠÐĲÐ»ÐµÐºÑģÐ°Ð½Ð´ÑĢ": 6875,
      "ĠÐ¿Ð¾Ð²ÐµÐ·Ð»Ð¾": 6876,
      "28": 6877,
      "ĠÐ³ÑĢÐ°ÑĦ": 6878,
      "ĠÑħÑĢÐ¸Ð¿": 6879,
      "ĠĠĠĠĠ": 6880,
      "ĠÐºÐ¾Ð¹": 6881,
      "ĠÐ¶Ð°Ð´Ð½Ð¾": 6882,
      "ĠÐ¿ÑĢÐµÐ´Ñĭ": 6883,
      "ĠÐĽÐµ": 6884,
      "ĠÐ¼ÐµÐ´Ð¸ÑĨ": 6885,
      "ĠÑĥÐ´Ð°ÑĢÐ°": 6886,
      "Ġ40": 6887,
      "ĠÑģÐ¼Ð¾Ð³ÑĥÑĤ": 6888,
      "ĠÐĺÐ½ÑĤÐµÑĢ": 6889,
      "ĠÐ·Ð°Ð¼Ð¾Ð»": 6890,
      "ÑĩÐ¸ÐºÐ¾Ð²": 6891,
      "ĠÑģÐ¾Ð·Ð´Ð°Ð½Ð¸Ðµ": 6892,
      "ĠÐ¿Ð¾Ð½ÑıÑĤÐ¸Ñı": 6893,
      "ĠÑĢÐ°Ð·ÑĥÐ¼ÐµÐµÑĤÑģÑı": 6894,
      "Ð°Ð½Ð½ÑĭÐ¼Ð¸": 6895,
      "ĠÐĴÐ»Ð°Ð´": 6896,
      "ĠÑģÐ°Ð¼Ð¸Ñħ": 6897,
      "ĠÑģÑĤÐ¾Ð»ÐµÑĤ": 6898,
      "ĠÐ¿Ð¾Ð¼ÐµÑĪ": 6899,
      "ĠÐºÐ°Ð¶Ð´ÑĥÑİ": 6900,
      "ĠÑĢÐ°ÑģÑĤÑı": 6901,
      "ĠÐ½ÑĭÐ½ÐµÑĪ": 6902,
      "ÐºÐ¾ÑĢ": 6903,
      "ÐµÐ´ÐµÐ½Ð¸Ñı": 6904,
      "Ð°Ð½Ð½Ð°": 6905,
      "ÐºÐ°ÑĢ": 6906,
      "ĠÑģÐ¼Ðµ": 6907,
      "ÑĢÑĭÑħ": 6908,
      "ĠÑģÑĤÐ°Ð½Ð´Ð°ÑĢ": 6909,
      "ĠÑģÐ¼Ð¾Ð¶ÐµÐ¼": 6910,
      "ĠÐ³Ð¾Ð»Ð°Ñı": 6911,
      "Ġ197": 6912,
      "ĠÐºÑĥÐ·": 6913,
      "ÐµÑģÐµÐ´": 6914,
      "ÑĢÐ¾Ñī": 6915,
      "Ð¾ÑĤÑĢÐµÐ±": 6916,
      "ĠÐ¿ÑĢÐµÐ´ÑģÑĤÐ°Ð²Ð»ÑıÐ»": 6917,
      "ĠÑĥÐ½Ð¸ÑĩÑĤÐ¾Ð¶Ð¸ÑĤÑĮ": 6918,
      "ĠÐ¾ÑĩÐµÑĢÐµÐ´Ð¸": 6919,
      "ra": 6920,
      "Ð¾Ð¶Ð°": 6921,
      "ĠÐĲÐ½Ñı": 6922,
      "ĠÐ¾Ð³ÑĢÐ¾Ð¼Ð½Ð¾Ðµ": 6923,
      "ĠÐ·Ð°ÐºÑĢÑĭÐ»Ð°": 6924,
      "ĠÐ¿Ð¾Ð´Ð¾Ð·ÑĢÐµÐ²": 6925,
      "ĠÐ¾Ð±ÐµÐ·": 6926,
      "Ð»ÑıÐ»Ð°ÑģÑĮ": 6927,
      "ĠÐ¶ÐµÐ½Ñĭ": 6928,
      "ĠÐ²ÑĭÑĢÐ°Ð¶ÐµÐ½Ð¸Ðµ": 6929,
      "ĠÑģÐ¾Ð±ÑĭÑĤÐ¸Ð¹": 6930,
      "ĠÐļÑįÑĢÐ¾Ð»": 6931,
      "ĠÐ³Ð¸": 6932,
      "Ð¼ÑĥÑī": 6933,
      "ÑĩÐ¸ÑģÐ»Ð¸": 6934,
      "ĠÐ¾Ð±ÑĬÐµÐ´Ð¸Ð½": 6935,
      "ĠÑīÐµÐ»ÑĮ": 6936,
      "ĠÐ¿ÑĢÐ¸Ð³Ð»Ð°ÑĪ": 6937,
      "ĠÑĪÐ¾ÑĢÑĤÑĭ": 6938,
      "ĠÐ¿Ð¾ÐºÑĢÐ°ÑģÐ½": 6939,
      "ĠÑĥÐ½Ð¸Ðº": 6940,
      "Ð¸ÑĤÐµÑĤÐ°": 6941,
      "ĠÐľÐµÐ»": 6942,
      "ĠÐ¾Ð´Ð½Ð¾Ðº": 6943,
      "ÐµÑħÐ°ÑĤÑĮ": 6944,
      "ĠÐ½Ð¾Ð²ÑĭÐ¼": 6945,
      "ĠÐļÐ°ÐºÐ°Ñı": 6946,
      "ĠÐ½ÐµÐ²Ð¾Ð·Ð¼Ð¾Ð¶": 6947,
      "ĠÐ¿Ð¾ÑģÐ²": 6948,
      "ĠÑģÑĥÑīÐµÑģÑĤÐ²Ð¾": 6949,
      "ĠÐ´ÐµÑĢÐ¶Ð°": 6950,
      "ĠÑĦÐ¸Ð·Ð¸ÐºÐ¸": 6951,
      "ĠÐ·Ð½Ð°ÑĩÐ¸ÑĤÐµÐ»ÑĮÐ½Ð¾": 6952,
      "ĠÐĽÐµÐ½ÐºÐ°": 6953,
      "ĠÐºÐ»ÑĥÐ±": 6954,
      "ĠÐŀÐ½Ð¾": 6955,
      "ÑĥÑīÐ¸Ð¹": 6956,
      "ĠÐ¿Ð°Ð»ÑĮÑĨÐµÐ²": 6957,
      "ĠÐ¾ÑĢÐ³Ð°Ð½": 6958,
      "ĠÐ½Ð°Ð±Ð»ÑİÐ´Ð°Ð»": 6959,
      "ĠÐ½ÐµÐ·Ð°Ð¼ÐµÑĤ": 6960,
      "ĠÐ¼ÑĥÐ·ÑĭÐºÐ°": 6961,
      "ĠÐ·ÑĥÐ±Ñĭ": 6962,
      "ĠÑģÐºÐ°Ð·Ð°Ð»Ð¸": 6963,
      "ĠÐ¸ÑģÐ¿ÑĢÐ°Ð²": 6964,
      "Ð°Ð·ÑĭÐ²Ð°ÑĤÑĮ": 6965,
      "ÑıÑīÐ°Ñı": 6966,
      "ĠÐ¡ÑĤÐ°ÑģÐ¸": 6967,
      "ĠÐºÑĢÐ¸ÑģÑĤÐ°Ð»Ð»": 6968,
      "Ð¼Ð¸Ð½Ð°": 6969,
      "ĠÐºÐ¾Ð¼Ð±": 6970,
      "ĠÐºÑĥÑħÐ½Ðµ": 6971,
      "ĠÐ¾Ð´Ð¸Ð½Ð¾ÑĩÐµ": 6972,
      "ĠÐ²ÑģÐºÑĢÐ¸ÐºÐ½ÑĥÐ»Ð°": 6973,
      "ĠÐ¿ÑĥÐ»ÑĮÑģ": 6974,
      "ÑĥÑīÐ¸Ðµ": 6975,
      "ĠÐ¿ÑĢÐµÐ·Ð¸Ð´ÐµÐ½ÑĤ": 6976,
      "ĠÐ²ÐµÐ»Ð¸ÑĩÐ°Ð¹": 6977,
      "ĠÐ½ÐµÐ¾Ð¿": 6978,
      "Ð½ÑĥÐ»Ð¾ÑģÑĮ": 6979,
      "ĠÐĿÐ°ÑĪ": 6980,
      "ĠÐĽÐ¸Ð½": 6981,
      "ĠÐĵÐ»": 6982,
      "ĠÐ¸Ð´ÑĳÑĤ": 6983,
      "ĠÐ²Ð¿ÐµÑĩÐ°ÑĤÐ»ÐµÐ½Ð¸Ðµ": 6984,
      "ĠÐ²Ð°ÑĪÐ°": 6985,
      "Ð¼Ð¾ÑĤÑĢÑı": 6986,
      "Ð½Ð¾ÑģÑĤÑıÐ¼Ð¸": 6987,
      "ĠÐ³ÑĢÐµÑĩÐµÑģÐº": 6988,
      "ĠÐ¼Ð¾Ð´ÐµÐ»ÑĮ": 6989,
      "ĠÐŁÑĢÐ¾Ð´Ð¾Ð»Ð¶": 6990,
      "ĠÐ¿Ð°Ð½": 6991,
      "ÐµÑĢÑĨ": 6992,
      "ĠÐĲÐ³Ð°": 6993,
      "ĠÑĦÑĥÐ½": 6994,
      "ĠÐ½Ð°Ð´ÐµÐ»": 6995,
      "ĠÐ¿Ð¾Ð¿Ð°ÑģÑĤÑĮ": 6996,
      "Ð¸ÑĩÐµÑģÐºÐ¸Ð¼Ð¸": 6997,
      "Ð¼Ð°Ð½Ð°": 6998,
      "Ã®": 6999,
      "ĠÐ±Ð¾ÑıÐ»ÑģÑı": 7000,
      "ĠÐ²Ð¾Ð²ÑĢÐµÐ¼Ñı": 7001,
      "ĠÐ²Ð¾Ð·ÑĢÐ°ÑģÑĤÐµ": 7002,
      "Ð¾Ð¶Ð°Ð»ÑĥÐ¹": 7003,
      "ĠÐ¿ÑĥÑģÐº": 7004,
      "Ð½Ð°ÑĢ": 7005,
      "ĠÐĴÐµÑģ": 7006,
      "Ð»ÑıÑİ": 7007,
      "Ð½Ð¾Ð²ÐµÑģ": 7008,
      "ĠÑĩÐ»ÐµÐ½Ñĭ": 7009,
      "ĠÐ¿ÑĢÐµÐ´Ð»Ð¾Ð¶ÐµÐ½Ð¸Ðµ": 7010,
      "ĠÐ¿ÑĢÐ¸Ð½Ð¾Ñģ": 7011,
      "ĠÑĢÐ°ÐºÐ¾Ð¼": 7012,
      "ĠÐ¸Ð¼Ð¿ÐµÑĢÐ¸Ð¸": 7013,
      "ĠÑĥÐ»ÑĥÑĩ": 7014,
      "ĠÑįÑĢÐ¾ÑĤ": 7015,
      "ĠÑĢÐ°Ð·ÑĢÑıÐ´": 7016,
      "ĠÐ¾Ð±ÑĢÐ°Ð·Ð¾Ð²": 7017,
      "ĠÐ±Ð»ÑĥÐ·": 7018,
      "ÐµÐ½Ð½Ð¾ÑģÑĤÑĮÑİ": 7019,
      "ĠÐ¿Ð¾ÑĢÑıÐ´ÐºÐ°": 7020,
      "ĠÐ²Ð¾Ð·Ð´ÑĥÑħÐ°": 7021,
      "ĠÐ¡Ð¿ÑĥÑģÑĤÑı": 7022,
      "Ð¿ÑĢÐ¸": 7023,
      "ĠÐ½ÐµÑģÐ¿": 7024,
      "ĠÐĽÐµÑħ": 7025,
      "ĠÑĤÑĢÑĥÐ¿": 7026,
      "âĢĵâī¤âĢĵâĪŀâĢĵ": 7027,
      "ÑĤÐ¾Ð»Ðº": 7028,
      "ĠÐ³Ð½ÐµÐ²": 7029,
      "ĠÐľÐ°Ð»": 7030,
      "ĠÐ¸Ð¼ÐµÐ½": 7031,
      "ĠÑģÐ¾Ð²Ð¼ÐµÑģÑĤ": 7032,
      "ĠÐ±ÐµÑģÐ¿Ð¾Ð»ÐµÐ·": 7033,
      "ĠÐ¿Ð¾Ð¿ÑĭÑĤÐºÐ¸": 7034,
      "ĠÑĩÐ¸ÑĤÐ°ÑĤÑĮ": 7035,
      "ĠÐĿÐµÐ´": 7036,
      "ĠÐ¿Ð¾Ð»ÑĩÐ°ÑģÐ°": 7037,
      "ĠÐĳÐ¾Ð½": 7038,
      "ĠÐ¿ÑĢÐ¾Ð¸Ð·Ð²": 7039,
      "ĠÐ¾Ð±ÑģÑĥÐ¶Ð´": 7040,
      "ĠÐ²ÐµÑĢÐ¾ÑıÑĤ": 7041,
      "Ð¬": 7042,
      "Ð¸ÑĤÐ¾Ð²": 7043,
      "ĠÑģÑĤÐ°Ð±": 7044,
      "ĠÑĨÐµÐ½Ð½Ð¾": 7045,
      "ĠÐ·Ð½Ð°Ð½Ð¸Ð¹": 7046,
      "ĠÑģÐ¾Ð±Ð¾Ñİ": 7047,
      "ĠÑĤÑĢÑĳÑħ": 7048,
      "âĢĵÂ¥âĢĵâĪŀ": 7049,
      "ĠÑģÑĩÐ¸ÑĤÐ°Ñİ": 7050,
      "âĢĿ.": 7051,
      "ĠÐĳÐ°ÑĢÐ½Ð¸": 7052,
      "ÑĢÐµÑģ": 7053,
      "ĠÑĥÑħÐ¾": 7054,
      "ĠÐ¿ÑĢÐµÐ´ÑģÑĤÐ°Ð²Ð»ÐµÐ½Ð¸Ðµ": 7055,
      "ĠÐ½Ð°Ð±Ð»ÑİÐ´Ð°ÑĤÑĮ": 7056,
      "ĠÐ¿ÑĢÐ¾ÑĤÑıÐ¶": 7057,
      "ĠÐĴÑĤÐ¾ÑĢÐ¾Ð¹": 7058,
      "Ð°Ð½ÑĤÐ¾Ð²": 7059,
      "Ð»ÑıÑİÑĤ": 7060,
      "Ð°Ð¶Ð´Ð°": 7061,
      "ĠÑģÐ¾Ð¾Ð±ÑĢÐ°Ð¶": 7062,
      "Ð»ÑĭÐ¼Ð¸": 7063,
      "ĠÐĿÐ°ÑĤÐ°Ð»ÑĮ": 7064,
      "ĠÐ²ÐºÐ»ÑİÑĩÐ¸Ð»": 7065,
      "ĠÐ¾Ð¶Ð¸Ð´Ð°Ð»": 7066,
      "Ð»ÑıÐ»Ð°": 7067,
      "ĠÐ¡ÑĥÐ´": 7068,
      "ĠâĢĵÂ±âĢĶ": 7069,
      "ĠÑĢÐ°Ð·Ð³Ð¾": 7070,
      "ĠÐĺÐ´Ð¸": 7071,
      "ĠÑģÐ¿Ð°ÑģÑĤÐ¸": 7072,
      "ĠÑįÑĤÐ°Ð¶": 7073,
      "ÑĤÐµÑĢÐ°": 7074,
      "ĠÑĥÐ¿Ð¾ÑĢ": 7075,
      "ĠÐ¿Ð¾ÑħÐ¾ÑĤ": 7076,
      "ĠÐ¼ÑĥÐ·ÑĭÐº": 7077,
      "ĠÐ¸ÑģÑĤÐ¸Ð½Ñĭ": 7078,
      "ÑģÐµÐº": 7079,
      "ĠÐ¾ÑĤÑĨÐ¾Ð¼": 7080,
      "ĠÐŁÑĢÐ¾Ñģ": 7081,
      "ĠÑĥÐ¿Ð°Ð»Ð°": 7082,
      "ĠÐ½Ð°Ð·ÑĭÐ²Ð°ÐµÑĤÑģÑı": 7083,
      "ĠÑĩÑĥÐ²ÑģÑĤÐ²Ð¾Ð²Ð°ÑĤÑĮ": 7084,
      "ĠÐ°Ð´ÑĢÐµÑģ": 7085,
      "ĠÐĶÐµÐ»Ð¾": 7086,
      "ĠÐ¿Ð¾ÑĤÐµÐ½ÑĨÐ¸": 7087,
      "Ð¼ÑĥÑĢ": 7088,
      "ĠÐ¿ÑĥÑģÑĤÑĭ": 7089,
      "ĠÐ¿ÑĢÐ¸ÑĩÐ¸Ð½Ð°": 7090,
      "ĠÑģÐµÐ³Ð¾Ð´Ð½ÑıÑĪ": 7091,
      "ÑĮÑĤÐµ": 7092,
      "Ð°Ð²Ð°Ð»": 7093,
      "ĠÐ³ÑĢÐ°Ð´": 7094,
      "ĠÑģÑĤÑĢÐ°Ð¶": 7095,
      "ĠÐ¾Ð±ÑĢ": 7096,
      "ĠÐ²Ð°ÑĪÐµÐ³Ð¾": 7097,
      "ĠÑįÐ»ÐµÐºÑĤÑĢÐ¾": 7098,
      "ĠÐļÐ°Ð¶ÐµÑĤÑģÑı": 7099,
      "ÑĩÐ¸ÑĤÑģÑı": 7100,
      "ĠÐ½Ð¸ÑĩÐµÐ¼": 7101,
      "ĠÑģÑĥÑīÐµÑģÑĤÐ²Ð°": 7102,
      "ĠÐ»ÐµÐ¶Ð°Ñī": 7103,
      "ĠÐ±Ð¾Ð³Ð°": 7104,
      "ĠÐŁÐ¾Ð´ÑĢÐ¾ÑģÑĤÐºÐ¸": 7105,
      "ĠÑĥÑĩÐ°": 7106,
      "ĠÑĤÐ¾ÑĢÐ¶Ðµ": 7107,
      "ĠÑĩÐµÑĤÑĭÑĢÐµÑħ": 7108,
      "ĠÑĤÐµÑĢÐ¼Ð¾ÑıÐ´ÐµÑĢ": 7109,
      "ÑıÑģÐ°": 7110,
      "ĠÐĵÐ»Ð°Ð·": 7111,
      "ĠÑĤÑĢÐµÐ±ÑĥÐµÑĤ": 7112,
      "ĠÐ¿ÑĢÐ¸Ð»Ð¾Ð¶": 7113,
      "im": 7114,
      "Ġand": 7115,
      "Ð»Ð¾Ð´": 7116,
      "ĠÐĳÐ¾Ð»ÐµÐµ": 7117,
      "ĠÐ½ÐµÐ¹ÑĤÑĢ": 7118,
      "ĠÐ°Ð½ÑĥÑģÐ°": 7119,
      "Ð°Ñĥ": 7120,
      "ÑĢÑĥÑı": 7121,
      "ÑĭÐ²Ð°Ð»Ð¸ÑģÑĮ": 7122,
      "ĠÐłÐ¾Ð¼": 7123,
      "ĠÐ·Ð°Ð¿Ð¾Ð¼": 7124,
      "ĠÐ´ÐµÐ¹ÑģÑĤÐ²Ð¸Ðµ": 7125,
      "ĠÑĢÐ°ÑģÐ¿Ð¾ÑĢ": 7126,
      "ĠÐ¿Ð¾Ð´Ð½ÑıÐ»Ð°ÑģÑĮ": 7127,
      "ĠÑĤÐµÑĢÑĢÐ¸ÑĤÐ¾ÑĢÐ¸Ð¸": 7128,
      "ĠÐĳÐµÑĤÑĤÐ¸": 7129,
      "ÐºÐ¾Ð½": 7130,
      "Ð´ÑĥÐ¼": 7131,
      "ĠÐļÐ¸ÑĢ": 7132,
      "ĠÐ½Ð°ÑĢÐ¾Ð´Ð°": 7133,
      "av": 7134,
      "ÑıÑĢÐ¸": 7135,
      "Ð¸Ð²ÑĪÐ¸Ð¹ÑģÑı": 7136,
      "Ð½ÑĥÑĤÑĭÐµ": 7137,
      "ĠÐĿÐ°ÑĪÐ¸": 7138,
      "ĠÑįÐºÑģÑĤ": 7139,
      "ĠÑĩÑĥÐ²ÑģÑĤÐ²ÑĥÑİ": 7140,
      "ĠÐºÐ¾ÑĢÐ¸Ð´Ð¾ÑĢ": 7141,
      "45": 7142,
      "Ð¾Ð²ÑĭÐ¼Ð¸": 7143,
      "Ð½ÑıÐµÑĤ": 7144,
      "ĠÐ»Ð°Ð¼Ð¿": 7145,
      "Ð¸Ð¼ÑĭÐ¹": 7146,
      "ĠÐ¸Ð¼ÐµÐ»Ð°": 7147,
      "ĠÐ¿ÑĢÐ¾Ð³ÑĢÐ°Ð¼Ð¼Ñĥ": 7148,
      "ĠÐ³Ð¾ÑģÑĥÐ´Ð°ÑĢÑģÑĤÐ²Ð¾": 7149,
      "ĠÐ¾ÐºÐ°Ð·ÑĭÐ²Ð°ÐµÑĤÑģÑı": 7150,
      "ĠÐĿÐµÑģÐ¼Ð¾ÑĤÑĢÑı": 7151,
      "ĠÐ¿Ð°Ðº": 7152,
      "ĠÑĤÑĥÐ³": 7153,
      "ĠÑħÐ²Ð¾ÑģÑĤ": 7154,
      "ĠÐºÐ¾ÑģÐ¼Ð¾ÑģÐ°": 7155,
      "ĠÐ°Ð¶": 7156,
      "Ð°ÑĤÐµÐ»ÑĮÐ½ÑĭÐµ": 7157,
      "ĠÐ·Ð°Ð¿Ð°Ð´": 7158,
      "ĠÐĿÐ¸ÐºÐ¾Ð»Ð°": 7159,
      "ĠÐ²Ð·Ð°Ð¸Ð¼Ð¾Ð´ÐµÐ¹ÑģÑĤÐ²": 7160,
      "Ð¸ÑĢÐ°Ñı": 7161,
      "ĠÐĶÐ¾Ðº": 7162,
      "ĠÐ¾ÑģÑĤÐ°Ð»ÑĮÐ½ÑĭÑħ": 7163,
      "Ð°ÑĤÐ¾ÑĢÐ°": 7164,
      "ĠÐ¿ÑĢÐ¸Ð¼Ð¸ÑĤÐ¸Ð²": 7165,
      "ĠÐ¿Ð¾ÑĤÑĢÐ¾Ð³": 7166,
      "ĠÑģÑĥÐºÐ°": 7167,
      "ĠÐĺÑģÐº": 7168,
      "ĠÐĹÐ°Ð´": 7169,
      "ĠÑĢÐµÑĪÐ¸ÑĤÑĮ": 7170,
      "ĠÑĦÐ»Ð¾ÑĤÐ°": 7171,
      "ĠÐ¿Ð¾ÑģÑĤÑĢÐ¾Ð¸ÑĤÑĮ": 7172,
      "ĠÐ²ÐµÑĤÐµÑĢ": 7173,
      "ĠÑįÐºÑĢÐ°Ð½Ðµ": 7174,
      "ĠÐ¼Ð°Ð½Ð¸": 7175,
      "ĠÐ¾Ð´Ð½Ð¸Ñħ": 7176,
      "ĠÐĳÐ¾Ð¶Ðµ": 7177,
      "ĠÐ²Ð¸Ð´Ð¸ÑĪÑĮ": 7178,
      "ĠÐ´ÐµÐ»Ð°ÐµÑĪÑĮ": 7179,
      "ĠÐ¾Ð±ÑīÐµÑģÑĤÐ²Ð¾": 7180,
      "ĠÐ¿Ð¾Ð´Ð±Ð¾ÑĢÐ¾Ð´": 7181,
      "ĠÐŁÐµÑĤÑĢ": 7182,
      "ĠÑģÐ¸Ñı": 7183,
      "ÑĢÐ°Ð½ÐµÐ½Ð¸Ñı": 7184,
      "ĠÐ´Ð°Ð²Ð°Ñı": 7185,
      "ĠÑĤÑİÑĢÑĮ": 7186,
      "ÑĭÐ¶": 7187,
      "ĠÐºÐ¾Ð»ÐµÐ±": 7188,
      "ÑĢÐ°ÑīÐµÐ½Ð¸Ðµ": 7189,
      "ĠÐºÐ°ÑĢÐ¼Ð°Ð½": 7190,
      "ĠÐ·Ð°ÑģÑĤÐ°Ð²Ð¸ÑĤÑĮ": 7191,
      "Ð½Ð¸ÑģÑĤ": 7192,
      "ĠÐ¾ÑĤÐ¾Ð·Ð²": 7193,
      "ÐµÐºÐ¾Ð²": 7194,
      "ÑĢÑıÑħ": 7195,
      "ĠÐ²Ð¾Ð¿ÑĢÐ¾ÑģÐ¾Ð²": 7196,
      "ÑĳÐ½Ð½Ð¾": 7197,
      "ĠÐ¿Ð¾Ð»Ð¾ÑĤÐµÐ½ÑĨÐµ": 7198,
      "Ð²ÑĭÑĩ": 7199,
      "ÐµÐ³Ñĥ": 7200,
      "ĠÐ±Ð¾Ð»ÑĮÑĪÐ¾Ð³Ð¾": 7201,
      "ĠÐ¿Ð¾Ð½Ð¸Ð¼Ð°ÐµÑĤ": 7202,
      "ĠÐºÐ°Ð¼ÐµÑĢÑĥ": 7203,
      "ĠÐ¼Ð°ÑĢÑĪ": 7204,
      "ĠÐ¸Ð½Ð¾Ð¹": 7205,
      "ÑģÑĤÐ²ÐµÐ½Ð½ÑĥÑİ": 7206,
      "ĠÐ½ÐµÐ´Ð¾Ð²Ð¾Ð»ÑĮ": 7207,
      "ÑıÑĤÐ¸Ð¹": 7208,
      "Ð°ÑİÑīÐ¸ÐµÑģÑı": 7209,
      "ĠÐĿÑĥÐ¶Ð½Ð¾": 7210,
      "Ð²ÑĤÐ¾ÑĢÑĭÑħ": 7211,
      "Ð±Ð¾Ð¹": 7212,
      "ĠÐ¾ÑģÑĤÐ°ÑĤÐºÐ¸": 7213,
      "ĠÑģÑĥÑĢÐ¾Ð²": 7214,
      "ĠÐ²ÑģÑıÐºÐ¾Ð¼": 7215,
      "27": 7216,
      "Ð±ÐµÑĢ": 7217,
      "ĠÐľÐ¾Ð»": 7218,
      "Â»:": 7219,
      "ĠÑĢÑĥÑħ": 7220,
      "ĠÐ²Ð¾ÑĪÐ»Ð¸": 7221,
      "ĠÐ¿ÑĢÐ¾ÑĪÑĳÐ»": 7222,
      "ĠÑģÐ¾Ð±ÑĭÑĤÐ¸Ñı": 7223,
      "ĠÑĢÐ¾ÑģÐºÐ¾ÑĪ": 7224,
      "Ð´ÑĮ": 7225,
      "Ð¸Ð²Ð°Ð»Ð¾": 7226,
      "ĠÐ²ÑĭÑĤÐµÐº": 7227,
      "ĠÑģÐ¸ÑģÑĮÐºÐ¸": 7228,
      "ĠÐ´Ð¾Ð¼Ñĥ": 7229,
      "ĠÐ²ÑĭÐ´Ð°": 7230,
      "ĠÐ¿Ð»Ð°Ðº": 7231,
      "ĠÑģÑĤÐ°ÑĢÑĭÐ¹": 7232,
      "ĠÑħÐ²Ð°ÑĤÐ¸Ð»Ð¾": 7233,
      "ĠÐĴÐ¸Ð´Ð¸Ð¼Ð¾": 7234,
      "ĠÐºÐ²Ð°ÑĢÑĤÐ¸ÑĢÑĥ": 7235,
      "ĠÐ¿ÑĢÐµÑĤ": 7236,
      "ĠÑĢÐµÐ¹": 7237,
      "ĠÑĦÑĢÐ°Ð·": 7238,
      "ĠÑĦÐ¸ÑĢ": 7239,
      "ĠÐ½Ð°ÑĩÐ°Ð»Ð¾ÑģÑĮ": 7240,
      "ĠÐ¿ÐµÑĢÐ²Ð¾Ð¼": 7241,
      "ĠÐ¿ÑĢÐ¸ÑĪÑĳÐ»": 7242,
      "ÑĤÐµÐ»ÑĮÐ½Ð¾": 7243,
      "ĠÐ½ÐµÐ¿Ð¾Ð½ÑıÑĤ": 7244,
      "ĠÐŁÐ¾ÑĪ": 7245,
      "ĠÐĶÐ°Ð¹": 7246,
      "ĠÑģÐ¿Ð°Ð»Ð°": 7247,
      "ĠÐ¾ÑģÑĤÐ¾ÑĢÐ¾Ð¶": 7248,
      "ĠÑģÐ¸Ð»ÑĮÐ½ÑĭÐ¹": 7249,
      "ĠÑģÑĤÐ°ÑĢÐ°": 7250,
      "ĠÐ¼Ð°ÑĤÐµÑĢÐ¸Ð°Ð»": 7251,
      "ĠÐ¡ÐµÑĢÐ³Ðµ": 7252,
      "ĠÐºÐ¾ÑĦÐµ": 7253,
      "ĠÐĴÐµÐ»": 7254,
      "ĠÐĲÐ»Ð¸": 7255,
      "ĠÑĪÐ°Ð½": 7256,
      "Ð½Ð°ÑĩÐ°Ð»Ðµ": 7257,
      "ĠÐ¼Ð½Ð¾Ð³Ð¾ÑĩÐ¸ÑģÐ»": 7258,
      "ĠÐ¼Ð°Ð»ÐµÐ½ÑĮÐºÑĥÑİ": 7259,
      "ÑģÐ¾Ð»ÑıÑĢÐ¸": 7260,
      "ĠÑģÐ¸ÑĤÑĥÐ°ÑĨÐ¸Ñİ": 7261,
      "ĠÑĥÐ»Ð¸ÑĨÑĥ": 7262,
      "ĠÐºÐ°Ð¿Ð¸ÑĤÐ°Ð½": 7263,
      "ĠÐ²ÐºÑĥ": 7264,
      "Ð°ÑĤÐµÐ»ÐµÐ¼": 7265,
      "Ð¼Ð¸ÑĢ": 7266,
      "ĠÑģÐ¿Ð¾ÑģÐ¾Ð±Ð½Ñĭ": 7267,
      "ĠÑĥÑģÑĤÑĢÐµÐ¼": 7268,
      "ĠÐ¼ÐµÑĤÐ°Ð»Ð»": 7269,
      "ĠÐ¸Ð½ÑĤÐµÐ»Ð»ÐµÐºÑĤ": 7270,
      "ĠÐ²ÑĭÐ´Ð¾Ñħ": 7271,
      "ĠÐ¿ÑĢÐµÐ¸Ð¼ÑĥÑīÐµ": 7272,
      "34": 7273,
      "ĠÐ²Ð¾Ð»ÑĮ": 7274,
      "ÑīÐ¸Ð¹": 7275,
      "ĠÐ³Ð¸Ð¿": 7276,
      "ĠÑĢÐ°Ð·Ð¾Ð¼": 7277,
      "ĠÑĪÐ»ÐµÐ¿": 7278,
      "ÑĢÐ¾Ð¼Ð°ÑĤ": 7279,
      "Ð°ÑĤÐµÐ»ÑĮÐ½Ð¾Ð¹": 7280,
      "ĠÐ½ÐµÐ¿Ð»Ð¾ÑħÐ¾": 7281,
      "Ð¾Ð¼ÐµÑĢ": 7282,
      "Ð»ÑİÐ´": 7283,
      "ĠÐ¿Ð¾Ð»ÑĥÑĩÐ°ÐµÑĤÑģÑı": 7284,
      "ĠÐ½Ð°Ð¿ÑĢÐ°Ð²Ð»ÐµÐ½Ð¸Ð¸": 7285,
      "ĠÑģÐ¶Ð°Ð»Ð°": 7286,
      "ĠÑĢÐ°Ð·Ð±ÑĥÐ´": 7287,
      "ĠÐ¿Ð¾Ð´ÑĢÑĥÐ³Ð¸": 7288,
      "ĠÑĢÐ°Ð·Ð½Ð¾Ð¾Ð±ÑĢÐ°Ð·": 7289,
      "ĠÐ±Ð¸Ð·": 7290,
      "Ð¸ÑĤÐµÐ»ÑıÐ¼": 7291,
      "Ð°Ð¹Ð½": 7292,
      "ĠÐºÐ¾Ð¼Ð¼Ñĥ": 7293,
      "ĠÐ²ÑģÑıÐºÐ¾Ð¹": 7294,
      "ĠÑĦÐ¸Ð»Ð¾ÑģÐ¾ÑĦÐ¸Ð¸": 7295,
      "Ð¼Ð¾Ð·": 7296,
      "ĠÑĤÐ¾ÑĩÐ½ÐµÐµ": 7297,
      "sp": 7298,
      "ĠÑĩÑĥÐ»": 7299,
      "ĠÑĢÐ°Ð·ÑĢÑĭÐ²": 7300,
      "ĠÐ»Ð¸Ð½Ð¸Ð¸": 7301,
      "ĠÐºÐ°Ð¼ÐµÐ½ÑĮ": 7302,
      "ÑĪÐ¸Ð¼ÑģÑı": 7303,
      "Ð³Ðµ": 7304,
      "ĠÐ¾Ð´ÐµÑĤ": 7305,
      "ĠÑĤÑĢÐµÐ¿": 7306,
      "ĠÐºÑĢÐ°ÑģÐ°Ð²": 7307,
      "ĠÐ½Ð°Ð³ÑĢÐ°Ð´": 7308,
      "ĠÑģÐ¾Ð·Ð´Ð°Ð²Ð°ÑĤÑĮ": 7309,
      "ÑħÐ¾Ð¶Ñĥ": 7310,
      "Ð½ÐµÐ´": 7311,
      "ĠÐ¾Ð¿ÑĢÐµÐ´": 7312,
      "ĠÐ½ÐµÐ²Ð¾Ð»ÑĮÐ½Ð¾": 7313,
      "ĠÐ¿Ð¾ÑģÐ°Ð´": 7314,
      "ĠÑģÐµÑģÑĤÑĢÐµ": 7315,
      "ĠÑĤÐ°Ð»Ð¸Ñİ": 7316,
      "ĠÑĥÐ»ÑĥÑĩÑĪ": 7317,
      "ĠÑĢÐ°Ð·Ð´Ð²Ð¸Ð½ÑĥÐ»": 7318,
      "ĠÐĺÐ½ÑĤÐµÑĢÐµÑģÐ½Ð¾": 7319,
      "ÑĩÐµÐ»Ð¾Ð²": 7320,
      "Ð¾ÑĩÐ¸Ð»Ð°": 7321,
      "ĠÐ¾ÑĤÐ²Ð»ÐµÐº": 7322,
      "ĠÐ·Ð°Ð½Ð¸Ð¼Ð°Ð»Ð¸ÑģÑĮ": 7323,
      "ĠÑĥÐ±ÐµÐ¶Ð´": 7324,
      "ĠÑįÑĤÐ°Ð¿": 7325,
      "Ð»ÐµÐ½Ð½Ð¾Ð³Ð¾": 7326,
      "ÐŀÐ±": 7327,
      "ĠÐĴÑĭÑģ": 7328,
      "ĠÐ¿ÑĭÑĤÐ°Ð»Ð¸ÑģÑĮ": 7329,
      "ĠÐºÐ¾Ð¶Ñĥ": 7330,
      "ĠÐ²Ð°ÑĪÐµ": 7331,
      "ĠÐºÐ°": 7332,
      "ĠÐĶÐ¾Ð±": 7333,
      "ĠÐ²ÑĭÑģÐ¾ÐºÐ¾Ð¹": 7334,
      "ĠÐ½ÐµÐ²Ñĭ": 7335,
      "ĠÑģÐµÐ¼ÑĮÐ¸": 7336,
      "ĠÐ¾ÑģÑĤÐ°Ð½ÐµÑĤÑģÑı": 7337,
      "Ð²ÐµÑĩ": 7338,
      "Ð¸Ð¼ÑĭÐ¼": 7339,
      "ĠÐĺÐ³": 7340,
      "Ð°Ð¹Ð½ÐµÑĤ": 7341,
      "Ð»ÐµÐ½Ð½ÑĭÐ¼": 7342,
      "ĠÐ£Ð¶": 7343,
      "ĠÐ¸ÑģÐºÑĢÐµÐ½": 7344,
      "ĠÐ¿Ð¾Ð¶ÐµÐ»": 7345,
      "ĠÐ»Ð°Ð´Ð¾ÑĪ": 7346,
      "ĠÐ´ÑĥÑĪÐµÐ²": 7347,
      "ĠÑĢÐ°ÑģÑģÐºÐ°Ð·Ð°Ð»": 7348,
      "ĠÐŀÑģÐ¾Ð±ÐµÐ½Ð½Ð¾": 7349,
      "og": 7350,
      "ÑĥÐºÐ°": 7351,
      "ĠÐ´Ð¸Ð¿": 7352,
      "ĠÐ´Ð²Ð¾Ð¹": 7353,
      "ĠÑĨÐµÐ½Ð½Ð¾ÑģÑĤÐ¸": 7354,
      "ĠÐ£ÑĤ": 7355,
      "ĠÐ½ÐµÐ±ÐµÑģ": 7356,
      "ĠÐ¿ÑĢÐµÐ´ÑģÑĤÐ°Ð²Ð»ÑıÐµÑĤ": 7357,
      "ĠÑĦÐ¸Ð³ÑĥÑĢ": 7358,
      "ĠÐĴÐ°Ð³Ð½ÐµÑĢ": 7359,
      "ĠÑıÐ·ÑĭÑĩÐºÐ¾Ð¼": 7360,
      "Ð¾ÐµÐ²": 7361,
      "ÑĢÑĥÑģ": 7362,
      "ĠÐ¿ÑĢÐµÐ´Ð¾ÑģÑĤ": 7363,
      "ÑĢÐµÐ°Ð³": 7364,
      "ĠÐ½Ð°Ð¿Ð¾Ð¼Ð¸Ð½Ð°": 7365,
      "ĠÑģÑĤÐ°ÑĢÑĪÐµ": 7366,
      "ĠÐ³Ð»ÑĥÐ±Ð¸Ð½Ñĥ": 7367,
      "ĠÐ¿ÑĢÐ¸Ð½Ð¸Ð¼Ð°ÑĤÑĮ": 7368,
      "ĠÐ²ÑĤÐ¾ÑĢÑĥÑİ": 7369,
      "ĠÐĿÐµÐ¼Ð½Ð¾Ð³Ð¾": 7370,
      "Ð³ÑĥÐ¼": 7371,
      "ĠÐľÐ¾Ð»Ð¾Ð´": 7372,
      "ÑĦÐ°": 7373,
      "ĠÐ¿ÑĢÐ¾ÑĦÐµÑģÑģÐ¸Ð¾Ð½": 7374,
      "ĠÐ²ÑĢÑıÐ´": 7375,
      "ÐµÐ»ÑĮÑı": 7376,
      "ĠÐ¾Ð´Ðµ": 7377,
      "ĠÐłÐµÑĪ": 7378,
      "ĠÐ¿ÑĢÐ°Ð²Ð¸Ð»Ð¾": 7379,
      "ĠÐ¿Ð¾ÑģÐ»ÐµÐ´Ð½ÐµÐ³Ð¾": 7380,
      "ĠÐºÑĥÐ¿Ð°Ð»ÑĮ": 7381,
      "ĠÐ±ÑĢÑİÐºÐ¸": 7382,
      "ĠÐ±ÑĥÑĤÑĭÐ»ÐºÑĥ": 7383,
      "ĠÑĤÐµÐ»ÐµÐ²Ð¸Ð·Ð¾ÑĢ": 7384,
      "ĠÑĢÐ¾Ð¼Ð°Ð½": 7385,
      "ÑĢÐµÐ³": 7386,
      "Ð´Ð¸Ð¸": 7387,
      "ĠÐ²ÑĭÐ½ÑĥÐ»": 7388,
      "ĠÐĳÐ¾Ð±": 7389,
      "ĠÐ·Ð°Ð¼ÐµÑĤÐ¸ÑĤÑĮ": 7390,
      "ĠÑĢÐµÐ±ÑıÑĤ": 7391,
      "ĠÑģÐµÑĤÐ¸": 7392,
      "ĠÐ±ÐµÐ¶Ð°ÑĤÑĮ": 7393,
      "ĠÐ¾ÑĤÑĢÑıÐ´": 7394,
      "Ð¸Ð¼Ð°Ñı": 7395,
      "ĠÐ¿Ð¾Ð»Ð½ÑĥÑİ": 7396,
      "ĠÑĥÐ´Ð°Ð²": 7397,
      "ĠÐ¿ÑĢÐ¾Ð´ÐµÐ»": 7398,
      "ĠÐ¿ÑĢÐ¾ÑĪÐµÐ¿ÑĤÐ°Ð»": 7399,
      "qu": 7400,
      "Ãº": 7401,
      "ĠÐ½ÐµÐ»": 7402,
      "ĠÐŁÐ¾Ð³": 7403,
      "ĠÐ¡ÑĮÑİ": 7404,
      "ĠÐ´Ð²ÐµÑģÑĤÐ¸": 7405,
      "ĠÐĳÐ°ÑĤ": 7406,
      "ĠÑĦÐ¸Ð·Ð¸": 7407,
      "ĠÑĢÐ°ÑģÐ¿Ð¾ÑĢÑıÐ¶": 7408,
      "ĠÐ¿ÑĥÑħ": 7409,
      "ĠÐ½Ð¸Ðµ": 7410,
      "ĠÐ²ÑĢÐ°Ð¶": 7411,
      "ĠÐ´Ð¾ÑĤ": 7412,
      "ĠÑĢÑı": 7413,
      "Ð¾Ð¹ÑĩÐ¸Ð²": 7414,
      "ĠÐ¾Ð±ÑĢÐ°Ð±Ð¾ÑĤ": 7415,
      "Ð°ÑĢÐµ": 7416,
      "Ð¾ÑĩÐ°ÑĢ": 7417,
      "ÑĭÐ²Ð°Ð»Ð¾": 7418,
      "ÑĢÐ¾Ð²Ð¾Ð´": 7419,
      "Ð¾Ð»Ð¾Ð³Ð¸Ð¸": 7420,
      "ĠâĢĵâĪ«âĢĶ": 7421,
      "ĠÐ¾Ð±Ð½ÑıÐ»Ð°": 7422,
      "ĠÐ´Ð»Ð¸ÑĤÐµÐ»ÑĮ": 7423,
      "Ð¾Ð¾Ð±ÑĢÐ°Ð·": 7424,
      "ĠÑģÐºÑĢÑĭÑĤ": 7425,
      "ĠÐĿÐµÐ¾Ð¶Ð¸Ð´Ð°": 7426,
      "ĠÐ¼Ð°Ð»ÐµÐ¹": 7427,
      "ĠÐ·Ð°ÐºÐ°Ð½ÑĩÐ¸Ð²": 7428,
      "ĠÐ¿ÑĥÐ½Ðº": 7429,
      "ĠÐ½Ð°ÑĢ": 7430,
      "ĠÑĥÑī": 7431,
      "ÐµÑĩÐºÑĥ": 7432,
      "ÐµÐ½ÑĮÐºÐ¸Ðµ": 7433,
      "Ð¸ÑĤÐµÐ»ÑĮÐ½ÑĥÑİ": 7434,
      "Ð°ÑĪÐºÐ¸": 7435,
      "ĠÐ¿Ð¾Ð½ÑıÐ»Ð¸": 7436,
      "ĠÐ¿ÑĢÐ¾Ð³Ð»Ð¾ÑĤ": 7437,
      "ĠÐ¾ÑĢÑĥÐ¶Ð¸ÐµÐ¼": 7438,
      "ĠÑĤÐµÑħÐ½Ð¾Ð»Ð¾Ð³Ð¸Ð¹": 7439,
      "ÐµÐ¼Ñĭ": 7440,
      "ĠâĢĵâĪĤ": 7441,
      "ĠÐ¦Ðļ": 7442,
      "ĠÑģÐ¾Ð³Ð»Ð°ÑģÐ¸Ð»Ð°ÑģÑĮ": 7443,
      "ĠÑģÐ½Ð¸Ð·Ñĥ": 7444,
      "ĠÐ¸Ñİ": 7445,
      "ĠÐ¾Ð³Ð»ÑıÐ´": 7446,
      "ĠÐºÑĢÐ°ÑĤ": 7447,
      "Ð¾Ð³Ð»Ð°Ñģ": 7448,
      "ĠÐĴÑĢÐµÐ¼Ñı": 7449,
      "ĠÐ¼ÐµÐ½ÑĤ": 7450,
      "ĠÐ¿ÑĢÐ¸ÑĪÐ»Ð¾": 7451,
      "ĠÐ¿ÑĢÐ¸Ð»Ð¸Ñĩ": 7452,
      "ĠÑģÑĤÑĢÐ°Ð½Ð¸": 7453,
      "ÑĢÐ¾Ð¿ÐµÐ¹": 7454,
      "ÑĢÐ¾Ð¸Ð·Ð²": 7455,
      "ĠÐ¿Ð¾ÑĤÐµÐº": 7456,
      "ĠÑįÐ»ÐµÐºÑĤÑĢÐ¾Ð¼": 7457,
      "ĠÐ¿ÑĢÐ¾ÑĦÐµÑģÑģÐ¾ÑĢ": 7458,
      "ĠÑĤÑĢÐ¾Ðµ": 7459,
      "ĠÐ¥Ð¾Ð·ÑıÐ¸Ð½": 7460,
      "ĠÑģÐ»ÐµÐ´Ð¾Ð²Ð°Ð»Ð¾": 7461,
      "ÑĤÑĢÐµÐ½": 7462,
      "ĠÑģÐ¾ÑģÑĤÑĢÐ°Ð´": 7463,
      "ĠÐ²Ð¾Ð¹ÑĤÐ¸": 7464,
      "ÑĪÐµÐ±": 7465,
      "ĠÐ±ÑĢÐ¾": 7466,
      "ĠÐ¼Ð°Ð¼Ð¸Ð½": 7467,
      "ĠÐºÐ¾Ð»Ð»ÐµÐ³": 7468,
      "ĠÐ¿ÑĢÐ°Ð²Ð¸Ð»": 7469,
      "ĠÑģÑĤÐ°ÑĢÐ°Ñı": 7470,
      "ĠÐ¿Ð¾ÑĤÐµÑĢÑıÐ»": 7471,
      "ĠÑģÑĥÑĤÐºÐ¸": 7472,
      "op": 7473,
      "ĠÐ±Ð¸Ð±Ð»Ð¸": 7474,
      "ĠÐŁÐµÐ½Ð½Ð¸": 7475,
      "ĠÑģÐ²ÑıÑĤ": 7476,
      "ĠÑįÐºÑĢÐ°Ð½": 7477,
      "ĠÐ¿Ð¾Ð¹Ð´Ñĥ": 7478,
      "ĠÐ·Ð°Ð´Ð°ÑĩÐ¸": 7479,
      "ĠÑĢÐµÐ±ÐµÐ½ÐºÐ°": 7480,
      "ĠÐ¿ÑĢÐµÐ´Ð¿Ð¾ÑĩÐ¸ÑĤ": 7481,
      "ĠÐĽÐ¸Ð·Ð°": 7482,
      "Ð½Ð°ÑģÑĤÐ¾ÑıÑī": 7483,
      "ĠÐŀÐºÑģÐ°Ð½Ð°": 7484,
      "ÑĪÑĥ": 7485,
      "Ð¸ÑĤÐ°Ð½": 7486,
      "ĠÐ¡ÑĤÑĢÐ°Ð½": 7487,
      "ĠÐ¶ÐµÐ½ÑīÐ¸Ð½Ðµ": 7488,
      "ÑıÐ³Ð¸Ð²Ð°Ñı": 7489,
      "ĠÐ¾ÑģÑĤÐ°Ð½Ð¾Ð²Ð¸ÑĤÑĮ": 7490,
      "ĠÑģÐºÐ°Ð¶ÐµÐ¼": 7491,
      "ĠÐ¿ÐµÑĢÐµÑħÐ²Ð°ÑĤ": 7492,
      "ĠÐ¿ÑĢÐµÐ´ÑĭÐ´ÑĥÑī": 7493,
      "ĠÐ´Ð°Ð»Ð°": 7494,
      "ĠÐ³Ð°Ð´": 7495,
      "ĠÐļÐ¾Ð»Ñı": 7496,
      "ĠÐ¾ÑģÑĤÐ°Ð½Ð¾Ð²Ð¸Ð»Ð°ÑģÑĮ": 7497,
      "ĠÐ¾Ð¿ÑĥÑģÑĤÐ¸Ð»": 7498,
      "ĠÐ¸Ð½ÑĤÐµÐ»Ð»ÐµÐºÑĤÑĥ": 7499,
      "ĠÑĩÐ¸ÑģÐ»Ð¾": 7500,
      "ĠÑĩÑĢÐµÐ·Ð²ÑĭÑĩ": 7501,
      "Ãª": 7502,
      "ĠÐ³ÑĢÐ°Ð²Ð¸ÑĤ": 7503,
      "ĠÑģÐºÑĢÐ¸Ð¿": 7504,
      "ĠÐ·Ð°Ð²ÑĤÑĢÐ°Ðº": 7505,
      "ĠÐ¿ÑĢÐµÐ´ÑģÑĤÐ°Ð²Ð»ÐµÐ½Ð¸Ñı": 7506,
      "ĠÐ³ÑĢÑĥÐ´ÐµÐ¹": 7507,
      "ĠÐŁÐ¾ÑĩÑĤÐ¸": 7508,
      "ĠÑģÐ¾Ð¾Ð±ÑīÐ¸Ð»": 7509,
      "ĠÐºÑĢÐµÑģÐ»Ð°": 7510,
      "ĠÐľÐ¸ÑĪÐºÐ°": 7511,
      "ĠÐ¼ÐµÐ´Ð¸ÑĨÐ¸Ð½": 7512,
      "ÑĪÐ¸Ð²": 7513,
      "Ð¾Ð´Ð¾Ð±": 7514,
      "ĠÐºÐ¾Ð½ÑĨÑĥ": 7515,
      "Ð»ÑİÑģÑĮ": 7516,
      "ĠÐ¨Ð¾Ð¿ÐµÐ½Ð³Ð°Ñĥ": 7517,
      "ĠÐ¾ÑģÐ½Ð¾Ð²Ð°Ð½Ð¸Ñı": 7518,
      "ĠÐ½ÐµÐ¾Ð±ÑħÐ¾Ð´Ð¸Ð¼Ð¾ÑģÑĤÐ¸": 7519,
      "ĠÑĤÑĳÐ¼": 7520,
      "ĠÐ»Ð¾Ð¿": 7521,
      "ĠÐŀÐ»": 7522,
      "Ð¸ÑĩÐ½ÐµÐ²": 7523,
      "ÑįÐ»": 7524,
      "ĠÐ¿Ð¾Ð»ÑĥÑĩÐ¸Ð»Ð¸": 7525,
      "ĠÑģÐ¾Ð»Ð´Ð°": 7526,
      "ĠÐ´ÑĥÑĪÑĥ": 7527,
      "ĠÑģÑĤÑĢÐ°ÑģÑĤÐ½Ð¾": 7528,
      "ĠÑĤÐºÐ°Ð½ÑĮ": 7529,
      "ĠÐ¿Ð°ÑģÑģ": 7530,
      "Ð²Ð¸Ð·": 7531,
      "ĠÐ¼Ð¾ÑĤÐ¸Ð²": 7532,
      "Ð¾Ð¼ÐµÑĤ": 7533,
      "ĠÐ¿ÑĢÐ¾Ð±Ð»": 7534,
      "ĠÐ¿ÑĢÐ¾ÑģÑĥ": 7535,
      "ĠÐ±ÐµÑģÐ¿Ð¾ÐºÐ¾Ð¹": 7536,
      "ĠÐ¸Ð·Ð¼ÐµÐ½ÐµÐ½Ð¸Ñı": 7537,
      "ĠÐ²ÐµÑģÐµÐ»Ð¾": 7538,
      "ĠÑģÐµÑĢÐ´ÑĨÐ°": 7539,
      "ĠÐ¿Ð¾Ð´Ð¾Ð·ÑĢ": 7540,
      "ĠÑĩÐµÑģÑĤÑĮ": 7541,
      "ĠÐ¿Ð¾ÑģÐ»ÐµÐ´Ð½Ð¸Ñħ": 7542,
      "ĠÑĦÑĢÐ°Ð³": 7543,
      "ĠÐłÑĥÑģ": 7544,
      "ĠÐ¿ÑĢÐ¸Ð²ÐµÑģÑĤÐ¸": 7545,
      "ĠÐºÑĢÐ¾Ð²ÑĮÑİ": 7546,
      "ĠÐŀÐ´Ð½Ð°": 7547,
      "ĠÐ´Ð°Ð»ÐµÐº": 7548,
      "ĠÑģÐ¾Ð±ÑģÑĤÐ²ÐµÐ½Ð½Ð¾Ð³Ð¾": 7549,
      "ĠÐ´ÐµÑĢÐµÐ²ÑıÐ½": 7550,
      "Ġ?": 7551,
      "ÐµÑĩÐºÐ°": 7552,
      "ĠÐ²Ð¾Ð»Ð½Ñĭ": 7553,
      "ĠÑĥÑĩÐ¸ÑĤÑĮÑģÑı": 7554,
      "ĠÐĿÐµÐ²": 7555,
      "ĠÐ´ÑĢÑĥÐ³Ð¾Ð¼Ñĥ": 7556,
      "ĠÐºÐ½Ð¸Ð¶": 7557,
      "ĠÑĢÐ°Ð·Ð´Ð²Ð¸Ð³": 7558,
      "ĠÑģÑĥÐ´Ñı": 7559,
      "35": 7560,
      "Ð°ÑĤÐµÑĢ": 7561,
      "ÑĭÐ²Ð°Ð½Ð¸Ñı": 7562,
      "ĠÐ¿ÑĢÐ¾ÑĩÑĮ": 7563,
      "Ġde": 7564,
      "ĠÐ½ÐµÐ½Ð°Ð²Ð¸Ð´": 7565,
      "ĠÐ¼Ð°Ðº": 7566,
      "ÑĨÐ²ÐµÑĤ": 7567,
      "ĠÑģÐ¿Ð¸Ñģ": 7568,
      "ĠÐ²Ð´Ð¾Ñħ": 7569,
      "ĠÐ¾ÑħÑĢÐ°Ð½": 7570,
      "ĠÐ´Ð¾ÑĢÐ¾Ð³Ð¾Ð¹": 7571,
      "ĠÐ·Ð°ÐºÐ¾Ð½ÑĩÐ¸Ð»": 7572,
      "ĠÑĢÐ°Ð·Ð²Ð¸ÑĤÐ¸Ðµ": 7573,
      "ĠÑĤÐµÐºÑģÑĤ": 7574,
      "ĠÐ²ÑĭÐ³Ð»ÑıÐ´Ð¸ÑĤ": 7575,
      "Ð°ÑĪÑĥ": 7576,
      "ÑģÐ¼Ð°ÑĤÑĢ": 7577,
      "ĠÐ´ÑĥÐ¼Ð°Ñı": 7578,
      "ĠII": 7579,
      "ĠÐ¿ÑĢÐ¸Ð¶Ð°Ð»": 7580,
      "ĠÐĿÐ°Ð¿Ð¾Ð»ÐµÐ¾Ð½Ð°": 7581,
      "ÑĥÐ»Ð°": 7582,
      "ĠâĢ¦": 7583,
      "Ð¶ÐµÐ½Ð¸Ñı": 7584,
      "Ð°Ð´ÐµÐ¼": 7585,
      "Ð°ÑĤÑģÑı": 7586,
      "ÐµÑĩÐºÐ¸": 7587,
      "ĠÑĤÐµÑħÐ½Ð¸ÐºÐ¸": 7588,
      "ĠÐ¾ÑģÑĤÐ°Ð²Ð¸ÑĤÑĮ": 7589,
      "Ð¸ÑĢÑĥÑı": 7590,
      "ĠÐ±ÐµÑģÐ¿Ð¾ÐºÐ¾": 7591,
      "ĠÑģÑĤÐµÐ½Ñĥ": 7592,
      "ĠÐ¾Ð±ÑħÐ²Ð°ÑĤÐ¸Ð»Ð°": 7593,
      "ĠÐ¼Ð½Ð¾Ñİ": 7594,
      "ĠÐ±ÑĳÐ´": 7595,
      "ĠÐĶÐ²": 7596,
      "ĠÐ°Ð²Ð¸": 7597,
      "Ġth": 7598,
      "ĠÐ¸Ð·Ð¼ÐµÐ½Ð¸ÑĤÑĮ": 7599,
      "Ð¸ÐºÑģ": 7600,
      "Ð½ÑĥÑĤÑĭ": 7601,
      "ĠÐ²Ð¾Ð»Ð½Ð°": 7602,
      "ĠÑĥÐºÐ°Ð·ÑĭÐ²": 7603,
      "ĠÐ¿ÑĢÐ¸Ð¾ÑĤÐºÑĢÑĭ": 7604,
      "ĠÐ¿ÐµÐ½Ð¸Ñģ": 7605,
      "ĠÑĢÐ°Ð¼": 7606,
      "ÐµÐ²ÑĪÐ¸Ð¹": 7607,
      "ĠÑģÑĤÐ¾ÑıÐ²": 7608,
      "Ð°ÑĤÐµÐ»ÑĮÐ½ÑĭÐ¼": 7609,
      "ĠÐ¾Ð³ÑĢÐ¾Ð¼Ð½Ð¾Ð¹": 7610,
      "ĠÑĩÐµÐ»Ð¾Ð²ÐµÑĩÐµÑģÐºÐ¾Ð³Ð¾": 7611,
      "ĠÑģÐ¿Ð°ÑģÐ¸Ð±Ð¾": 7612,
      "Ð¾Ð³Ñĥ": 7613,
      "ĠÑıÑĢÐ¾ÑģÑĤ": 7614,
      "ÑĢÐ¾ÑģÐ¸Ð»Ð°": 7615,
      "ĠÑĢÐ°ÐºÐµÑĤÑĭ": 7616,
      "ĠÐ°Ð´Ð¼Ð¸": 7617,
      "ĠÐ¾ÑģÐ»": 7618,
      "ĠÑĤÑĮ": 7619,
      "ÑģÐºÑĥ": 7620,
      "ĠÐ¡ÐµÐ¼": 7621,
      "ÑĥÑģÐ¾Ð²": 7622,
      "ĠÑģÐ¾Ð³Ð»Ð°ÑĪ": 7623,
      "ĠÐ¿Ð¾Ð²ÐµÑĢÑħÐ½Ð¾ÑģÑĤÑĮ": 7624,
      "ĠÐ´Ð¶Ð¸Ð½ÑģÑĭ": 7625,
      "ĠÐŁÐ¾Ð¶Ð°Ð»ÑĥÐ¹": 7626,
      "ĠÐ¿Ð»Ð¾Ð´": 7627,
      "ĠÐ·Ð°Ð¿ÑĥÑģÐº": 7628,
      "ĠÐ´ÐµÐ²ÑĩÐ¾Ð½ÐºÐ¸": 7629,
      "ĠÐ²Ð¾ÑģÑħÐ¸ÑĤ": 7630,
      "ĠÐ¡Ð°Ð´Ð¶Ð¸": 7631,
      "ĠÐŁÐ¾Ð½Ð¸Ð¼": 7632,
      "ĠÐ¿Ð¾Ð²ÐµÑĢÐ¸ÑĤÑĮ": 7633,
      "ĠÑĢÑĭÐ¶": 7634,
      "ĠÐ¾Ð¿ÑĥÑģÑĤÐ¸Ð»Ð°": 7635,
      "ĠÐ¿ÐµÑĢÐµÐ¼ÐµÑī": 7636,
      "ĠÐĿÐµÐºÐ¾ÑĤÐ¾ÑĢÑĭÐµ": 7637,
      "ĠÐ½ÐµÐ¿Ð¾ÑģÑĢÐµÐ´": 7638,
      "ĠÐ´ÑĥÐ±": 7639,
      "ĠÐ½Ð°ÑīÑĥÐ¿": 7640,
      "ÑĤÐ¸Ñİ": 7641,
      "ĠÑģÐ»ÐµÐ¿": 7642,
      "ĠÐĶÐ¾ÑģÑĤ": 7643,
      "ĠÐ¿ÑĢÐµÐ´Ð¼": 7644,
      "ĠÑıÐ·ÑĭÐºÐµ": 7645,
      "ĠÐ²Ð´Ð²Ð¾": 7646,
      "ĠÑĢÐµÐ»Ð¸Ð³Ð¸Ð¾Ð·": 7647,
      "ĠÑĢÐµÑĩÐ¸": 7648,
      "ĠÐ»Ð¾ÑĪ": 7649,
      "Ð¾ÑħÐ¾ÑĤ": 7650,
      "ĠÐ·Ð°ÑģÐ¼": 7651,
      "ĠÑĥÑģÐ»ÑĥÐ³": 7652,
      "ĠÑĪÐ¸ÑĢÐµ": 7653,
      "Ð°ÑİÑīÐ¸ÑħÑģÑı": 7654,
      "ĠÐĴÐ°Ð»ÐµÑĢ": 7655,
      "ĠÐ¿Ð¾Ð´ÑĤÐ²ÐµÑĢÐ´": 7656,
      "ĠÐ¿Ð¾ÑģÑĢÐµÐ´Ð¸": 7657,
      "ÑİÐº": 7658,
      "Ð¼Ð¸Ð³": 7659,
      "ÑĥÐ³Ð¾Ð»ÑĮ": 7660,
      "ĠÑģÑĥÑīÐµÑģÑĤÐ²Ð¾Ð²Ð°Ð½Ð¸Ñı": 7661,
      "ĠK": 7662,
      "ÑıÑİ": 7663,
      "Ð°ÑĢÑħ": 7664,
      "ĠÐ¡Ñĭ": 7665,
      "ĠÐĶÐ¾Ð½": 7666,
      "Ð²Ð¾Ð»Ñİ": 7667,
      "ĠÐ²Ð¾Ð´Ðµ": 7668,
      "Ð½ÑĥÑģÑĮ": 7669,
      "ĠÐ¿ÑĢÐ°Ð²Ð¾Ð¹": 7670,
      "ĠÐ¿ÑĢÐ¾Ð²ÐµÐ»Ð°": 7671,
      "ĠÐ¿Ð¾Ð±Ð»Ð¸Ð¶Ðµ": 7672,
      "ĠÐ¿Ð¸ÑģÑĮÐºÑĥ": 7673,
      "ĠÑģÑĤÑĭÐ´Ð½Ð¾": 7674,
      "ÎĲ": 7675,
      "Ð·Ðµ": 7676,
      "Ð°Ð²Ð°Ñı": 7677,
      "Ð¾ÑĤÐ¾Ð²": 7678,
      "ĠÑģÐµÑĢÑĮÑĳÐ·": 7679,
      "Ð¶Ð°": 7680,
      "ĠÑĥÑģÐ¿ÐµÐ»Ð¸": 7681,
      "ĠÐ¨ÐµÐ»ÐµÐ¿": 7682,
      "ĠÐľÐ°ÑĢÑĤÐ¸Ð½": 7683,
      "Ð¸ÑĢÐ°ÑĤÑĮÑģÑı": 7684,
      "ĠÑįÐ½ÐµÑĢÐ³Ð¸Ñİ": 7685,
      "ĠÐ¿Ð¸ÑĢ": 7686,
      "ĠÐ²Ð¸": 7687,
      "ĠÑĥÑĪÐ»Ð¸": 7688,
      "ĠÐºÐ°Ð¿ÐµÐ»ÑĮ": 7689,
      "ĠÐºÐ²Ð°ÑĢÑĤÐ¸ÑĢÐµ": 7690,
      "ĠÐ±ÐµÑĢÐµÐ³Ñĥ": 7691,
      "ĠÐ²Ð¾ÑģÐºÐ»Ð¸": 7692,
      "ĠÐ´ÐµÑıÑĤÐµÐ»ÑĮÐ½Ð¾ÑģÑĤÐ¸": 7693,
      "ĠÐ¾ÑĤÑģÑĤÑĢÐ°Ð½Ð¸": 7694,
      "st": 7695,
      "ĠčĊ": 7696,
      "ÐºÐ¾Ð³": 7697,
      "ĠÐºÐ°Ð´": 7698,
      "ĠÐ¿ÑĢÐ¸Ð³Ð¾Ð´": 7699,
      "ĠÐĳÑĢ": 7700,
      "ĠÐ¾ÑģÑĤÐ°ÑĤÑĮÑģÑı": 7701,
      "ĠÐ¶Ð¸Ð²ÑĥÑĤ": 7702,
      "ĠÐ¼Ð¸Ð½ÐµÑĤ": 7703,
      "ĠÐ¾Ð±Ð¸ÑĤ": 7704,
      "Ð¾ÑģÑĤÐµÐ¹": 7705,
      "ĠÐ¿ÑĢÐ¸ÑģÐ»ÑĥÑĪ": 7706,
      "ĠÑĢÐ°Ð·Ð³Ð»Ñı": 7707,
      "ĠÐ»ÑĥÑĩÑĪÐ¸Ðµ": 7708,
      "ĠÑĢÐ°Ð·Ð´Ð²Ð¸Ð½ÑĥÐ²": 7709,
      "ĠÐ¾ÑĤÐ²ÐµÑĢÑģÑĤÐ¸": 7710,
      "ĠÐ²ÑĭÐ½ÑĥÐ¶Ð´": 7711,
      "ĠÑģÐ»ÑĥÑĩÐ°ÑıÑħ": 7712,
      "Ð°ÐºÐ¾Ð²": 7713,
      "ĠÑĤÐ°ÐºÑĤ": 7714,
      "ÑģÐ»Ð¸Ð²": 7715,
      "ĠÐ½Ð¸ÑĩÑĤÐ¾": 7716,
      "ĠÐºÐ°Ð¶Ð´Ð¾Ðµ": 7717,
      "ĠÐ°Ð½Ð°Ð»Ð¸Ð·": 7718,
      "ĠÐ»Ð°ÑģÐºÐ¸": 7719,
      "ĠÐ´Ð°Ð»ÐµÐµ": 7720,
      "ĠÐ´Ð¾ÐºÑĤÐ¾ÑĢ": 7721,
      "ĠÐ¼Ð¾Ð»ÑĩÐ°Ð»": 7722,
      "ĠÐŁÑĢÐ¾ÑĪÐ»Ð¾": 7723,
      "Ð¸ÐºÐ°Ñħ": 7724,
      "ĠÐ»ÑİÐ±Ð¾Ð²ÑĮÑİ": 7725,
      "Ġto": 7726,
      "ĠÐ¼Ð¸Ð»Ð»Ð¸Ð°ÑĢÐ´Ð¾Ð²": 7727,
      "ÐµÑĢÐµÐ½": 7728,
      "ĠÑĢÐ°ÑģÑĤÐ¸": 7729,
      "ĠÐ¿Ð¾Ð¾Ð±": 7730,
      "âĢ¦,": 7731,
      "ĠÑĦÐ°Ð½ÑĤÐ°": 7732,
      "ĠÐ¿ÑĢÐµÐ´Ð»Ð¾Ð¶Ð¸Ð»Ð°": 7733,
      "ĠÐ¿Ð¾Ð»Ð¾Ð¶ÐµÐ½Ð¸Ð¸": 7734,
      "ĠÐ²Ð°ÑĪÐ¸Ñħ": 7735,
      "ĠÐºÑĢÐµÑģÐ»Ðµ": 7736,
      "Ð»ÑĭÐ¼": 7737,
      "ĠÐ¿Ð¾Ð¸Ð³": 7738,
      "ÑģÑĤÐ²Ð¸Ð¹": 7739,
      "ĠÐļÑĥÐ´Ð°": 7740,
      "ĠÐ¿Ð¾Ð»ÑĥÐ¿": 7741,
      "ĠÐĲÐ½Ð³Ð»Ð¸": 7742,
      "ĠÐĲÑĢÑĤÑĥÑĢÐ°": 7743,
      "ĠÑĢÐ°Ð·Ð»Ð¸ÑĩÐ½ÑĭÑħ": 7744,
      "ĠÐºÐ°Ð¶Ð´Ð°Ñı": 7745,
      "ÐµÑĤÐ¸ÑĤ": 7746,
      "ĠÑĢÐ²": 7747,
      "ĠÐ³Ð¾ÑĢÐ¸Ð·": 7748,
      "ĠÑĥÐ²Ð»ÐµÐº": 7749,
      "ĠÐ¾ÑĤÐ½Ð¾ÑĪÐµÐ½Ð¸Ðµ": 7750,
      "ĠÐ´ÐµÐ¼Ð¾Ð½ÑģÑĤÑĢÐ¸": 7751,
      "ĠÐ³Ð°ÑĢÐ°Ð½": 7752,
      "ĠÑĢÐ°Ð·Ð¾ÑĩÐ°ÑĢ": 7753,
      "ÑĤÑĥÑĢÐµ": 7754,
      "ĠÐ²ÐµÑĢÐ°": 7755,
      "ĠÐ´Ð°Ð²Ð»ÐµÐ½Ð¸Ðµ": 7756,
      "ĠÐ·Ð°Ð±ÑĭÐ²": 7757,
      "ĠÐĿÐ¸ÐºÐ¾Ð³Ð´Ð°": 7758,
      "ĠÑģÐ½Ð¸Ð¼Ð°ÑĤÑĮ": 7759,
      "ĠÐ²Ð¸Ð±ÑĢÐ°": 7760,
      "30": 7761,
      "ĠÑģÑįÑĢ": 7762,
      "ĠÐ²Ð»ÑİÐ±": 7763,
      "ÑĩÐºÑĥ": 7764,
      "ĠÐºÐ¾Ð²": 7765,
      "ÐµÐ´Ð¾Ð¼": 7766,
      "Ð¾Ð²Ð¾ÑĢÐ¸Ð»Ð°": 7767,
      "Ð½ÑĥÑĤÑģÑı": 7768,
      "ĠÐŁÑĢÐµÐ´ÑģÑĤÐ°Ð²": 7769,
      "Ġ\\\\\\*": 7770,
      "ĠU": 7771,
      "Ð»Ð¸Ð»": 7772,
      "ĠÐ¿ÑĢÐ¾Ð»ÐµÑĤ": 7773,
      "Ð°Ð´Ñĥ": 7774,
      "ĠÐ°ÑĢÐ¾Ð¼Ð°ÑĤ": 7775,
      "ĠÑħÐ¾Ð´Ð¸Ð»": 7776,
      "ĠÐ¼Ð°ÑĪÐ¸Ð½Ðµ": 7777,
      "ĠÐ¼Ð¸ÐºÑĢÐ¾": 7778,
      "ĠÐ½ÐµÐ´Ð¾ÑĥÐ¼": 7779,
      "ÑģÑĤÐ²Ð°Ð¼Ð¸": 7780,
      "ĠÐ¿Ð¾Ð´Ð¾Ð±Ð½Ð¾Ð³Ð¾": 7781,
      "ĠâĢĵÂ¥âĢĶ": 7782,
      "ĠÐ¾ÑĤÐ½Ð¾ÑģÐ¸ÑĤÑģÑı": 7783,
      "ĠÐ²Ð¾Ð·ÑĢÐ°ÑģÑĤÐ°": 7784,
      "ĠÑįÐºÑģÐ¿ÐµÑĢÐ¸Ð¼ÐµÐ½ÑĤ": 7785,
      "ÑģÑĤÐ¸ÐºÐ°": 7786,
      "ĠÐ²Ð¾Ð´Ð¸ÑĤÑĮ": 7787,
      "ĠÑĥÑģÐ¿ÐµÑĪÐ½Ð¾": 7788,
      "ĠÐ¾ÑģÑĤÐ°Ð²Ð¸Ð²": 7789,
      "ĠÐ¿Ð¾ÑĨÐµÐ»ÑĥÐ¹": 7790,
      "ĠÐ¡ÐµÑģÑĤÑĢÐ°": 7791,
      "ĠÐ¾Ð¿ÑĢÐµÐ´ÐµÐ»Ñı": 7792,
      "Ð°Ð»ÐµÐºÐ¾": 7793,
      "Ð¾Ð¼Ð¾Ñī": 7794,
      "ĠÑĪÑĤÐ°ÑĤ": 7795,
      "ĠÐ²ÑĭÑģÑĪÐµÐ¹": 7796,
      "ĠÐ¸ÑģÐ¿Ð¾Ð»ÑĮÐ·Ð¾Ð²": 7797,
      "ÑģÐºÐ¾ÑĢÐ±": 7798,
      "ĠÑģÑĤÑĢÐ¾Ð¸ÑĤÑĮ": 7799,
      "ĠÑĦÐ¾ÑĢÐ¼Ð°": 7800,
      "ĠÐ½Ð°Ð¿Ð¸ÑģÐ°Ð»": 7801,
      "ĠÐ°Ð³ÑĢÐµÑģÑģ": 7802,
      "ĠÑĥÑĢÐ¾Ð´": 7803,
      "ĠÐ¾ÑĤÐ»Ð¸ÑĩÐ½Ð¾": 7804,
      "Ð½ÐµÑĪÑĮ": 7805,
      "Ð½ÑıÐ¼Ð¸": 7806,
      "ĠÐ²ÑģÑıÐºÐ¸Ñħ": 7807,
      "ĠÑģÐ¾ÐºÑĢÐ¾Ð²": 7808,
      "ĠÐ¼ÑĥÐ·ÑĭÐºÐ¸": 7809,
      "ÃŃ": 7810,
      "ĠÑģÐ¾ÑĢÐ²": 7811,
      "ĠÐ¿ÑĢÐ¸Ð²ÐµÐ´": 7812,
      "ĠÐ¾ÑģÑĤÐ°Ð²Ð¸Ð»": 7813,
      "ĠÑħÐ¾Ð´Ñĥ": 7814,
      "ÐŀÑĤ": 7815,
      "ĠÐºÐ¸Ð»Ð¾Ð¼ÐµÑĤ": 7816,
      "ĠÐ²Ð¸Ð½": 7817,
      "ĠÐºÑĢÐµÐ´": 7818,
      "ÑĦÐ¸ÐºÐ°": 7819,
      "ÑĤÐµÑĦ": 7820,
      "ĠÑģÐ»ÐµÐ´Ñĭ": 7821,
      "ĠÑįÐ»ÐµÐºÑĤÑĢÐ¸ÑĩÐµÑģÐº": 7822,
      "ĠÐ¶ÐµÑĢÑĤÐ²Ñĭ": 7823,
      "39": 7824,
      "ÑĳÑĤÐ°": 7825,
      "ÐµÐ²Ð¾": 7826,
      "ĠÐĶÐ°Ð½Ð¸": 7827,
      "ĠÑĢÑĥÐ³": 7828,
      "ĠÐ£Ð²Ð¸Ð´": 7829,
      "Ð¸Ð½ÑĥÐ»Ð¸ÑģÑĮ": 7830,
      "ĠÐ´Ð²ÐµÑĢÑĮÑİ": 7831,
      "ĠÐ±ÐµÐ»ÑĭÐµ": 7832,
[...]
